{
  "version": "1.0",
  "truncation": {
    "direction": "Left",
    "max_length": 512,
    "strategy": "LongestFirst",
    "stride": 0
  },
  "padding": {
    "strategy": "BatchLongest",
    "direction": "Right",
    "pad_to_multiple_of": null,
    "pad_id": 1,
    "pad_type_id": 0,
    "pad_token": "<pad>"
  },
  "added_tokens": [
    {
      "id": 0,
      "content": "<s>",
      "single_word": false,
      "lstrip": false,
      "rstrip": false,
      "normalized": true,
      "special": true
    },
    {
      "id": 1,
      "content": "<pad>",
      "single_word": false,
      "lstrip": false,
      "rstrip": false,
      "normalized": true,
      "special": true
    },
    {
      "id": 2,
      "content": "</s>",
      "single_word": false,
      "lstrip": false,
      "rstrip": false,
      "normalized": true,
      "special": true
    },
    {
      "id": 3,
      "content": "<unk>",
      "single_word": false,
      "lstrip": false,
      "rstrip": false,
      "normalized": true,
      "special": true
    },
    {
      "id": 4,
      "content": "<mask>",
      "single_word": false,
      "lstrip": true,
      "rstrip": false,
      "normalized": false,
      "special": true
    }
  ],
  "normalizer": null,
  "pre_tokenizer": {
    "type": "ByteLevel",
    "add_prefix_space": true,
    "trim_offsets": true,
    "use_regex": true
  },
  "post_processor": {
    "type": "RobertaProcessing",
    "sep": [
      "</s>",
      2
    ],
    "cls": [
      "<s>",
      0
    ],
    "trim_offsets": true,
    "add_prefix_space": true
  },
  "decoder": {
    "type": "ByteLevel",
    "add_prefix_space": true,
    "trim_offsets": true,
    "use_regex": true
  },
  "model": {
    "type": "BPE",
    "dropout": null,
    "unk_token": null,
    "continuing_subword_prefix": "",
    "end_of_word_suffix": "",
    "fuse_unk": false,
    "byte_fallback": false,
    "ignore_merges": false,
    "vocab": {
      "<s>": 0,
      "<pad>": 1,
      "</s>": 2,
      "<unk>": 3,
      "<mask>": 4,
      "!": 5,
      "\"": 6,
      "#": 7,
      "$": 8,
      "%": 9,
      "&": 10,
      "'": 11,
      "(": 12,
      ")": 13,
      "*": 14,
      "+": 15,
      ",": 16,
      "-": 17,
      ".": 18,
      "/": 19,
      "0": 20,
      "1": 21,
      "2": 22,
      "3": 23,
      "4": 24,
      "5": 25,
      "6": 26,
      "7": 27,
      "8": 28,
      "9": 29,
      ":": 30,
      ";": 31,
      "<": 32,
      "=": 33,
      ">": 34,
      "?": 35,
      "@": 36,
      "A": 37,
      "B": 38,
      "C": 39,
      "D": 40,
      "E": 41,
      "F": 42,
      "G": 43,
      "H": 44,
      "I": 45,
      "J": 46,
      "K": 47,
      "L": 48,
      "M": 49,
      "N": 50,
      "O": 51,
      "P": 52,
      "Q": 53,
      "R": 54,
      "S": 55,
      "T": 56,
      "U": 57,
      "V": 58,
      "W": 59,
      "X": 60,
      "Y": 61,
      "Z": 62,
      "[": 63,
      "\\": 64,
      "]": 65,
      "^": 66,
      "_": 67,
      "`": 68,
      "a": 69,
      "b": 70,
      "c": 71,
      "d": 72,
      "e": 73,
      "f": 74,
      "g": 75,
      "h": 76,
      "i": 77,
      "j": 78,
      "k": 79,
      "l": 80,
      "m": 81,
      "n": 82,
      "o": 83,
      "p": 84,
      "q": 85,
      "r": 86,
      "s": 87,
      "t": 88,
      "u": 89,
      "v": 90,
      "w": 91,
      "x": 92,
      "y": 93,
      "z": 94,
      "{": 95,
      "|": 96,
      "}": 97,
      "~": 98,
      "¡": 99,
      "¢": 100,
      "£": 101,
      "¤": 102,
      "¥": 103,
      "¦": 104,
      "§": 105,
      "¨": 106,
      "©": 107,
      "ª": 108,
      "«": 109,
      "¬": 110,
      "®": 111,
      "¯": 112,
      "°": 113,
      "±": 114,
      "²": 115,
      "³": 116,
      "´": 117,
      "µ": 118,
      "¶": 119,
      "·": 120,
      "¸": 121,
      "¹": 122,
      "º": 123,
      "»": 124,
      "¼": 125,
      "½": 126,
      "¾": 127,
      "¿": 128,
      "À": 129,
      "Á": 130,
      "Â": 131,
      "Ã": 132,
      "Ä": 133,
      "Å": 134,
      "Æ": 135,
      "Ç": 136,
      "È": 137,
      "É": 138,
      "Ê": 139,
      "Ë": 140,
      "Ì": 141,
      "Í": 142,
      "Î": 143,
      "Ï": 144,
      "Ð": 145,
      "Ñ": 146,
      "Ò": 147,
      "Ó": 148,
      "Ô": 149,
      "Õ": 150,
      "Ö": 151,
      "×": 152,
      "Ø": 153,
      "Ù": 154,
      "Ú": 155,
      "Û": 156,
      "Ü": 157,
      "Ý": 158,
      "Þ": 159,
      "ß": 160,
      "à": 161,
      "á": 162,
      "â": 163,
      "ã": 164,
      "ä": 165,
      "å": 166,
      "æ": 167,
      "ç": 168,
      "è": 169,
      "é": 170,
      "ê": 171,
      "ë": 172,
      "ì": 173,
      "í": 174,
      "î": 175,
      "ï": 176,
      "ð": 177,
      "ñ": 178,
      "ò": 179,
      "ó": 180,
      "ô": 181,
      "õ": 182,
      "ö": 183,
      "÷": 184,
      "ø": 185,
      "ù": 186,
      "ú": 187,
      "û": 188,
      "ü": 189,
      "ý": 190,
      "þ": 191,
      "ÿ": 192,
      "Ā": 193,
      "ā": 194,
      "Ă": 195,
      "ă": 196,
      "Ą": 197,
      "ą": 198,
      "Ć": 199,
      "ć": 200,
      "Ĉ": 201,
      "ĉ": 202,
      "Ċ": 203,
      "ċ": 204,
      "Č": 205,
      "č": 206,
      "Ď": 207,
      "ď": 208,
      "Đ": 209,
      "đ": 210,
      "Ē": 211,
      "ē": 212,
      "Ĕ": 213,
      "ĕ": 214,
      "Ė": 215,
      "ė": 216,
      "Ę": 217,
      "ę": 218,
      "Ě": 219,
      "ě": 220,
      "Ĝ": 221,
      "ĝ": 222,
      "Ğ": 223,
      "ğ": 224,
      "Ġ": 225,
      "ġ": 226,
      "Ģ": 227,
      "ģ": 228,
      "Ĥ": 229,
      "ĥ": 230,
      "Ħ": 231,
      "ħ": 232,
      "Ĩ": 233,
      "ĩ": 234,
      "Ī": 235,
      "ī": 236,
      "Ĭ": 237,
      "ĭ": 238,
      "Į": 239,
      "į": 240,
      "İ": 241,
      "ı": 242,
      "Ĳ": 243,
      "ĳ": 244,
      "Ĵ": 245,
      "ĵ": 246,
      "Ķ": 247,
      "ķ": 248,
      "ĸ": 249,
      "Ĺ": 250,
      "ĺ": 251,
      "Ļ": 252,
      "ļ": 253,
      "Ľ": 254,
      "ľ": 255,
      "Ŀ": 256,
      "ŀ": 257,
      "Ł": 258,
      "ł": 259,
      "Ń": 260,
      "Ġt": 261,
      "Ġa": 262,
      "Ġi": 263,
      "Ġth": 264,
      "Ġs": 265,
      "in": 266,
      "er": 267,
      "Ġw": 268,
      "on": 269,
      "at": 270,
      "re": 271,
      "Ġm": 272,
      "ou": 273,
      "Ġthe": 274,
      "Ġb": 275,
      "nd": 276,
      "ing": 277,
      "Ġc": 278,
      "Ġf": 279,
      "Ġto": 280,
      "ĠI": 281,
      "or": 282,
      "es": 283,
      "Ġn": 284,
      "le": 285,
      "Ġp": 286,
      "Ġit": 287,
      "Ġ.": 288,
      "Ġd": 289,
      "en": 290,
      "Ġh": 291,
      "Ġand": 292,
      "an": 293,
      "pp": 294,
      "Ġu": 295,
      "ll": 296,
      "ed": 297,
      "Ġo": 298,
      "Ġg": 299,
      "is": 300,
      "Ġl": 301,
      "as": 302,
      "ve": 303,
      "it": 304,
      "Ġapp": 305,
      "Ġis": 306,
      "ic": 307,
      "ot": 308,
      "om": 309,
      "ar": 310,
      "Ġy": 311,
      "ver": 312,
      "Ġon": 313,
      "Ġe": 314,
      "st": 315,
      "Ġre": 316,
      "Ġbe": 317,
      "ow": 318,
      "ut": 319,
      "Ġyou": 320,
      "oo": 321,
      "Ġ,": 322,
      "Ġin": 323,
      "Ġwh": 324,
      "Ġha": 325,
      "se": 326,
      "Ġof": 327,
      "Ġ!": 328,
      "ly": 329,
      "ay": 330,
      "Ġmy": 331,
      "ch": 332,
      "Ġ'": 333,
      "Ġfor": 334,
      "'t": 335,
      "et": 336,
      "ion": 337,
      "ac": 338,
      "ke": 339,
      "Ġthis": 340,
      "ĠT": 341,
      "all": 342,
      "Ġst": 343,
      "ld": 344,
      "Ġup": 345,
      "id": 346,
      "ith": 347,
      "Ġbut": 348,
      "Ġnot": 349,
      "ate": 350,
      "Ġhave": 351,
      "Ġan": 352,
      "ĠA": 353,
      "ad": 354,
      "Ġcan": 355,
      "Ġdo": 356,
      "Ġthat": 357,
      "ro": 358,
      "Ġwith": 359,
      "one": 360,
      "ri": 361,
      "me": 362,
      "Ġne": 363,
      "al": 364,
      "Ġse": 365,
      "ent": 366,
      "very": 367,
      "ĠS": 368,
      "ble": 369,
      "ould": 370,
      "ĠTh": 371,
      "ess": 372,
      "Ġso": 373,
      "th": 374,
      "ter": 375,
      "Ġme": 376,
      "ĠG": 377,
      "ust": 378,
      "Ġch": 379,
      "Ġlo": 380,
      "Ġv": 381,
      "ct": 382,
      "Ġwor": 383,
      "ag": 384,
      "Ġupd": 385,
      "ood": 386,
      "out": 387,
      "ĠW": 388,
      "Ġ?": 389,
      "Ġli": 390,
      "ap": 391,
      "ally": 392,
      "Ġuse": 393,
      "ere": 394,
      "eo": 395,
      "Ġus": 396,
      "Ġas": 397,
      "Ġsh": 398,
      "Ġor": 399,
      "el": 400,
      "..": 401,
      "Ġall": 402,
      "Ġ:": 403,
      "gh": 404,
      "ant": 405,
      "ore": 406,
      "Ġcon": 407,
      "reat": 408,
      "il": 409,
      "ĠÃ": 410,
      "ome": 411,
      "Ġupdate": 412,
      "Ġj": 413,
      "Ġti": 414,
      "Ġwhen": 415,
      "Ġph": 416,
      "ill": 417,
      "ack": 418,
      "ce": 419,
      "Ġwork": 420,
      "am": 421,
      "est": 422,
      "Ġare": 423,
      "Ġad": 424,
      "ple": 425,
      "Ġget": 426,
      "Ġlike": 427,
      "Ġal": 428,
      "ation": 429,
      "Ġwas": 430,
      "Ġde": 431,
      "Ġgood": 432,
      "ul": 433,
      "ice": 434,
      "ĠIt": 435,
      "nt": 436,
      "ub": 437,
      "âĢ": 438,
      "Ġwe": 439,
      "leas": 440,
      "ĠY": 441,
      "Ġpro": 442,
      "ure": 443,
      "ĠB": 444,
      "Ġjust": 445,
      "Ġfr": 446,
      "nap": 447,
      "ers": 448,
      "Ġr": 449,
      "ĠP": 450,
      "lo": 451,
      "ur": 452,
      "ĠN": 453,
      "Ġif": 454,
      "us": 455,
      "Ġfi": 456,
      "Ġcom": 457,
      "Ġmess": 458,
      "lease": 459,
      "Ġany": 460,
      "Ġyour": 461,
      "Ġma": 462,
      "gle": 463,
      "Ġtime": 464,
      "Ġnow": 465,
      "Ġnew": 466,
      "Ġhas": 467,
      "Ġop": 468,
      "if": 469,
      "ear": 470,
      "Ġvid": 471,
      "oogle": 472,
      "ting": 473,
      "pe": 474,
      "Äł": 475,
      "un": 476,
      "so": 477,
      "ĠWh": 478,
      "Ġfrom": 479,
      "Ġno": 480,
      "ĠM": 481,
      "ĠThe": 482,
      "ang": 483,
      "Ġvideo": 484,
      "Ġwould": 485,
      "Ġevery": 486,
      "Ġat": 487,
      "Ġwhat": 488,
      "Ġpl": 489,
      "ĠYou": 490,
      "Ġback": 491,
      "ace": 492,
      "ew": 493,
      "Ġthey": 494,
      "Ġphone": 495,
      "Ġmessag": 496,
      "ts": 497,
      "ĠC": 498,
      "ays": 499,
      "ven": 500,
      "Ġgreat": 501,
      "ep": 502,
      "'s": 503,
      "Ġk": 504,
      "Ġlove": 505,
      "chat": 506,
      "au": 507,
      "Ġgo": 508,
      "end": 509,
      "napchat": 510,
      "Ġke": 511,
      "ks": 512,
      "ube": 513,
      "Ġthere": 514,
      "Ġtr": 515,
      "Ġex": 516,
      "Ġdoes": 517,
      "Ġone": 518,
      "Ġam": 519,
      "Ġvery": 520,
      "own": 521,
      "ĠF": 522,
      "qu": 523,
      "Ġmo": 524,
      "ain": 525,
      "Ġ1": 526,
      "ĠD": 527,
      "im": 528,
      "Ġsee": 529,
      "Å¸": 530,
      "ause": 531,
      "Ġbec": 532,
      "cc": 533,
      "Ġneed": 534,
      "Ġab": 535,
      "Ġout": 536,
      "riend": 537,
      "ive": 538,
      "ĠL": 539,
      "um": 540,
      "Ġreally": 541,
      "Ġsa": 542,
      "ĠO": 543,
      "ght": 544,
      "ĠH": 545,
      "Th": 546,
      "°Å¸": 547,
      "ĠE": 548,
      "Ġte": 549,
      "Ġfriend": 550,
      "ther": 551,
      "Ġmore": 552,
      "eople": 553,
      "Ġeas": 554,
      "ast": 555,
      "rou": 556,
      "ir": 557,
      "Ġonly": 558,
      "Ġsome": 559,
      "ect": 560,
      "uch": 561,
      "Ġpeople": 562,
      "let": 563,
      "Ġpo": 564,
      "able": 565,
      "Ġrec": 566,
      "ck": 567,
      "Ġwant": 568,
      "ind": 569,
      "Ġfix": 570,
      "ard": 571,
      "ong": 572,
      "Ġwill": 573,
      "Ġbeen": 574,
      "our": 575,
      "Ġadd": 576,
      "hing": 577,
      "Ġbecause": 578,
      "ĠGoogle": 579,
      "tion": 580,
      "Ġchang": 581,
      "ig": 582,
      "Ġfe": 583,
      "Ġacc": 584,
      "ite": 585,
      "Ġcont": 586,
      "Ġstar": 587,
      "Ġeven": 588,
      "Ġdis": 589,
      "Ġsc": 590,
      "Ġun": 591,
      "ĠYouT": 592,
      "Ġthan": 593,
      "ree": 594,
      "Ġkeep": 595,
      "Ġdown": 596,
      "ĠYouTube": 597,
      "ats": 598,
      "app": 599,
      "ort": 600,
      "Ġag": 601,
      "Ġother": 602,
      "ĠThis": 603,
      "ying": 604,
      "and": 605,
      "atch": 606,
      "ist": 607,
      "ity": 608,
      "iew": 609,
      "Ġthing": 610,
      "ick": 611,
      "ss": 612,
      "Ġ2": 613,
      "Ġfriends": 614,
      "Ġsend": 615,
      "âĤ": 616,
      "âĤ¬": 617,
      "are": 618,
      "ine": 619,
      "Ġqu": 620,
      "Ġta": 621,
      "op": 622,
      "omet": 623,
      "Ġman": 624,
      "ving": 625,
      "Ġhad": 626,
      "Ġim": 627,
      "ĠU": 628,
      "Ġthem": 629,
      "Ġsu": 630,
      "Ġway": 631,
      "ount": 632,
      "blem": 633,
      "load": 634,
      "ich": 635,
      "Ġhow": 636,
      "ication": 637,
      "king": 638,
      "ile": 639,
      "ful": 640,
      "Ġplease": 641,
      "Ġpre": 642,
      "Ġeasy": 643,
      "Ġthen": 644,
      "Ġproblem": 645,
      "Ġusing": 646,
      "Ġcould": 647,
      "Ġoff": 648,
      "Ġmuch": 649,
      "Ġkn": 650,
      "Ġ(": 651,
      "Ġbet": 652,
      "age": 653,
      "ail": 654,
      "Ġwatch": 655,
      "Ġmake": 656,
      "ies": 657,
      "Ã°Å¸": 658,
      "face": 659,
      "ue": 660,
      "Ġfree": 661,
      "vice": 662,
      "thing": 663,
      "eli": 664,
      "Ġ...": 665,
      "Ġtoo": 666,
      "Ġwhich": 667,
      "pl": 668,
      "em": 669,
      "It": 670,
      "ĠV": 671,
      "oth": 672,
      "Ġoption": 673,
      "Ġknow": 674,
      "ated": 675,
      "fter": 676,
      "der": 677,
      "de": 678,
      "ĠÃ¢": 679,
      "Ġsomet": 680,
      "Ġ5": 681,
      "Ġshould": 682,
      "os": 683,
      "Ġvideos": 684,
      "per": 685,
      "ĠGreat": 686,
      "ove": 687,
      "reen": 688,
      "ĠR": 689,
      "xt": 690,
      "act": 691,
      "ink": 692,
      "ous": 693,
      "Ġby": 694,
      "Ġused": 695,
      "az": 696,
      "Ġcall": 697,
      "Ġabout": 698,
      "ature": 699,
      "elp": 700,
      "ment": 701,
      "Ġpic": 702,
      "Ëľ": 703,
      "Ġstill": 704,
      "Ġser": 705,
      "Ġchange": 706,
      "Ġcl": 707,
      "no": 708,
      "Ġsnapchat": 709,
      "Ġbetter": 710,
      "Ġmessages": 711,
      "Ġ\"": 712,
      "Ġover": 713,
      "ved": 714,
      "Ġfeature": 715,
      "Ġwho": 716,
      "Ġbest": 717,
      "ĠSnapchat": 718,
      "ily": 719,
      "Ġplay": 720,
      "ways": 721,
      "Ġbu": 722,
      "vers": 723,
      "ating": 724,
      "Ġopen": 725,
      "Ġmany": 726,
      "Ġco": 727,
      "Ġscreen": 728,
      "Ġstor": 729,
      "ĠWhats": 730,
      "kes": 731,
      "Ġloo": 732,
      "Ġshow": 733,
      "Ġiss": 734,
      "ery": 735,
      "Ġhelp": 736,
      "Ġalso": 737,
      "Ġinst": 738,
      "ame": 739,
      "ever": 740,
      "Ġ-": 741,
      "Ġen": 742,
      "Ġcr": 743,
      "red": 744,
      "ish": 745,
      "Ġfind": 746,
      "Ġle": 747,
      "Ġapps": 748,
      "li": 749,
      "Ġafter": 750,
      "ff": 751,
      "azing": 752,
      "ction": 753,
      "Ġable": 754,
      "orm": 755,
      "Ġdon": 756,
      "ĠiP": 757,
      "hone": 758,
      "nect": 759,
      "Ġdeli": 760,
      "Ġ3": 761,
      "Ġdownload": 762,
      "Ġphot": 763,
      "App": 764,
      "Ġagain": 765,
      "Ġsay": 766,
      "av": 767,
      "Ġhapp": 768,
      "ince": 769,
      "Ġaccount": 770,
      "ĠGood": 771,
      "Ġthink": 772,
      "Ġits": 773,
      "ough": 774,
      "Ġdelet": 775,
      "Ġlot": 776,
      "Ġdid": 777,
      "Ġold": 778,
      "Ġview": 779,
      "ci": 780,
      "art": 781,
      "ture": 782,
      "Ġanno": 783,
      "Ġint": 784,
      "Ġmessage": 785,
      "umb": 786,
      "Ġwell": 787,
      "Ġorder": 788,
      "Ġalways": 789,
      "Ġaw": 790,
      "Ġlong": 791,
      "ĠPlease": 792,
      "fer": 793,
      "Ġset": 794,
      "Ġyear": 795,
      "ÂĿ": 796,
      "urn": 797,
      "Ġwhy": 798,
      "mo": 799,
      "ĠApp": 800,
      "Ġworking": 801,
      "fore": 802,
      "ult": 803,
      "Ġchat": 804,
      "gg": 805,
      "con": 806,
      "ab": 807,
      "ey": 808,
      "Ġper": 809,
      "Ġfun": 810,
      "ĠWhatsApp": 811,
      "Ġconnect": 812,
      "Ġ)": 813,
      "Ġimp": 814,
      "Ġwithout": 815,
      "Ġpicture": 816,
      "Ãł": 817,
      "Ġlet": 818,
      "ĠLove": 819,
      "lf": 820,
      "int": 821,
      "Ġgot": 822,
      "ification": 823,
      "led": 824,
      "Ġworks": 825,
      "Ġtim": 826,
      "Ġtheir": 827,
      "Ġannoying": 828,
      "up": 829,
      "bo": 830,
      "...": 831,
      "ely": 832,
      "usic": 833,
      "Ġinter": 834,
      "!!": 835,
      "ĠVery": 836,
      "Ġservice": 837,
      "mend": 838,
      "Ġnever": 839,
      "Ġgive": 840,
      "ash": 841,
      "Ġday": 842,
      "Ġwhere": 843,
      "Ġads": 844,
      "Ġspe": 845,
      "OS": 846,
      "ommend": 847,
      "ign": 848,
      "Ġamazing": 849,
      "less": 850,
      "Ġever": 851,
      "Ġdif": 852,
      "ade": 853,
      "Ġbefore": 854,
      "Ġvers": 855,
      "Ġsame": 856,
      "ates": 857,
      "gr": 858,
      "ĠAnd": 859,
      "ans": 860,
      "Ġbr": 861,
      "Ġsomething": 862,
      "Ġrecommend": 863,
      "ually": 864,
      "Ġnotification": 865,
      "wit": 866,
      "ide": 867,
      "Ġsince": 868,
      "The": 869,
      "Â¤": 870,
      "hear": 871,
      "Ġversion": 872,
      "Ġwr": 873,
      "Ġ10": 874,
      "Ġbad": 875,
      "Ġmost": 876,
      "Ġbl": 877,
      "Ġuser": 878,
      "form": 879,
      "Ġcomp": 880,
      "Ġhe": 881,
      "ach": 882,
      "sol": 883,
      "ĠSo": 884,
      "inst": 885,
      "Ġtimes": 886,
      "Ġfam": 887,
      "Ġmin": 888,
      "Ġsnap": 889,
      "Ġmusic": 890,
      "Ġ4": 891,
      "iss": 892,
      "Ġfil": 893,
      "imes": 894,
      "ound": 895,
      "ia": 896,
      "ann": 897,
      "Ġnice": 898,
      "Ġ&": 899,
      "'m": 900,
      "Ġact": 901,
      "Ġthings": 902,
      "Ġsim": 903,
      "ud": 904,
      "Ġbeing": 905,
      "Ġissue": 906,
      "Ġtext": 907,
      "roup": 908,
      "Ġlist": 909,
      "Ġtry": 910,
      "ass": 911,
      "other": 912,
      "rough": 913,
      "heart": 914,
      "Ġdoesn": 915,
      "Ġtake": 916,
      "Ġeverything": 917,
      "iz": 918,
      "ry": 919,
      "Ġphotos": 920,
      "Ġread": 921,
      "ĠiPhone": 922,
      "Ġthrough": 923,
      "ĠJ": 924,
      "IN": 925,
      "ull": 926,
      "ality": 927,
      "Ġgoogle": 928,
      "Ġdes": 929,
      "Ġload": 930,
      "cel": 931,
      "Ġgroup": 932,
      "Ġgetting": 933,
      "Ġfamily": 934,
      "ĠÃ°Å¸": 935,
      "ark": 936,
      "ence": 937,
      "ouch": 938,
      "rill": 939,
      "ĠThan": 940,
      "ord": 941,
      "Ġhaving": 942,
      "ight": 943,
      "Ġlast": 944,
      "ave": 945,
      "Ġtri": 946,
      "Ġhappen": 947,
      "Ġrest": 948,
      "ious": 949,
      "view": 950,
      "Ġstars": 951,
      "erson": 952,
      "Ġturn": 953,
      "Ġinto": 954,
      "ĠNot": 955,
      "Ġsp": 956,
      "tt": 957,
      "Ġcomm": 958,
      "pt": 959,
      "Ġgoing": 960,
      "Ġallow": 961,
      "ise": 962,
      "ustom": 963,
      "ĠTH": 964,
      "we": 965,
      "arch": 966,
      "Ġsl": 967,
      "Ġlat": 968,
      "Ġneeds": 969,
      "Ġem": 970,
      "Ġdelivery": 971,
      "This": 972,
      "oice": 973,
      "Ġyears": 974,
      "right": 975,
      "iant": 976,
      "solut": 977,
      "ÃĲ": 978,
      "ices": 979,
      "Ġkeeps": 980,
      "ible": 981,
      "Ġpay": 982,
      "Ġar": 983,
      "Ġsupp": 984,
      "ason": 985,
      "Ġrecent": 986,
      "ER": 987,
      "Ġres": 988,
      "ata": 989,
      "Ġsy": 990,
      "Ġpr": 991,
      "ves": 992,
      "Ġput": 993,
      "ĠMy": 994,
      "Ġfew": 995,
      "Ãĺ": 996,
      "Ġdelete": 997,
      "Ġmade": 998,
      "alled": 999,
      "rilliant": 1000,
      "day": 1001,
      "lent": 1002,
      "Ġanything": 1003,
      "ĠRe": 1004,
      "Ġstories": 1005,
      "Ġsays": 1006,
      "Ġsearch": 1007,
      "ĠAl": 1008,
      "ĠBut": 1009,
      "ton": 1010,
      "Ġcustom": 1011,
      "ĠAS": 1012,
      "Ġstop": 1013,
      "Åĵ": 1014,
      "Wh": 1015,
      "Ġaut": 1016,
      "round": 1017,
      "with": 1018,
      "Ġtouch": 1019,
      "du": 1020,
      "rible": 1021,
      "Ġdisapp": 1022,
      "Ġho": 1023,
      "ĠK": 1024,
      "opp": 1025,
      "Ġlook": 1026,
      "Ġdiffer": 1027,
      "ft": 1028,
      "Ġreason": 1029,
      "amer": 1030,
      "Ġmon": 1031,
      "Ġwhats": 1032,
      "Ġwhile": 1033,
      "line": 1034,
      "Ġperson": 1035,
      "Ġrece": 1036,
      "Ġ..": 1037,
      "ool": 1038,
      "Ġupdated": 1039,
      "Ã¢": 1040,
      "roid": 1041,
      "nder": 1042,
      "oney": 1043,
      "Ġdata": 1044,
      "be": 1045,
      "Ġ/": 1046,
      "Ġstart": 1047,
      "Ġfine": 1048,
      "Ġseem": 1049,
      "ire": 1050,
      "Ġcontact": 1051,
      "ys": 1052,
      "ip": 1053,
      "Ġinc": 1054,
      "Ġaccess": 1055,
      "Ġour": 1056,
      "Ġfir": 1057,
      "fect": 1058,
      "Ġmoney": 1059,
      "Ġwo": 1060,
      "ress": 1061,
      "ds": 1062,
      "amera": 1063,
      "Ġlit": 1064,
      "ĠOn": 1065,
      "Ġmakes": 1066,
      "ning": 1067,
      "Ġav": 1068,
      "her": 1069,
      "Ġbutton": 1070,
      "Ġtried": 1071,
      "Ġche": 1072,
      "Ġnumb": 1073,
      "Ġuseful": 1074,
      "ues": 1075,
      "Ġfo": 1076,
      "ĠSt": 1077,
      "Ġquick": 1078,
      "Ġadver": 1079,
      "Ġfirst": 1080,
      "Ġsometimes": 1081,
      "Ġreview": 1082,
      "Ġupdates": 1083,
      "Ġeveryone": 1084,
      "AT": 1085,
      "ING": 1086,
      "Ġnothing": 1087,
      "ead": 1088,
      "ÃĻ": 1089,
      "Ġdifferent": 1090,
      "Ġwere": 1091,
      "Ġgi": 1092,
      "fe": 1093,
      "Ġunder": 1094,
      "Ġty": 1095,
      "ge": 1096,
      "Ġhard": 1097,
      "Ġed": 1098,
      "Ġrem": 1099,
      "Ġfeatures": 1100,
      "cellent": 1101,
      "Ġsomeone": 1102,
      "ĠIf": 1103,
      "read": 1104,
      "Ġwon": 1105,
      "Ġcamera": 1106,
      "oy": 1107,
      "Ġgu": 1108,
      "igh": 1109,
      "Ġbug": 1110,
      "ĠIn": 1111,
      "ook": 1112,
      "Ġthough": 1113,
      "Ġ20": 1114,
      "ically": 1115,
      "ix": 1116,
      "Ġpictures": 1117,
      "Ġdevice": 1118,
      "Ġhour": 1119,
      "Ġmode": 1120,
      "Ġwhatsapp": 1121,
      "ra": 1122,
      "Ġcommun": 1123,
      "Ġstre": 1124,
      "peri": 1125,
      "ntil": 1126,
      "Ġhate": 1127,
      "Ġstu": 1128,
      "solutely": 1129,
      "Ġclo": 1130,
      "Ġquality": 1131,
      "Ġcrash": 1132,
      "ell": 1133,
      "Ġcle": 1134,
      "ĠDo": 1135,
      "Ġsetting": 1136,
      "Ġsm": 1137,
      "ber": 1138,
      "ĠWhen": 1139,
      "board": 1140,
      "plet": 1141,
      "ie": 1142,
      "Ġright": 1143,
      "Ġmonth": 1144,
      "ĠNo": 1145,
      "Ġsub": 1146,
      "Ġfav": 1147,
      "ĠWhy": 1148,
      "Ġcome": 1149,
      "Ġanother": 1150,
      "install": 1151,
      "Ġexperi": 1152,
      "ones": 1153,
      "Ġfunction": 1154,
      "self": 1155,
      "Ġdays": 1156,
      "iting": 1157,
      "Ġgl": 1158,
      "ak": 1159,
      "Ġuntil": 1160,
      "Ġhome": 1161,
      "LE": 1162,
      "Ġfar": 1163,
      "wn": 1164,
      "ĠWhat": 1165,
      "Ġtw": 1166,
      "Ġtrying": 1167,
      "Ġloc": 1168,
      "'ve": 1169,
      "Ġmiss": 1170,
      "Please": 1171,
      "Ġwrong": 1172,
      "more": 1173,
      "Ġimpro": 1174,
      "vices": 1175,
      "ĠCh": 1176,
      "Ġclick": 1177,
      "Ġperfect": 1178,
      "ters": 1179,
      "sc": 1180,
      "cked": 1181,
      "Âį": 1182,
      "Ġkey": 1183,
      "Ġnotifications": 1184,
      "Ġproblems": 1185,
      "Ġtell": 1186,
      "ose": 1187,
      "Ġissues": 1188,
      "But": 1189,
      "io": 1190,
      "ility": 1191,
      "Ġtal": 1192,
      "stem": 1193,
      "Ġnext": 1194,
      "Ġanymore": 1195,
      "Ġviews": 1196,
      "Ġwa": 1197,
      "Ġbit": 1198,
      "Ġshall": 1199,
      "lication": 1200,
      "Ġnumber": 1201,
      "ions": 1202,
      "Ġrep": 1203,
      "Ġavail": 1204,
      "Ġet": 1205,
      "âĢĺ": 1206,
      "Ġcomplet": 1207,
      "Ġel": 1208,
      "ime": 1209,
      "Ġdone": 1210,
      "Ġfood": 1211,
      "Ġwish": 1212,
      "Ġsupport": 1213,
      "Ġsent": 1214,
      "Ġconf": 1215,
      "Ġworld": 1216,
      "ert": 1217,
      "Ġsure": 1218,
      "Ġref": 1219,
      "witter": 1220,
      "Ġvoice": 1221,
      "Ġown": 1222,
      "Ġbas": 1223,
      "ĠASOS": 1224,
      "esome": 1225,
      "Ġslow": 1226,
      "Ġthese": 1227,
      "bs": 1228,
      "Ġ6": 1229,
      "itch": 1230,
      "Ġdef": 1231,
      "roll": 1232,
      "sh": 1233,
      "ams": 1234,
      "ments": 1235,
      "joy": 1236,
      "Ġminut": 1237,
      "OU": 1238,
      "Ġent": 1239,
      "acts": 1240,
      "Ġapplication": 1241,
      "ustr": 1242,
      "Ġemail": 1243,
      "Ġlog": 1244,
      "Ġpart": 1245,
      "Ġetc": 1246,
      "Ġlonger": 1247,
      "Ġdeliver": 1248,
      "ance": 1249,
      "Ġusers": 1250,
      "00": 1251,
      "Ġwee": 1252,
      "Ġsuch": 1253,
      "Ġjo": 1254,
      "Ġavailable": 1255,
      "bile": 1256,
      "ĠEx": 1257,
      "ier": 1258,
      "Ġinstead": 1259,
      "Ġsimple": 1260,
      "Ġsending": 1261,
      "Â¸": 1262,
      "ĠBest": 1263,
      "ĠJust": 1264,
      "tle": 1265,
      "ages": 1266,
      "Ġprodu": 1267,
      "cial": 1268,
      "lect": 1269,
      "Hey": 1270,
      "âĤ¬ÂĿ": 1271,
      "Ġsecon": 1272,
      "Ġter": 1273,
      "Ġrid": 1274,
      "ten": 1275,
      "ĠÃĤ": 1276,
      "Ġactually": 1277,
      "Ġitem": 1278,
      "Â§": 1279,
      "Ġchats": 1280,
      "ary": 1281,
      "Ġfa": 1282,
      "iv": 1283,
      "ium": 1284,
      "od": 1285,
      "Ġelse": 1286,
      "EE": 1287,
      "Ġlatest": 1288,
      "Ġfull": 1289,
      "Ġsaying": 1290,
      "Ġmap": 1291,
      "ol": 1292,
      "Ġ:)": 1293,
      "astic": 1294,
      "Ġend": 1295,
      "Ġexperience": 1296,
      "Ġdeleted": 1297,
      "ON": 1298,
      "Ġpage": 1299,
      "ately": 1300,
      "Ġhere": 1301,
      "stand": 1302,
      "Ġkid": 1303,
      "Ġsort": 1304,
      "sm": 1305,
      "Ġtakes": 1306,
      "Â£": 1307,
      "atter": 1308,
      "Ġpoint": 1309,
      "oint": 1310,
      "Ġmay": 1311,
      "....": 1312,
      "dd": 1313,
      "Ġcontacts": 1314,
      "ought": 1315,
      "Ġok": 1316,
      "Ġfeel": 1317,
      "Ġlay": 1318,
      "Ġsystem": 1319,
      "ames": 1320,
      "Ġhigh": 1321,
      "ations": 1322,
      "ĠIT": 1323,
      "Ġlittle": 1324,
      "ĠNice": 1325,
      "Ġmaking": 1326,
      "Ġcol": 1327,
      "Ġproduct": 1328,
      "Ġplace": 1329,
      "Ġdri": 1330,
      "antastic": 1331,
      "ens": 1332,
      "Ġtrans": 1333,
      "Ġes": 1334,
      "ient": 1335,
      "cially": 1336,
      "Ġfavour": 1337,
      "Ġphoto": 1338,
      "pon": 1339,
      "Ġmobile": 1340,
      "Ġhope": 1341,
      "ĠEvery": 1342,
      "Ġ7": 1343,
      "Ġ*": 1344,
      "Ġtop": 1345,
      "Ġsaid": 1346,
      "asy": 1347,
      "Ġtex": 1348,
      "Ġstory": 1349,
      "ory": 1350,
      "Ġonce": 1351,
      "annel": 1352,
      "Ġret": 1353,
      "Ġcompl": 1354,
      "Ġstuff": 1355,
      "vious": 1356,
      "Ġaway": 1357,
      "ready": 1358,
      "Ġru": 1359,
      "wh": 1360,
      "ĠThank": 1361,
      "ild": 1362,
      "Ġfrustr": 1363,
      "witch": 1364,
      "iling": 1365,
      "get": 1366,
      "Ġonline": 1367,
      "Ġx": 1368,
      "Ġcalls": 1369,
      "Ġtwo": 1370,
      "Ġdec": 1371,
      "sk": 1372,
      "ase": 1373,
      "Ġmessaging": 1374,
      "ĠHow": 1375,
      "Ġanyone": 1376,
      "Ġlisten": 1377,
      "ssible": 1378,
      "stant": 1379,
      "HeyHey": 1380,
      "ual": 1381,
      "Ġglitch": 1382,
      "Ġalready": 1383,
      "Ġreg": 1384,
      "Ġchannel": 1385,
      "Â®": 1386,
      "Ġhappy": 1387,
      "ĠAm": 1388,
      "ĠThere": 1389,
      "Ġhowever": 1390,
      "ular": 1391,
      "Ġkeyboard": 1392,
      "Ġclear": 1393,
      "Â¦": 1394,
      "Ġmust": 1395,
      "AN": 1396,
      "Ġlost": 1397,
      "Ġblack": 1398,
      "tty": 1399,
      "atform": 1400,
      "Ġfixed": 1401,
      "ĠTHE": 1402,
      "eed": 1403,
      "ĠReally": 1404,
      "orre": 1405,
      "les": 1406,
      "Ġbig": 1407,
      "smiling": 1408,
      "pecially": 1409,
      "Ġunderstand": 1410,
      "Ġer": 1411,
      "Ġmed": 1412,
      "Ġide": 1413,
      "ifi": 1414,
      "Âı": 1415,
      "Ġcrashes": 1416,
      "Ġyout": 1417,
      "Ġhear": 1418,
      "Ġshows": 1419,
      "FF": 1420,
      "Ġaround": 1421,
      "Ġlife": 1422,
      "ĠPl": 1423,
      "Ġswitch": 1424,
      "ĠAndroid": 1425,
      "Ġlive": 1426,
      "ĠWor": 1427,
      "âĢ¡": 1428,
      "Ġseems": 1429,
      "Ġsettings": 1430,
      "med": 1431,
      "Ġsign": 1432,
      "Ġimprove": 1433,
      "light": 1434,
      "Ġhand": 1435,
      "ee": 1436,
      "ÂĲ": 1437,
      "Ġplatform": 1438,
      "Ġlayout": 1439,
      "ĠNO": 1440,
      "ertain": 1441,
      "Ġwatching": 1442,
      "ward": 1443,
      "Ġrequ": 1444,
      "opping": 1445,
      "Ġgr": 1446,
      "Ġcustomer": 1447,
      "Ġfact": 1448,
      "using": 1449,
      "ared": 1450,
      "ĠAlso": 1451,
      "Ġtalk": 1452,
      "Ġsave": 1453,
      "Ġworth": 1454,
      "Ġupload": 1455,
      "Ġoptions": 1456,
      "Ġchanged": 1457,
      "Ġdoing": 1458,
      "cept": 1459,
      "âĢŀ": 1460,
      "Ġchar": 1461,
      "Ġrespon": 1462,
      "Ġpri": 1463,
      "mit": 1464,
      "ashing": 1465,
      "OR": 1466,
      "Ġfreez": 1467,
      "Ġrecently": 1468,
      "ank": 1469,
      "Ġautom": 1470,
      "Ġsw": 1471,
      "ken": 1472,
      "Ġcheck": 1473,
      "net": 1474,
      "ĠDeli": 1475,
      "Ġext": 1476,
      "ggest": 1477,
      "star": 1478,
      "Ġabsolutely": 1479,
      "AS": 1480,
      "ĠExcellent": 1481,
      "scri": 1482,
      "Ġenjoy": 1483,
      "tone": 1484,
      "Ġcons": 1485,
      "Âģ": 1486,
      "Ġmult": 1487,
      "Ġyet": 1488,
      "Ġinform": 1489,
      "ĠEasy": 1490,
      "ĠThanks": 1491,
      "Ġfast": 1492,
      "Ġago": 1493,
      "cess": 1494,
      "ĠTwitter": 1495,
      "Ġsoon": 1496,
      "ither": 1497,
      "pect": 1498,
      "Ġeach": 1499,
      "Ġrecei": 1500,
      "LL": 1501,
      "any": 1502,
      "Ġminutes": 1503,
      "rol": 1504,
      "Ġfavourite": 1505,
      "Ġbrilliant": 1506,
      "Ġhours": 1507,
      "ows": 1508,
      "avig": 1509,
      "Ġpost": 1510,
      "ger": 1511,
      "Â°": 1512,
      "Ġgets": 1513,
      "ale": 1514,
      "Ãĳ": 1515,
      "road": 1516,
      "Ġwhole": 1517,
      "ize": 1518,
      "ĠCan": 1519,
      "Ġcontent": 1520,
      "Ġsound": 1521,
      "ĠFace": 1522,
      "Ġfilters": 1523,
      "ru": 1524,
      "Ġask": 1525,
      "Ġmedia": 1526,
      "Ã°": 1527,
      "ES": 1528,
      "ah": 1529,
      "Ġmem": 1530,
      "Ġbring": 1531,
      "Ġruin": 1532,
      "Ġcrashing": 1533,
      "skin": 1534,
      "Ġsuggest": 1535,
      "Ġautomat": 1536,
      "ial": 1537,
      "ny": 1538,
      "ĠBrilliant": 1539,
      "Ġcreat": 1540,
      "leting": 1541,
      "Ġless": 1542,
      "oooo": 1543,
      "Ġfrustrating": 1544,
      "âĦ": 1545,
      "âĦ¢": 1546,
      "âĢĿ": 1547,
      "Ġkids": 1548,
      "And": 1549,
      "book": 1550,
      "set": 1551,
      "least": 1552,
      "Ġadverts": 1553,
      "Ġdark": 1554,
      "ib": 1555,
      "Ġproper": 1556,
      "VE": 1557,
      "ĠÃł": 1558,
      "Ġeasier": 1559,
      "ointed": 1560,
      "Ġsocial": 1561,
      "Ġcompletely": 1562,
      "Ġmulti": 1563,
      "Ġprov": 1564,
      "und": 1565,
      "ÂŃ": 1566,
      "ung": 1567,
      "ents": 1568,
      "ont": 1569,
      "Ġyoutube": 1570,
      "Ġsubscri": 1571,
      "AP": 1572,
      "rome": 1573,
      "Ġitems": 1574,
      "Ġthank": 1575,
      "Ġname": 1576,
      "ors": 1577,
      "Ġsch": 1578,
      "ĠAN": 1579,
      "inite": 1580,
      "ange": 1581,
      "Ġconnection": 1582,
      "thers": 1583,
      "Å¡": 1584,
      "Ġconstant": 1585,
      "Al": 1586,
      "Ġcant": 1587,
      "Ġrun": 1588,
      "ÅĴ": 1589,
      "Ġthose": 1590,
      "Ġnorm": 1591,
      "Ġblo": 1592,
      "Ġreal": 1593,
      "Ġrecord": 1594,
      "ĠThey": 1595,
      "Ġterrible": 1596,
      "Ġespecially": 1597,
      "Ġinstall": 1598,
      "Ġselect": 1599,
      "phone": 1600,
      "Ġappear": 1601,
      "Ġshowing": 1602,
      "ced": 1603,
      "Ġnavig": 1604,
      "ĠiOS": 1605,
      "ĠAll": 1606,
      "Ġenough": 1607,
      "IS": 1608,
      "Ġquite": 1609,
      "âĢļ": 1610,
      "âĢ¢": 1611,
      "Ġcontrol": 1612,
      "âĤ¬Ëľ": 1613,
      "Ġpur": 1614,
      "Ġlocation": 1615,
      "Ġac": 1616,
      "Ġgone": 1617,
      "Not": 1618,
      "Ġothers": 1619,
      "Ġleft": 1620,
      "fic": 1621,
      "Ġgen": 1622,
      "to": 1623,
      "Ġcommunic": 1624,
      "Ġpretty": 1625,
      "not": 1626,
      "Ġpop": 1627,
      "Ġdisc": 1628,
      "eep": 1629,
      "ption": 1630,
      "ĠX": 1631,
      "Ġaud": 1632,
      "ĠDeliver": 1633,
      "Ġ9": 1634,
      "Ġcur": 1635,
      "play": 1636,
      "Ãĥ": 1637,
      "Ġpass": 1638,
      "umbs": 1639,
      "Ġdeleting": 1640,
      "Ġhalf": 1641,
      "Ġdownloaded": 1642,
      "velo": 1643,
      "ĠWe": 1644,
      "most": 1645,
      "orrect": 1646,
      "initely": 1647,
      "top": 1648,
      "Ġcool": 1649,
      "Ġsong": 1650,
      "Ġshopping": 1651,
      "wor": 1652,
      "Ġass": 1653,
      "Ġz": 1654,
      "ently": 1655,
      "Ġchild": 1656,
      "Ġhelpful": 1657,
      "Ġleast": 1658,
      "Ġfound": 1659,
      "Ġsur": 1660,
      "Ġidea": 1661,
      "ical": 1662,
      "Ġthanks": 1663,
      "Â¥": 1664,
      "ather": 1665,
      "ĠDeliveroo": 1666,
      "Ġguys": 1667,
      "llow": 1668,
      "Ġwebs": 1669,
      "OO": 1670,
      "Ġlooking": 1671,
      "Ġawful": 1672,
      "Ġeff": 1673,
      "Ġedit": 1674,
      "Ġmissing": 1675,
      "Ġoften": 1676,
      "If": 1677,
      "ands": 1678,
      "Ġbo": 1679,
      "Ġfl": 1680,
      "Ġworked": 1681,
      "ĠBe": 1682,
      "Ġadded": 1683,
      "Ġtyp": 1684,
      "Ġ8": 1685,
      "Ġeither": 1686,
      "Ġhor": 1687,
      "Ġdevices": 1688,
      "Ġprof": 1689,
      "Ġstore": 1690,
      "Ġmonths": 1691,
      "Ġphones": 1692,
      "Â¾": 1693,
      "erally": 1694,
      "installed": 1695,
      "Ġshare": 1696,
      "rent": 1697,
      "ĠDe": 1698,
      "ng": 1699,
      "wise": 1700,
      "Ġcard": 1701,
      "Ġmultiple": 1702,
      "Ġbuy": 1703,
      "Ġcomplain": 1704,
      "moj": 1705,
      "ĠAmazing": 1706,
      "arent": 1707,
      "Ġtype": 1708,
      "Ġdont": 1709,
      "Ġsnaps": 1710,
      "ĠYOU": 1711,
      "Åł": 1712,
      "So": 1713,
      "Ġbus": 1714,
      "Ġpics": 1715,
      "onest": 1716,
      "Ġbar": 1717,
      "Ġpa": 1718,
      "andom": 1719,
      "aks": 1720,
      "eyes": 1721,
      "Ġpast": 1722,
      "Ġlater": 1723,
      "Ġadvert": 1724,
      "Ã¡": 1725,
      "Ġuninstall": 1726,
      "Ġautomatically": 1727,
      "Ġworse": 1728,
      "ubb": 1729,
      "time": 1730,
      "ĠSh": 1731,
      "Ġgoes": 1732,
      "ĠFor": 1733,
      "Ġremove": 1734,
      "Ġdisappointed": 1735,
      "Ġreturn": 1736,
      "ĠiPad": 1737,
      "Ġear": 1738,
      "Ġlooks": 1739,
      "Ġicon": 1740,
      "ised": 1741,
      "Ġexp": 1742,
      "Ġdevelo": 1743,
      "Ġawesome": 1744,
      "ĠWould": 1745,
      "âĢ¦": 1746,
      "Ġcomes": 1747,
      "amsung": 1748,
      "Ġupdating": 1749,
      "opped": 1750,
      "Ġreceive": 1751,
      "sing": 1752,
      "Ġinformation": 1753,
      "Ġboth": 1754,
      "Ġpress": 1755,
      "Ġlag": 1756,
      "thumbs": 1757,
      "Ġconfusing": 1758,
      "Ġprevious": 1759,
      "ĠWhatsapp": 1760,
      "Ġlimit": 1761,
      "ficult": 1762,
      "Ġerr": 1763,
      "Ġfiles": 1764,
      "ĠIts": 1765,
      "ative": 1766,
      "ify": 1767,
      "Ġitself": 1768,
      "Ġwent": 1769,
      "Ġinternet": 1770,
      "Ġremo": 1771,
      "ition": 1772,
      "aur": 1773,
      "Ġur": 1774,
      "upid": 1775,
      "arm": 1776,
      "Ġuseless": 1777,
      "Ġkind": 1778,
      "Ġusern": 1779,
      "Ġcount": 1780,
      "Ġsmall": 1781,
      "Ġclose": 1782,
      "ake": 1783,
      "pd": 1784,
      "Ġ+": 1785,
      "ĠNow": 1786,
      "Ġsol": 1787,
      "Ġwebsite": 1788,
      "Ġnews": 1789,
      "Ġpossible": 1790,
      "20": 1791,
      "Ġscroll": 1792,
      "Ġweek": 1793,
      "ably": 1794,
      "Ġthought": 1795,
      "Ġstay": 1796,
      "??": 1797,
      "Ġstarted": 1798,
      "ween": 1799,
      "ixel": 1800,
      "Ġconvers": 1801,
      "ted": 1802,
      "Ġhappened": 1803,
      "Ġfollow": 1804,
      "Google": 1805,
      "Â²": 1806,
      "Ġpriv": 1807,
      "Ġproperly": 1808,
      "You": 1809,
      "Ġalmost": 1810,
      "aurant": 1811,
      "Ġrandom": 1812,
      "Ġdesign": 1813,
      "Ġdifficult": 1814,
      "Ġlock": 1815,
      "Ġaudio": 1816,
      "Ġbetween": 1817,
      "ross": 1818,
      "âĢĻ": 1819,
      "ets": 1820,
      "Ġcre": 1821,
      "rop": 1822,
      "Ġplaying": 1823,
      "ĠAb": 1824,
      "ĠOne": 1825,
      "Ġcare": 1826,
      "Ġincl": 1827,
      "Ġrestaurant": 1828,
      "ider": 1829,
      "âĢľ": 1830,
      "Ġstorage": 1831,
      "Ġseconds": 1832,
      "Ġcontin": 1833,
      "Ġchoo": 1834,
      "Â¡": 1835,
      "Ġstopped": 1836,
      "ulous": 1837,
      "ĠÃ®": 1838,
      "sed": 1839,
      "Ġsuper": 1840,
      "Ġimport": 1841,
      "ĠKeep": 1842,
      "ubbish": 1843,
      "Ġda": 1844,
      "Ġsec": 1845,
      "Ġbro": 1846,
      "ĠTO": 1847,
      "othes": 1848,
      "My": 1849,
      "âĢ°": 1850,
      "Also": 1851,
      "nc": 1852,
      "Ġseen": 1853,
      "Ġbugs": 1854,
      "Ġcommunicate": 1855,
      "Ġind": 1856,
      "Ġsing": 1857,
      "Ġgame": 1858,
      "Ġconstantly": 1859,
      "rr": 1860,
      "ground": 1861,
      "ĠAw": 1862,
      "ware": 1863,
      "Ġtrack": 1864,
      "where": 1865,
      "Âµ": 1866,
      "iness": 1867,
      "Ġstupid": 1868,
      "Ġtoday": 1869,
      "back": 1870,
      "Ġatt": 1871,
      "Ġdisplay": 1872,
      "When": 1873,
      "Ġrating": 1874,
      "Ġro": 1875,
      "Ġfre": 1876,
      "Ġmove": 1877,
      "Ġclothes": 1878,
      "Ġcorrect": 1879,
      "gn": 1880,
      "Ġeasily": 1881,
      "Å½": 1882,
      "Ġwall": 1883,
      "Ġdefinitely": 1884,
      "Ġap": 1885,
      "Ġmeet": 1886,
      "pap": 1887,
      "Ġworst": 1888,
      "Ġcompany": 1889,
      "ĠSince": 1890,
      "Ġmean": 1891,
      "Ġnormal": 1892,
      "PP": 1893,
      "Ġsaved": 1894,
      "ĠAs": 1895,
      "ĠFacebook": 1896,
      "angu": 1897,
      "Ġprem": 1898,
      "Ġcurrent": 1899,
      "ike": 1900,
      "Ġcannot": 1901,
      "Ġwifi": 1902,
      "ĠTV": 1903,
      "Ġart": 1904,
      "work": 1905,
      "Ġ%": 1906,
      "ĠIs": 1907,
      "ists": 1908,
      "Ġandroid": 1909,
      "ails": 1910,
      "word": 1911,
      "Ġdue": 1912,
      "Ġstat": 1913,
      "Ġdet": 1914,
      "uring": 1915,
      "Ġrate": 1916,
      "Ġtaking": 1917,
      "ED": 1918,
      "attery": 1919,
      "Ġbot": 1920,
      "Ġcou": 1921,
      "ĠNew": 1922,
      "AR": 1923,
      "Ġhead": 1924,
      "Âª": 1925,
      "ne": 1926,
      "Ġpoor": 1927,
      "ĠDoes": 1928,
      "Ġwait": 1929,
      "ËĨ": 1930,
      "Ġdire": 1931,
      "Ġform": 1932,
      "Ġshe": 1933,
      "Ġrather": 1934,
      "Ġabroad": 1935,
      "Ġbackground": 1936,
      "ĠQ": 1937,
      "ĠHowever": 1938,
      "fo": 1939,
      "Ġspace": 1940,
      "CK": 1941,
      "Â±": 1942,
      "Ġones": 1943,
      "Ġdate": 1944,
      "ock": 1945,
      "Ġwanted": 1946,
      "ories": 1947,
      "ĠÃĺ": 1948,
      "Ġmaps": 1949,
      "dy": 1950,
      "ipe": 1951,
      "Ġruined": 1952,
      "Ġhorrible": 1953,
      "Ġnet": 1954,
      "ĠNeed": 1955,
      "Ġaccounts": 1956,
      "Ġcode": 1957,
      "ces": 1958,
      "Ġtas": 1959,
      "Ġaddress": 1960,
      "Ġlangu": 1961,
      "Â¯": 1962,
      "Ġfantastic": 1963,
      "ĠOk": 1964,
      "Ġschool": 1965,
      "Ġcar": 1966,
      "Ġerror": 1967,
      "reme": 1968,
      "Ġloved": 1969,
      "Ġhell": 1970,
      "liable": 1971,
      "Ġbattery": 1972,
      "Ġfin": 1973,
      "TS": 1974,
      "Ġstreaks": 1975,
      "ĠCa": 1976,
      "vent": 1977,
      "There": 1978,
      "Ġchoose": 1979,
      "Ġ;": 1980,
      "Ġ11": 1981,
      "Ġeveryday": 1982,
      "Ġinterface": 1983,
      "Â¹": 1984,
      "Ġlear": 1985,
      "oud": 1986,
      "Ġability": 1987,
      "Ġdaily": 1988,
      "Ġshop": 1989,
      "Ġmain": 1990,
      "ost": 1991,
      "Ġteam": 1992,
      "Very": 1993,
      "full": 1994,
      "Ġinstalled": 1995,
      "Ġjob": 1996,
      "ex": 1997,
      "Ġinterest": 1998,
      "Ġnight": 1999,
      "Ġreply": 2000,
      "Good": 2001,
      "inning": 2002,
      "Â¨": 2003,
      "Ġsection": 2004,
      "over": 2005,
      "Ġwallpap": 2006,
      "ÆĴ": 2007,
      "Ġcertain": 2008,
      "Ġtexting": 2009,
      "ometimes": 2010,
      "Ġcost": 2011,
      "ĠNOT": 2012,
      "Ġgiving": 2013,
      "Ġsingle": 2014,
      "Ġspeak": 2015,
      "Ġ100": 2016,
      "Ġsk": 2017,
      "Ġlocked": 2018,
      "Ġlots": 2019,
      "Ġunable": 2020,
      "istant": 2021,
      "oin": 2022,
      "Ġbrows": 2023,
      "ram": 2024,
      "Ġcreate": 2025,
      "ĠWell": 2026,
      "EN": 2027,
      "lish": 2028,
      "ouble": 2029,
      "gy": 2030,
      "US": 2031,
      "Ġreviews": 2032,
      "Ġstatus": 2033,
      "Ġgiven": 2034,
      "Ġdevelop": 2035,
      "ĠON": 2036,
      "Ġprefer": 2037,
      "Ġbusiness": 2038,
      "hh": 2039,
      "Ġfriendly": 2040,
      "VER": 2041,
      "Ġbecome": 2042,
      "ons": 2043,
      "ĠAND": 2044,
      "ls": 2045,
      "down": 2046,
      "Ġkeeping": 2047,
      "Ġprofile": 2048,
      "min": 2049,
      "Ġlink": 2050,
      "Ġrefund": 2051,
      "Ġimportant": 2052,
      "Ġexpect": 2053,
      "Ġwithin": 2054,
      "cl": 2055,
      "te": 2056,
      "Ġid": 2057,
      "Ġface": 2058,
      "ATE": 2059,
      "Ġreceived": 2060,
      "Ġher": 2061,
      "Ġdidn": 2062,
      "Ġarri": 2063,
      "Ġcame": 2064,
      "ator": 2065,
      "Ġfeed": 2066,
      "ĠUse": 2067,
      "Ġhonest": 2068,
      "ric": 2069,
      "ower": 2070,
      "ring": 2071,
      "Ġexcellent": 2072,
      "remely": 2073,
      "ĠSu": 2074,
      "Ġwords": 2075,
      "aming": 2076,
      "Ġswipe": 2077,
      "ĠPlay": 2078,
      "ĠAfter": 2079,
      "'ll": 2080,
      "Ġupgr": 2081,
      "Ġcred": 2082,
      "ked": 2083,
      "Ġgames": 2084,
      "Ġneeded": 2085,
      "Ġpurch": 2086,
      "Ġchanges": 2087,
      "Ġsecond": 2088,
      "ĠTo": 2089,
      "Ġpassword": 2090,
      "ĠSamsung": 2091,
      "ume": 2092,
      "Ġloads": 2093,
      "Ġauto": 2094,
      "ĠAM": 2095,
      "lie": 2096,
      "Ġwonder": 2097,
      "aw": 2098,
      "ird": 2099,
      "Ġvia": 2100,
      "used": 2101,
      "Ġtold": 2102,
      "Ġreinstall": 2103,
      "aring": 2104,
      "bably": 2105,
      "Ġ0": 2106,
      "Ġmaybe": 2107,
      "UT": 2108,
      "Â´": 2109,
      "body": 2110,
      "Ġwaiting": 2111,
      "Ġver": 2112,
      "ĠOnly": 2113,
      "though": 2114,
      "Ġtot": 2115,
      "ĠThat": 2116,
      "Ġreading": 2117,
      "Ġfile": 2118,
      "ĠWorks": 2119,
      "Ġstep": 2120,
      ").": 2121,
      "Ġfac": 2122,
      "Ġcredit": 2123,
      "How": 2124,
      "Ġcomments": 2125,
      "Ġamount": 2126,
      "ĠAPP": 2127,
      "ĠUn": 2128,
      "Ġtexts": 2129,
      "idd": 2130,
      "ample": 2131,
      "iculous": 2132,
      "Ġunless": 2133,
      "medium": 2134,
      "gan": 2135,
      "Ġchoice": 2136,
      "Ġsite": 2137,
      "Ġrepl": 2138,
      "Ġwhenever": 2139,
      "Ġalarm": 2140,
      "ising": 2141,
      "Ġtyping": 2142,
      "acy": 2143,
      "Ġsever": 2144,
      "ĠWi": 2145,
      "ph": 2146,
      "ling": 2147,
      "Ġusername": 2148,
      "ply": 2149,
      "Ġocc": 2150,
      "Ġconnected": 2151,
      "ax": 2152,
      "Ġnavigate": 2153,
      "Ġcouple": 2154,
      "ides": 2155,
      "No": 2156,
      "ided": 2157,
      "Ġservices": 2158,
      "enger": 2159,
      "10": 2160,
      "Ġsize": 2161,
      "Ġmight": 2162,
      "Ġoverall": 2163,
      "Why": 2164,
      "Ġhelps": 2165,
      "pdate": 2166,
      "Ġpremium": 2167,
      "Ġtap": 2168,
      "ĠWH": 2169,
      "Can": 2170,
      "ĠTHIS": 2171,
      "âĢĺÂį": 2172,
      "ĠFantastic": 2173,
      "Ġcoming": 2174,
      "Ġrequest": 2175,
      "âĢł": 2176,
      "Ġtwe": 2177,
      "ĠOther": 2178,
      "!!!!": 2179,
      "Ġdelivered": 2180,
      "Ġperm": 2181,
      "ren": 2182,
      "Ġtook": 2183,
      "Â¬": 2184,
      "Ġprom": 2185,
      "ĠAbsolutely": 2186,
      "Ġliterally": 2187,
      "ĠST": 2188,
      "cast": 2189,
      "Ġweeks": 2190,
      "âĢĶ": 2191,
      "Â³": 2192,
      "Ġcommunication": 2193,
      "IT": 2194,
      "ote": 2195,
      "ush": 2196,
      "LEAS": 2197,
      "Ġturned": 2198,
      "Ġsurve": 2199,
      "Ġrubbish": 2200,
      "Ġpod": 2201,
      "Ġins": 2202,
      "sw": 2203,
      "venient": 2204,
      "Fi": 2205,
      "tom": 2206,
      "ĠAn": 2207,
      "Ġspend": 2208,
      "Ġtransl": 2209,
      "mail": 2210,
      "Ġplayl": 2211,
      "Â¼": 2212,
      "ktop": 2213,
      "Ġhappening": 2214,
      "Ġleave": 2215,
      "Ã¯": 2216,
      "Ġfold": 2217,
      "Now": 2218,
      "Ġnotes": 2219,
      "Ġword": 2220,
      "dden": 2221,
      "Ġyes": 2222,
      "Ġperfectly": 2223,
      "Ġfreezes": 2224,
      "Ġsudden": 2225,
      "agram": 2226,
      "Ġremoved": 2227,
      "sos": 2228,
      "Â©": 2229,
      "Ġgave": 2230,
      "ĠAwesome": 2231,
      "Ġside": 2232,
      "br": 2233,
      "Ġdoc": 2234,
      "Ġgener": 2235,
      "oom": 2236,
      "inking": 2237,
      "ĠAsos": 2238,
      "Ġexact": 2239,
      "Ġchanging": 2240,
      "Ġhappens": 2241,
      "way": 2242,
      "ari": 2243,
      "Ġreliable": 2244,
      "âĢ¹": 2245,
      "HeyHeyHeyHey": 2246,
      "cks": 2247,
      "aps": 2248,
      "Ġexample": 2249,
      "ense": 2250,
      "Ġob": 2251,
      "Ġmom": 2252,
      "CH": 2253,
      "ctions": 2254,
      "Ġplac": 2255,
      "Ġreset": 2256,
      "LEASE": 2257,
      "Ġpaid": 2258,
      "Ġparent": 2259,
      "Ġsongs": 2260,
      "Ġcause": 2261,
      "ities": 2262,
      "Ġimages": 2263,
      "ĠAlways": 2264,
      "Ġconsider": 2265,
      "Ġbottom": 2266,
      "xx": 2267,
      "AZ": 2268,
      "Ġrel": 2269,
      "RE": 2270,
      "fort": 2271,
      "Ġcop": 2272,
      "ired": 2273,
      "Ġextremely": 2274,
      "reci": 2275,
      "Ġplus": 2276,
      "ĠIS": 2277,
      "Ġblock": 2278,
      "Ġcap": 2279,
      "Ġsmart": 2280,
      "ĠUS": 2281,
      "lic": 2282,
      "Ġmeans": 2283,
      "Ġseveral": 2284,
      "Ġlate": 2285,
      "Ġgroups": 2286,
      "ĠApple": 2287,
      "Ġadds": 2288,
      "oring": 2289,
      "Ġlogg": 2290,
      "Ġclass": 2291,
      "ots": 2292,
      "ĠInst": 2293,
      "verall": 2294,
      "Ġbelie": 2295,
      "'re": 2296,
      "ouse": 2297,
      "Ġduring": 2298,
      "Ġdist": 2299,
      "Ġsit": 2300,
      "Ġsync": 2301,
      "OM": 2302,
      "ings": 2303,
      "moji": 2304,
      "ĠBA": 2305,
      "ific": 2306,
      "ears": 2307,
      "Ġgives": 2308,
      "ÂŃÂĲ": 2309,
      "Ġprobably": 2310,
      "Ġmen": 2311,
      "Ġstand": 2312,
      "FFFF": 2313,
      "Ġforward": 2314,
      "Ġdesktop": 2315,
      "aving": 2316,
      "Ġweb": 2317,
      "Ġcomput": 2318,
      "Ġoffer": 2319,
      "Ġloading": 2320,
      "gether": 2321,
      "Ġansw": 2322,
      "ics": 2323,
      "ĠÃĲ": 2324,
      "Ġnear": 2325,
      "Ġspec": 2326,
      "ied": 2327,
      "Ġnetwork": 2328,
      "ĠAMAZ": 2329,
      "In": 2330,
      "ject": 2331,
      "Ġprovide": 2332,
      "Ġregular": 2333,
      "hand": 2334,
      "na": 2335,
      "Ġpersonal": 2336,
      "outing": 2337,
      "ms": 2338,
      "ooks": 2339,
      "Ġprocess": 2340,
      "rom": 2341,
      "Ġappreci": 2342,
      "Ġtaken": 2343,
      "Ġallows": 2344,
      "ĠAMAZING": 2345,
      "ointing": 2346,
      "Â½": 2347,
      "ĠÃĻ": 2348,
      "Ġself": 2349,
      "Ġonto": 2350,
      "Ã¬": 2351,
      "ĠLO": 2352,
      "ath": 2353,
      "Ġisn": 2354,
      "Ġrestart": 2355,
      "mber": 2356,
      "uck": 2357,
      "Ġexpl": 2358,
      "Ġcalling": 2359,
      "ope": 2360,
      "gram": 2361,
      "Ġwrite": 2362,
      "Ġridiculous": 2363,
      "Ġmyself": 2364,
      "Ġdisable": 2365,
      "Ġrecommended": 2366,
      "Ġ:(": 2367,
      "Ġfault": 2368,
      "'d": 2369,
      "ĠPLEASE": 2370,
      "On": 2371,
      "Ġlanguage": 2372,
      "Â¢": 2373,
      "Ġmessenger": 2374,
      "Ġfilter": 2375,
      "ĠWiFi": 2376,
      "Ġdr": 2377,
      "igin": 2378,
      "Ġproducts": 2379,
      "Ġ201": 2380,
      "Ġquickly": 2381,
      "anks": 2382,
      "Ġfive": 2383,
      "ĠUI": 2384,
      "Ġnote": 2385,
      "Ġsoft": 2386,
      "ĠToo": 2387,
      "Ġordered": 2388,
      "Ġopin": 2389,
      "ĠChrome": 2390,
      "itive": 2391,
      "augh": 2392,
      "Ġcomment": 2393,
      "unch": 2394,
      "Ġ12": 2395,
      "ĠUP": 2396,
      "iled": 2397,
      "Ġbelieve": 2398,
      "Ġorigin": 2399,
      "Ġ30": 2400,
      "Ġhu": 2401,
      "put": 2402,
      "Ġadding": 2403,
      "oes": 2404,
      "Ġvis": 2405,
      "ĠHave": 2406,
      "Ã«": 2407,
      "Ġmatter": 2408,
      "âĢº": 2409,
      "Ġlose": 2410,
      "ĠPro": 2411,
      "fully": 2412,
      "pouting": 2413,
      "Ġfore": 2414,
      "Ġzoom": 2415,
      "ET": 2416,
      "Ġvol": 2417,
      "Ġages": 2418,
      "iously": 2419,
      "Re": 2420,
      "Ġoffline": 2421,
      "Ġca": 2422,
      "Ġotherwise": 2423,
      "ĠÃĴ": 2424,
      "ults": 2425,
      "ĠQu": 2426,
      "ĠTe": 2427,
      "!!!": 2428,
      "Ġinclud": 2429,
      "Great": 2430,
      "Ġsor": 2431,
      "ines": 2432,
      "Ġcut": 2433,
      "Ġcal": 2434,
      "Ġrout": 2435,
      "ĠNever": 2436,
      "ĠBl": 2437,
      "ÂĿâĢľ": 2438,
      "raight": 2439,
      "Ġcharg": 2440,
      "ĠASAP": 2441,
      "Ġinv": 2442,
      "Ġshort": 2443,
      "Ġopening": 2444,
      "Ġmark": 2445,
      "ndar": 2446,
      "ĠGet": 2447,
      "Ġmov": 2448,
      "Ġimage": 2449,
      "Ġlack": 2450,
      "ĠHi": 2451,
      "Ġusually": 2452,
      "like": 2453,
      "Ġhighly": 2454,
      "Ġbroken": 2455,
      "Ġsoftware": 2456,
      "Ġpick": 2457,
      "Ġtab": 2458,
      "akes": 2459,
      "Thank": 2460,
      "Ġcomputer": 2461,
      "Ġtube": 2462,
      "alendar": 2463,
      "Ġiphone": 2464,
      "ored": 2465,
      "Ġentertain": 2466,
      "Â¿": 2467,
      "ety": 2468,
      "Ġcalled": 2469,
      "Ġthree": 2470,
      "outube": 2471,
      "Ġinstant": 2472,
      "Ġbrowser": 2473,
      "par": 2474,
      "Ġ15": 2475,
      "Ġtool": 2476,
      "Ġchrome": 2477,
      "Ġstuck": 2478,
      "Ġchildren": 2479,
      "aa": 2480,
      "For": 2481,
      "Ġdownloading": 2482,
      "Ġhist": 2483,
      "ited": 2484,
      "St": 2485,
      "Ġaccur": 2486,
      "Ġsubscription": 2487,
      "Ġrespond": 2488,
      "Ġasking": 2489,
      "Ġbasic": 2490,
      "jor": 2491,
      "Ġmind": 2492,
      "tttt": 2493,
      "Ġfunctionality": 2494,
      "eah": 2495,
      "tern": 2496,
      "its": 2497,
      "Ġdefa": 2498,
      "ĠLike": 2499,
      "Ġpar": 2500,
      "Ġsimply": 2501,
      "Ġchannels": 2502,
      "Ġhis": 2503,
      "enc": 2504,
      "Ġshut": 2505,
      "ĠDO": 2506,
      "Ġtech": 2507,
      "Ġwhite": 2508,
      "Ġsharing": 2509,
      "Ġtv": 2510,
      "ID": 2511,
      "ident": 2512,
      "ĠBTS": 2513,
      "Âº": 2514,
      "gust": 2515,
      "Ġstraight": 2516,
      "ps": 2517,
      "Ġtogether": 2518,
      "ased": 2519,
      "ĠBACK": 2520,
      "Ġpls": 2521,
      "ĠRE": 2522,
      "Ġkept": 2523,
      "What": 2524,
      "ĠSuper": 2525,
      "ses": 2526,
      "sent": 2527,
      "Ġvolume": 2528,
      "ĠPre": 2529,
      "Ġcolour": 2530,
      "Ġrefre": 2531,
      "Â¶": 2532,
      "Ġresponse": 2533,
      "osed": 2534,
      "ĠOr": 2535,
      "Ġage": 2536,
      "Ġbeg": 2537,
      "Ġguess": 2538,
      "Ġanswer": 2539,
      "but": 2540,
      "low": 2541,
      "pr": 2542,
      "sign": 2543,
      "Ġglitches": 2544,
      "Ġbts": 2545,
      "Ã°Å¸Å¡": 2546,
      "Ġstops": 2547,
      "Ġdriver": 2548,
      "Ġprivacy": 2549,
      "ention": 2550,
      "Ġlearn": 2551,
      "Ġuses": 2552,
      "ĠFix": 2553,
      "Ġacross": 2554,
      "lection": 2555,
      "icro": 2556,
      "atever": 2557,
      "des": 2558,
      "icated": 2559,
      "ner": 2560,
      "Â·": 2561,
      "pend": 2562,
      "Â¸Âı": 2563,
      "Ġwaste": 2564,
      "ossible": 2565,
      "Ġcold": 2566,
      "urity": 2567,
      "AY": 2568,
      "Ġseeing": 2569,
      "Ġbugg": 2570,
      "iddle": 2571,
      "mm": 2572,
      "Ġorgan": 2573,
      "Ġassistant": 2574,
      "Ġhistory": 2575,
      "Just": 2576,
      "ĠMusic": 2577,
      "Ġexcept": 2578,
      "MS": 2579,
      "Ġreport": 2580,
      "Ġtotally": 2581,
      "ified": 2582,
      "Thanks": 2583,
      "Ġreco": 2584,
      "Ġcharge": 2585,
      "bers": 2586,
      "irst": 2587,
      "LY": 2588,
      "Ġopened": 2589,
      "oming": 2590,
      "Ġmill": 2591,
      "Ġey": 2592,
      "Ġcancel": 2593,
      "Ġval": 2594,
      "Ġ#": 2595,
      "EW": 2596,
      "Ġbox": 2597,
      "berry": 2598,
      "ude": 2599,
      "Äłc": 2600,
      "ĠFI": 2601,
      "ĠLo": 2602,
      "Ġmemories": 2603,
      "Ġmor": 2604,
      "Ġdel": 2605,
      "ĠCould": 2606,
      "Ġoriginal": 2607,
      "Ġsafe": 2608,
      "Ġenter": 2609,
      "Ġactiv": 2610,
      "Ġstick": 2611,
      "Ġdefault": 2612,
      "aking": 2613,
      "Ġrunning": 2614,
      "Ġord": 2615,
      "Ġbre": 2616,
      "Ġline": 2617,
      "arely": 2618,
      "Ġdocum": 2619,
      "âĢĵ": 2620,
      "Ġeffect": 2621,
      "egr": 2622,
      "Ġtwitter": 2623,
      "Â»": 2624,
      "Ġcustomers": 2625,
      "Ġdirect": 2626,
      "uet": 2627,
      "Ġtable": 2628,
      "Ġmajor": 2629,
      "iced": 2630,
      "Ġ24": 2631,
      "Wor": 2632,
      "Å¾": 2633,
      "rying": 2634,
      "Ġfit": 2635,
      "Ġtalking": 2636,
      "leep": 2637,
      "Ġlow": 2638,
      "Ġresol": 2639,
      "Ġsepar": 2640,
      "Ġdeal": 2641,
      "Ġenable": 2642,
      "Ġupgrade": 2643,
      "Ġimprovement": 2644,
      "Ġexactly": 2645,
      "pping": 2646,
      "ĠCH": 2647,
      "Ġhonestly": 2648,
      "Ġopinion": 2649,
      "Ġstud": 2650,
      "ĠYoutube": 2651,
      "Äłs": 2652,
      "ech": 2653,
      "eared": 2654,
      "ried": 2655,
      "asts": 2656,
      "ĠInstagram": 2657,
      "Ġimpossible": 2658,
      "mon": 2659,
      "ness": 2660,
      "Its": 2661,
      "Ġla": 2662,
      "aster": 2663,
      "Ġhello": 2664,
      "ĠAd": 2665,
      "Ġconversation": 2666,
      "ooth": 2667,
      "Ġdevelopers": 2668,
      "arr": 2669,
      "ĠEng": 2670,
      "Ġsecurity": 2671,
      "air": 2672,
      "ĠUpdate": 2673,
      "Ġcopy": 2674,
      "Ġmenu": 2675,
      "cessary": 2676,
      "Ġfrequ": 2677,
      "ĠOverall": 2678,
      "fortun": 2679,
      "Ġsad": 2680,
      "Ġextra": 2681,
      "Ġasked": 2682,
      "inks": 2683,
      "ĠWith": 2684,
      "Ġokay": 2685,
      "member": 2686,
      "Ġcomplete": 2687,
      "uetooth": 2688,
      "side": 2689,
      "Ġbeans": 2690,
      "ability": 2691,
      "ache": 2692,
      "Ġconvenient": 2693,
      "Ġlistening": 2694,
      "Ġmet": 2695,
      "ĠSometimes": 2696,
      "medi": 2697,
      "ĠMY": 2698,
      "Ġspeed": 2699,
      "Ġreach": 2700,
      "Ġhuge": 2701,
      "cul": 2702,
      "Ġwhatever": 2703,
      "Ġsty": 2704,
      "ĠDis": 2705,
      "Ġquest": 2706,
      "Ġrecording": 2707,
      "ĠPixel": 2708,
      "Ġplz": 2709,
      "ĠSim": 2710,
      "Ġtransfer": 2711,
      "of": 2712,
      "Ġbought": 2713,
      "Ġminute": 2714,
      "Ġhandy": 2715,
      "Ġconversations": 2716,
      "ensive": 2717,
      "ĠSp": 2718,
      "uses": 2719,
      "ĠIN": 2720,
      "ĠUPD": 2721,
      "ty": 2722,
      "ÃĤ": 2723,
      "Ġhang": 2724,
      "Ġnumbers": 2725,
      "Ġapart": 2726,
      "Ġadv": 2727,
      "Ġforever": 2728,
      "ĠÃ°": 2729,
      "Ġallowed": 2730,
      "Ġfig": 2731,
      "Ġaccept": 2732,
      "Ġhold": 2733,
      "Ġpain": 2734,
      "Ġmeas": 2735,
      "Ġrefresh": 2736,
      "Ġentire": 2737,
      "IC": 2738,
      "Ġbeh": 2739,
      "Äłp": 2740,
      "Ġcase": 2741,
      "lock": 2742,
      "Ġolder": 2743,
      "yed": 2744,
      "ĠUsed": 2745,
      "Ġstr": 2746,
      "ĠRec": 2747,
      "Ġemails": 2748,
      "Ġsuddenly": 2749,
      "ĠSome": 2750,
      "essage": 2751,
      "pite": 2752,
      "use": 2753,
      "Ġev": 2754,
      "Ġcontinue": 2755,
      "Ġpixel": 2756,
      "Ġinfo": 2757,
      "Ġintegr": 2758,
      "However": 2759,
      "Ġsmo": 2760,
      "Ġasos": 2761,
      "Ġrange": 2762,
      "Ġanywhere": 2763,
      "Ġug": 2764,
      "grinning": 2765,
      "Ġfreezing": 2766,
      "Ġwallpaper": 2767,
      "Ġimmedi": 2768,
      "wards": 2769,
      "Ġdrive": 2770,
      "Ġring": 2771,
      "ky": 2772,
      "Ġcalendar": 2773,
      "icks": 2774,
      "Ġdecided": 2775,
      "ether": 2776,
      "Ġtasks": 2777,
      "Ġuninstalled": 2778,
      "Ġtelling": 2779,
      "Ġskip": 2780,
      "Un": 2781,
      "Ġreceiving": 2782,
      "Ġrandomly": 2783,
      "Ġorders": 2784,
      "Ġing": 2785,
      "21": 2786,
      "Ġoccas": 2787,
      "Ġremind": 2788,
      "ibly": 2789,
      "Ġnon": 2790,
      "ĠSO": 2791,
      "Ġfolder": 2792,
      "Ġfigure": 2793,
      "Ġstock": 2794,
      "Ġactual": 2795,
      "Ġdiscover": 2796,
      "Ġlogged": 2797,
      "ĠEnglish": 2798,
      "ho": 2799,
      "uture": 2800,
      "Ġshame": 2801,
      "Ġalthough": 2802,
      "ÃĲÂµ": 2803,
      "Ġpartic": 2804,
      "ug": 2805,
      "Ġplaylist": 2806,
      "Ġreturns": 2807,
      "cause": 2808,
      "Ġpin": 2809,
      "Ġweird": 2810,
      "Ġrecogn": 2811,
      "alax": 2812,
      "ilar": 2813,
      "anna": 2814,
      "Ġjoin": 2815,
      "rrit": 2816,
      "Ġmine": 2817,
      "Ġpower": 2818,
      "Ġprogram": 2819,
      "ĠFR": 2820,
      "Ġremember": 2821,
      "Ġwants": 2822,
      "Ġmanage": 2823,
      "fortunately": 2824,
      "Ġrever": 2825,
      "alaxy": 2826,
      "Ġmiddle": 2827,
      "Ġmins": 2828,
      "ĠEven": 2829,
      "Ġformat": 2830,
      "LD": 2831,
      "dit": 2832,
      "ĠIm": 2833,
      "That": 2834,
      "ivid": 2835,
      "icient": 2836,
      "Ġep": 2837,
      "ution": 2838,
      "ĠEVER": 2839,
      "KE": 2840,
      "Ġfab": 2841,
      "Ġwonderful": 2842,
      "Ġthumb": 2843,
      "Ġvari": 2844,
      "ressed": 2845,
      "Ġediting": 2846,
      "Ġbother": 2847,
      "Ġhouse": 2848,
      "Ġlar": 2849,
      "action": 2850,
      "Ġsupposed": 2851,
      "Ġrequire": 2852,
      "Ġaccurate": 2853,
      "Ġpoin": 2854,
      "ĠEverything": 2855,
      "mojis": 2856,
      "Ġaff": 2857,
      "Ġlikes": 2858,
      "Ġincre": 2859,
      "Ġmoment": 2860,
      "aff": 2861,
      "Ġliked": 2862,
      "iles": 2863,
      "ĠKeeps": 2864,
      "Ġappreciate": 2865,
      "Ġbackup": 2866,
      "gusting": 2867,
      "aut": 2868,
      "Ġfuture": 2869,
      "ĠSN": 2870,
      "Äłd": 2871,
      "Ġpermiss": 2872,
      "Ġirrit": 2873,
      "Ġms": 2874,
      "Ġrestric": 2875,
      "Ġdisappointing": 2876,
      "Other": 2877,
      "casts": 2878,
      "mbo": 2879,
      "ĠGo": 2880,
      "Ġeverytime": 2881,
      "aph": 2882,
      "ubers": 2883,
      "TH": 2884,
      "co": 2885,
      "ĠDE": 2886,
      "Every": 2887,
      "othing": 2888,
      "ĠStill": 2889,
      "Ġspeech": 2890,
      "AD": 2891,
      "ĠPer": 2892,
      "Ġugly": 2893,
      "Ġbasically": 2894,
      "Ġdeliveroo": 2895,
      "Ġdetails": 2896,
      "ĠNeeds": 2897,
      "Ġsense": 2898,
      "Ġnavigation": 2899,
      "Ġmorning": 2900,
      "ĠAny": 2901,
      "rup": 2902,
      "Ġwriting": 2903,
      "Ġsteps": 2904,
      "ii": 2905,
      "Ġarea": 2906,
      "OP": 2907,
      "ards": 2908,
      "oid": 2909,
      "Ġnames": 2910,
      "Ġoper": 2911,
      "Ġaccident": 2912,
      "ational": 2913,
      "ĠCon": 2914,
      "Ġforced": 2915,
      "GE": 2916,
      "ĠCom": 2917,
      "Ġcheap": 2918,
      "Ġrepe": 2919,
      "Ġplaces": 2920,
      "Ġfunny": 2921,
      "sp": 2922,
      "Ġlight": 2923,
      "Ġappears": 2924,
      "Ġtest": 2925,
      "Ġsurveys": 2926,
      "Ġimmediately": 2927,
      "Ġcrap": 2928,
      "Ġmut": 2929,
      "Ġprices": 2930,
      "Ġdisappear": 2931,
      "Ġtask": 2932,
      "just": 2933,
      "Ġwid": 2934,
      "ĠFOR": 2935,
      "Ġclothing": 2936,
      "Ġpaying": 2937,
      "Ġindivid": 2938,
      "Ġfeedback": 2939,
      "onna": 2940,
      "Ġspecific": 2941,
      "Ġcalcul": 2942,
      "Ġconnecting": 2943,
      "Ġletting": 2944,
      "Ġresults": 2945,
      "ites": 2946,
      "Ġreinstalled": 2947,
      "aptop": 2948,
      "âĤ¬Âį": 2949,
      "ĠUPDATE": 2950,
      "Ġbook": 2951,
      "Ġmanually": 2952,
      "Ġenc": 2953,
      "Does": 2954,
      "ĠMe": 2955,
      "ains": 2956,
      "Ġtwice": 2957,
      "Ġparents": 2958,
      "ĠFIX": 2959,
      "ĠSer": 2960,
      "ĠBE": 2961,
      "cri": 2962,
      "Ġthinking": 2963,
      "ĠStore": 2964,
      "Ġfair": 2965,
      "ION": 2966,
      "Ġprivate": 2967,
      "All": 2968,
      "ips": 2969,
      "Ġcor": 2970,
      "Ġwanna": 2971,
      "Ġanyway": 2972,
      "EEEE": 2973,
      "ized": 2974,
      "AM": 2975,
      "Ġred": 2976,
      "Ġsignal": 2977,
      "Ġwal": 2978,
      "Ġprice": 2979,
      "Ġpurp": 2980,
      "Ġsmooth": 2981,
      "After": 2982,
      "zz": 2983,
      "Ġhim": 2984,
      "ĠSe": 2985,
      "ello": 2986,
      "ĠLOVE": 2987,
      "ister": 2988,
      "Ġyeah": 2989,
      "usable": 2990,
      "Ġhit": 2991,
      "Ġmod": 2992,
      "Ġcompat": 2993,
      "ropri": 2994,
      "ILL": 2995,
      "Need": 2996,
      "Ġcache": 2997,
      "hands": 2998,
      "ideo": 2999,
      "ĠYour": 3000,
      "ĠStop": 3001,
      "Be": 3002,
      "Ġpub": 3003,
      "Ġtimer": 3004,
      "Ġwont": 3005,
      "hot": 3006,
      "ries": 3007,
      "Ġcomplicated": 3008,
      "ĠFirst": 3009,
      "Ġpol": 3010,
      "Ġpresent": 3011,
      "Ġsleep": 3012,
      "Ġmass": 3013,
      "Ġgre": 3014,
      "Ġlets": 3015,
      "Ġmeeting": 3016,
      "Ġclean": 3017,
      "Ġfail": 3018,
      "Ġfront": 3019,
      "Ġblackberry": 3020,
      "ilst": 3021,
      "ibility": 3022,
      "Ġways": 3023,
      "Ġbann": 3024,
      "Ġnoticed": 3025,
      "terday": 3026,
      "Ġaltern": 3027,
      "Ġfinally": 3028,
      "part": 3029,
      "atis": 3030,
      "Ġselection": 3031,
      "Ġsn": 3032,
      "Ġgonna": 3033,
      "Ġdoesnt": 3034,
      "ser": 3035,
      "ĠWas": 3036,
      "Ġsaves": 3037,
      "solute": 3038,
      "ater": 3039,
      "connect": 3040,
      "Ġdiscount": 3041,
      "Ġforce": 3042,
      "Ġmeasure": 3043,
      "Ġlimited": 3044,
      "orts": 3045,
      "Ġsimilar": 3046,
      "phones": 3047,
      "ÃĻÅł": 3048,
      "\".": 3049,
      "ef": 3050,
      "outh": 3051,
      "Ġvids": 3052,
      "Ġtrouble": 3053,
      "Ġ13": 3054,
      "mark": 3055,
      "ALL": 3056,
      "Ġviewing": 3057,
      "Ġauth": 3058,
      "Ġtablet": 3059,
      "ĠMem": 3060,
      "Ġincred": 3061,
      "Ġfan": 3062,
      "Ġdisappeared": 3063,
      "Ġremote": 3064,
      "Ġce": 3065,
      "ĠiPod": 3066,
      "Ġcurrently": 3067,
      "Ġpoints": 3068,
      "ĠThen": 3069,
      "Ġbuttons": 3070,
      "atisf": 3071,
      "Ġut": 3072,
      "ading": 3073,
      "Ġstarts": 3074,
      "Ġwallpapers": 3075,
      "Ġthumbn": 3076,
      "Ġest": 3077,
      "ĠÃ¬": 3078,
      "ns": 3079,
      "Ġgif": 3080,
      "Ġalong": 3081,
      "Äłre": 3082,
      "Ġfunctions": 3083,
      "Ġsorted": 3084,
      "IM": 3085,
      "Ġlaptop": 3086,
      "ict": 3087,
      "ĠInter": 3088,
      "Ġsolve": 3089,
      "loud": 3090,
      "ential": 3091,
      "Ġaddition": 3092,
      "Ġstarting": 3093,
      "ropriate": 3094,
      "Pl": 3095,
      "Ġbb": 3096,
      "Ġseparate": 3097,
      "cle": 3098,
      "Ġtrash": 3099,
      "ĠFree": 3100,
      "ĠBUT": 3101,
      "apping": 3102,
      "Ġpayment": 3103,
      "ron": 3104,
      "Ġwind": 3105,
      "Ġtweets": 3106,
      "ging": 3107,
      "Ġpleas": 3108,
      "Ġclearly": 3109,
      "Ġroom": 3110,
      "Ġve": 3111,
      "Ġpush": 3112,
      "ional": 3113,
      "ĠALL": 3114,
      "ĠMaps": 3115,
      "Ġsaving": 3116,
      "Ġmanag": 3117,
      "rolling": 3118,
      "Ġblue": 3119,
      "Ġattem": 3120,
      "ĠChange": 3121,
      "yy": 3122,
      "ĠWill": 3123,
      "Ġtells": 3124,
      "Ġdespite": 3125,
      "Ġimproved": 3126,
      "ËľÂ¡": 3127,
      "Ġartic": 3128,
      "Ġdisgusting": 3129,
      "Ġparticular": 3130,
      "Ġvariety": 3131,
      "Ġjoke": 3132,
      "Ġlaggy": 3133,
      "Ġlol": 3134,
      "ÄłS": 3135,
      "ĠiM": 3136,
      "Ġ:-": 3137,
      "Ġlately": 3138,
      "ccess": 3139,
      "000": 3140,
      "viously": 3141,
      "Ġincluding": 3142,
      "Ġsorry": 3143,
      "Ġstan": 3144,
      "Ġwhether": 3145,
      "ĠSort": 3146,
      "hearts": 3147,
      "Ġunusable": 3148,
      "Ġblur": 3149,
      "OW": 3150,
      "Ġcreators": 3151,
      "Ġign": 3152,
      "Ġopp": 3153,
      "ĠMo": 3154,
      "Ġspent": 3155,
      "ump": 3156,
      "Ġsearching": 3157,
      "Ġmist": 3158,
      "rodu": 3159,
      "ĠBring": 3160,
      "Ġeng": 3161,
      "Ġbased": 3162,
      "Ġarrived": 3163,
      "ond": 3164,
      "oub": 3165,
      "ĠÃ«": 3166,
      "Ġmoving": 3167,
      "Ġcreated": 3168,
      "Ġirritating": 3169,
      "Ġwhilst": 3170,
      "Ġagree": 3171,
      "Ġefficient": 3172,
      "Ġmovies": 3173,
      "Ġdelay": 3174,
      "errible": 3175,
      "Ġyesterday": 3176,
      "Ġeyes": 3177,
      "Ġevent": 3178,
      "the": 3179,
      "azy": 3180,
      "Ġchecked": 3181,
      "Ġtho": 3182,
      "ĠAut": 3183,
      "They": 3184,
      "As": 3185,
      "Ġfailed": 3186,
      "by": 3187,
      "row": 3188,
      "aybe": 3189,
      "Ġsucks": 3190,
      "Ġpopular": 3191,
      "âĢºâĢĿ": 3192,
      "UB": 3193,
      "Ġalot": 3194,
      "âĦ¢Âı": 3195,
      "Ġfing": 3196,
      "ĠMess": 3197,
      "Ġdeser": 3198,
      "sy": 3199,
      "Ġdra": 3200,
      "log": 3201,
      "Ġseriously": 3202,
      "ONE": 3203,
      "cer": 3204,
      "Ġnone": 3205,
      "ases": 3206,
      "cing": 3207,
      "une": 3208,
      "Ġpodcast": 3209,
      "ĠAdd": 3210,
      "ĠHello": 3211,
      "Ġunre": 3212,
      "Ġnearly": 3213,
      "Ġdouble": 3214,
      "omes": 3215,
      "Ġminim": 3216,
      "ĠQuick": 3217,
      "cent": 3218,
      "lev": 3219,
      "als": 3220,
      "Ġpodcasts": 3221,
      "Ġredu": 3222,
      "ĠSNAP": 3223,
      "Ġmsg": 3224,
      "ĠYT": 3225,
      "Ġtrust": 3226,
      "Ġinclude": 3227,
      "pped": 3228,
      "Ġapple": 3229,
      "Ġshown": 3230,
      "Ġyourself": 3231,
      "Ġleve": 3232,
      "Ġperform": 3233,
      "soft": 3234,
      "ANT": 3235,
      "Ġpurchase": 3236,
      "Nice": 3237,
      "Time": 3238,
      "Ġincon": 3239,
      "Ġhaven": 3240,
      "Ġflaw": 3241,
      "df": 3242,
      "Ġabove": 3243,
      "Ġcouldn": 3244,
      "Ġfinding": 3245,
      "Ġwidget": 3246,
      "appy": 3247,
      "por": 3248,
      "tears": 3249,
      "Ġepis": 3250,
      "uitive": 3251,
      "Ġlogin": 3252,
      "ian": 3253,
      "Sometimes": 3254,
      "We": 3255,
      "Ġcour": 3256,
      "ane": 3257,
      "Ġluck": 3258,
      "ĠHey": 3259,
      "Ch": 3260,
      "OK": 3261,
      "Ġhelped": 3262,
      "oooooooo": 3263,
      "AL": 3264,
      "Ġtheme": 3265,
      "Ġinput": 3266,
      "ĠMost": 3267,
      "Ġstream": 3268,
      "Ġcountry": 3269,
      "Ġbuggy": 3270,
      "bed": 3271,
      "Ġbooks": 3272,
      "Ġdecent": 3273,
      "ision": 3274,
      "ems": 3275,
      "Ġfavor": 3276,
      "eeee": 3277,
      "ĠGOO": 3278,
      "Ġtill": 3279,
      "Ġteach": 3280,
      "Ġpreview": 3281,
      "Ġdisconnect": 3282,
      "Ġbrands": 3283,
      "ĠZ": 3284,
      "Ġgir": 3285,
      "ilt": 3286,
      "Äłf": 3287,
      "Ġroute": 3288,
      "Ġtin": 3289,
      "Ġ2020": 3290,
      "Ġscrolling": 3291,
      "ĠPerfect": 3292,
      "allery": 3293,
      "ĠSuch": 3294,
      "emale": 3295,
      "Ġtem": 3296,
      "Ġadvertis": 3297,
      "UR": 3298,
      "female": 3299,
      "su": 3300,
      "ĠCHAN": 3301,
      "Ġfaster": 3302,
      "ĠVI": 3303,
      "how": 3304,
      "Ġip": 3305,
      "erous": 3306,
      "Ġannoyed": 3307,
      "ĠAt": 3308,
      "ĠSMS": 3309,
      "Ġtrave": 3310,
      "Ġhide": 3311,
      "Ġrestaurants": 3312,
      "FFFFFFFF": 3313,
      "icrosoft": 3314,
      "bum": 3315,
      "Ġsched": 3316,
      "Ġmention": 3317,
      "Ġmail": 3318,
      "Ġunne": 3319,
      "Ġque": 3320,
      "ĠAR": 3321,
      "Ġblank": 3322,
      "Ġsubscribe": 3323,
      "Ġfrequently": 3324,
      "Ġemoji": 3325,
      "Ġdescri": 3326,
      "**": 3327,
      "ese": 3328,
      "Ġturns": 3329,
      "Would": 3330,
      "Ġwar": 3331,
      "ĠÃĥ": 3332,
      "Ġmoved": 3333,
      "Ġ50": 3334,
      "Ġintern": 3335,
      "ĠFab": 3336,
      "Ġnormally": 3337,
      "Ġlarge": 3338,
      "aly": 3339,
      "Ġvalue": 3340,
      "crying": 3341,
      "jo": 3342,
      "Ġcu": 3343,
      "Ġinf": 3344,
      "ape": 3345,
      "Ġsuggestions": 3346,
      "Ġemojis": 3347,
      "Ġaccidentally": 3348,
      "arb": 3349,
      "aining": 3350,
      "ĠOS": 3351,
      "Love": 3352,
      "Ġinteresting": 3353,
      "Ġcele": 3354,
      "Ġpages": 3355,
      "ĠOF": 3356,
      "Ġstreaming": 3357,
      "ĠiMessage": 3358,
      "Ġtit": 3359,
      "Ġdam": 3360,
      "Ġimpressed": 3361,
      "lves": 3362,
      "Ġsolution": 3363,
      "Ġmillion": 3364,
      "Ġsoo": 3365,
      "Äłb": 3366,
      "Ġsends": 3367,
      "Ġglitchy": 3368,
      "Ġadvertising": 3369,
      "Ġindividual": 3370,
      "Ġcompatible": 3371,
      "Ġmates": 3372,
      "gry": 3373,
      "Ġbeginning": 3374,
      "Ġadjust": 3375,
      "ĠTr": 3376,
      "ĠPay": 3377,
      "Ġsecure": 3378,
      "),": 3379,
      "my": 3380,
      "etter": 3381,
      "Ġfoc": 3382,
      "Ġpurpose": 3383,
      "Ġcodes": 3384,
      "Ġcolor": 3385,
      "Ġri": 3386,
      "Ġfixing": 3387,
      "Ġpointless": 3388,
      "ĠSnap": 3389,
      "ĠHelp": 3390,
      "Ġbroke": 3391,
      "mbols": 3392,
      "ÂĿÂ¤": 3393,
      "ÂĿâĢ¢": 3394,
      "ĠBeen": 3395,
      "UST": 3396,
      "AVE": 3397,
      "Ġ$": 3398,
      "ĠBB": 3399,
      "Ġround": 3400,
      "ĠPo": 3401,
      "Ġdu": 3402,
      "Ġstru": 3403,
      "Äłt": 3404,
      "ĠHigh": 3405,
      "Ġpos": 3406,
      "Ġlooked": 3407,
      "Ġpdf": 3408,
      "Ġgeneral": 3409,
      "ĠMemes": 3410,
      "otify": 3411,
      "Ġlaunch": 3412,
      "Ġintrodu": 3413,
      "ital": 3414,
      "Ġasap": 3415,
      "Ġchatting": 3416,
      "Ġbrand": 3417,
      "BLE": 3418,
      "Ġppl": 3419,
      "Ġblocked": 3420,
      "spark": 3421,
      "Ġcompared": 3422,
      "Ġxx": 3423,
      "Ġcorrectly": 3424,
      "uly": 3425,
      "Ġordering": 3426,
      "Ġfully": 3427,
      "Works": 3428,
      "Â«": 3429,
      "Ġdaugh": 3430,
      "Äłm": 3431,
      "Ġroll": 3432,
      "Ġlosing": 3433,
      "Ġheart": 3434,
      ".....": 3435,
      "Ġalbum": 3436,
      "Ġavoid": 3437,
      "Ġtranslate": 3438,
      "oices": 3439,
      "ze": 3440,
      "Ġbeaut": 3441,
      "ĠVideo": 3442,
      "Ġvir": 3443,
      "Ġfeels": 3444,
      "ĠFaceTime": 3445,
      "Ġcourse": 3446,
      "ggle": 3447,
      "len": 3448,
      "Ġunlock": 3449,
      "Ġmembers": 3450,
      "Ġputting": 3451,
      "Ġharder": 3452,
      "Ġcomplaints": 3453,
      "Ġeat": 3454,
      "selves": 3455,
      "plic": 3456,
      "EST": 3457,
      "tim": 3458,
      "Ãħ": 3459,
      "ĠME": 3460,
      "Ġheard": 3461,
      "Ġusernames": 3462,
      "Ġfort": 3463,
      "ateg": 3464,
      "Ġturning": 3465,
      "Ġbill": 3466,
      "To": 3467,
      "uc": 3468,
      "Ġcens": 3469,
      "Ġplayer": 3470,
      "Ġhop": 3471,
      "uff": 3472,
      "ystem": 3473,
      "Ġsounds": 3474,
      "Ġmemory": 3475,
      "ĠBluetooth": 3476,
      "Ġusage": 3477,
      "Ġexpected": 3478,
      "Ġson": 3479,
      "Ġcell": 3480,
      "Only": 3481,
      "arbage": 3482,
      "ming": 3483,
      "Ġtre": 3484,
      "Ġmax": 3485,
      "ĠCr": 3486,
      "ĠInternet": 3487,
      "lling": 3488,
      "Ġsuggestion": 3489,
      "Ġboring": 3490,
      "ĠPC": 3491,
      "Ġalternative": 3492,
      "99": 3493,
      "Ġstandard": 3494,
      "ĠEVERY": 3495,
      "Ġsurvey": 3496,
      "ST": 3497,
      "ero": 3498,
      "ĠHope": 3499,
      "âĤ¬Â¢": 3500,
      "Ġ69": 3501,
      "Ġparty": 3502,
      "ives": 3503,
      "acting": 3504,
      "ples": 3505,
      "Ġcover": 3506,
      "gging": 3507,
      "Even": 3508,
      "ences": 3509,
      "ream": 3510,
      "ĠBad": 3511,
      "Ġdriving": 3512,
      "Ġben": 3513,
      "Ġnor": 3514,
      "Ġgallery": 3515,
      "ĠAss": 3516,
      "Ġmissed": 3517,
      "Ġimprovements": 3518,
      "OD": 3519,
      "ÃĦ": 3520,
      "ĠOtherwise": 3521,
      "Ġdraw": 3522,
      "ience": 3523,
      "Ġmessed": 3524,
      "LET": 3525,
      "ik": 3526,
      "ĠGalaxy": 3527,
      "Ġbuying": 3528,
      "Ġinstru": 3529,
      "Don": 3530,
      "oc": 3531,
      "ĠHad": 3532,
      "ĠBecause": 3533,
      "Ġneg": 3534,
      "ĠWatch": 3535,
      "urther": 3536,
      "Ġfinish": 3537,
      "Ġ:-)": 3538,
      "Ġsour": 3539,
      "Ġfour": 3540,
      "ĠIM": 3541,
      "ĠTerrible": 3542,
      "Ġregard": 3543,
      "ife": 3544,
      "ĠCl": 3545,
      "Ġ14": 3546,
      "Ġperman": 3547,
      "gest": 3548,
      "Ä¢": 3549,
      "Ġbc": 3550,
      "ĠGmail": 3551,
      "Ġexc": 3552,
      "Ġscreensh": 3553,
      "Ġhum": 3554,
      "ÃĺÂª": 3555,
      "EWS": 3556,
      "Ġdest": 3557,
      "aded": 3558,
      "Then": 3559,
      "Ġstreet": 3560,
      "ined": 3561,
      "ONT": 3562,
      "Ġswitching": 3563,
      "Ġtweet": 3564,
      "ĠOrder": 3565,
      "for": 3566,
      "Ġsick": 3567,
      "ĠWOR": 3568,
      "arently": 3569,
      "Ġpermission": 3570,
      "ĠPhot": 3571,
      "Ġwatched": 3572,
      "CS": 3573,
      "Ġadmin": 3574,
      "ship": 3575,
      "Ġunnecessary": 3576,
      "mouth": 3577,
      "Ġbed": 3578,
      "tions": 3579,
      "Ġspam": 3580,
      "Ġpublic": 3581,
      "ĠGI": 3582,
      "ocking": 3583,
      "Ġmassive": 3584,
      "Ġadvertisem": 3585,
      "Ġroad": 3586,
      "Ġupset": 3587,
      "Ġmix": 3588,
      "ĠAD": 3589,
      "Ġoverse": 3590,
      "Ġquestion": 3591,
      "Ġfavorite": 3592,
      "Ġhot": 3593,
      "Ġspo": 3594,
      "ĠNOW": 3595,
      "Ġtrue": 3596,
      "Ġregularly": 3597,
      "Ġstyle": 3598,
      "lack": 3599,
      "Ġsatisf": 3600,
      "Ġoh": 3601,
      "aves": 3602,
      "ĠCHANGE": 3603,
      "friend": 3604,
      "Ġess": 3605,
      "alling": 3606,
      "outs": 3607,
      "ĠSimple": 3608,
      "Ġcateg": 3609,
      "logy": 3610,
      "Ġplatforms": 3611,
      "ĠIP": 3612,
      "ĠMicrosoft": 3613,
      "Ġinterested": 3614,
      "cut": 3615,
      "tw": 3616,
      "Ġsus": 3617,
      "Ġcir": 3618,
      "els": 3619,
      "Ġpolic": 3620,
      "ency": 3621,
      "One": 3622,
      "ĠYes": 3623,
      "ization": 3624,
      "Ġpersonally": 3625,
      "Ġcent": 3626,
      "ĠGP": 3627,
      "Ġfixes": 3628,
      "ffer": 3629,
      "ÃĻËĨ": 3630,
      "Ġprot": 3631,
      "Ġya": 3632,
      "Ġforget": 3633,
      "ĠBy": 3634,
      "Ġabsolute": 3635,
      "Ġcloses": 3636,
      "gggg": 3637,
      "Ġcards": 3638,
      "onestly": 3639,
      "lier": 3640,
      "Ġintuitive": 3641,
      "annot": 3642,
      "ĠEveryone": 3643,
      "Ġconsidering": 3644,
      "Ġdisabled": 3645,
      "Ġdocument": 3646,
      "eal": 3647,
      "isting": 3648,
      "download": 3649,
      "CHAT": 3650,
      "Ġentertainment": 3651,
      "Ġdaughter": 3652,
      "Hope": 3653,
      "Ġteams": 3654,
      "Ġlearning": 3655,
      "Ġreinstalling": 3656,
      "Ġeffective": 3657,
      "ĠHighly": 3658,
      "val": 3659,
      "Ġ@": 3660,
      "Ġland": 3661,
      "Ġexpensive": 3662,
      "Ġplaylists": 3663,
      "Ġcalculator": 3664,
      "gress": 3665,
      "Ġallowing": 3666,
      "Ġclosing": 3667,
      "ivity": 3668,
      "Ġdirectly": 3669,
      "AKE": 3670,
      "CT": 3671,
      "iful": 3672,
      "Ġplan": 3673,
      "hhhh": 3674,
      "RI": 3675,
      "Ġbored": 3676,
      "ĠSc": 3677,
      "Ġchance": 3678,
      "Ġgod": 3679,
      "HeyHeyHeyHeyHeyHeyHeyHey": 3680,
      "Ġbreak": 3681,
      "person": 3682,
      "ĠID": 3683,
      "Ġarrive": 3684,
      "you": 3685,
      "Ġain": 3686,
      "Ġlibr": 3687,
      "Ġresult": 3688,
      "Ex": 3689,
      "hones": 3690,
      "Ġtruly": 3691,
      "Ġactive": 3692,
      "ĠDef": 3693,
      "50": 3694,
      "Ġdi": 3695,
      "Ġdrop": 3696,
      "Ġreleas": 3697,
      "Ġexist": 3698,
      "Ġcharged": 3699,
      "Ġoccasion": 3700,
      "Some": 3701,
      "go": 3702,
      "ĠSNAPCHAT": 3703,
      "asing": 3704,
      "ĠWho": 3705,
      "ownload": 3706,
      "Ġposs": 3707,
      "Ġselected": 3708,
      "ĠAssistant": 3709,
      "GLE": 3710,
      "Ġios": 3711,
      "Ġconfir": 3712,
      "Ġkinda": 3713,
      "Ġlevel": 3714,
      "Ġoverseas": 3715,
      "icked": 3716,
      "Ġbarely": 3717,
      "Ġfails": 3718,
      "Ġpause": 3719,
      "ĠHAVE": 3720,
      "ĠNothing": 3721,
      "Ġmad": 3722,
      "Ġscan": 3723,
      "Ġuploading": 3724,
      "Ġdrivers": 3725,
      "Å½Ã°Å¸": 3726,
      "Ġreplace": 3727,
      "Ġresolve": 3728,
      "Ġbehind": 3729,
      "rs": 3730,
      "Ġmeant": 3731,
      "ĠCont": 3732,
      "Se": 3733,
      "Ġmis": 3734,
      "Pie": 3735,
      "Ġive": 3736,
      "Ġmonit": 3737,
      "Ġlocal": 3738,
      "Ġlogo": 3739,
      "Ġhands": 3740,
      "Ġcommunicating": 3741,
      "Ġcontinu": 3742,
      "Ġtracking": 3743,
      "tttttttt": 3744,
      "Ġcomplaint": 3745,
      "Is": 3746,
      "ned": 3747,
      "Ġsaf": 3748,
      "appropriate": 3749,
      "Ġtitle": 3750,
      "OT": 3751,
      "orting": 3752,
      "Ġdev": 3753,
      "ĠWhere": 3754,
      "Ġdocuments": 3755,
      "Ġlibrary": 3756,
      "ashion": 3757,
      "loudly": 3758,
      "ĠWorst": 3759,
      "Ġdesigned": 3760,
      "Ġevents": 3761,
      "ĠVIEWS": 3762,
      "he": 3763,
      "order": 3764,
      "ÄłC": 3765,
      "Ġfee": 3766,
      "Ġcompan": 3767,
      "Ġcommunity": 3768,
      "Ġcreating": 3769,
      "Ġsurpr": 3770,
      "Ġstickers": 3771,
      "joying": 3772,
      "ĠLI": 3773,
      "ĠVR": 3774,
      "Ġagainst": 3775,
      "Ġstreak": 3776,
      "Ġfreeze": 3777,
      "Ġscann": 3778,
      "Ġoffers": 3779,
      "Ġrestar": 3780,
      "UBE": 3781,
      "Ġcompet": 3782,
      "izes": 3783,
      "ads": 3784,
      "ĠHome": 3785,
      "ĠPlus": 3786,
      "Ġinstalling": 3787,
      "Ġlanguages": 3788,
      "Ġsaw": 3789,
      "Ġtabs": 3790,
      "Ġdeveloper": 3791,
      "Ġpreviously": 3792,
      "ract": 3793,
      "uu": 3794,
      "Ġir": 3795,
      "Ġrated": 3796,
      "Ġplays": 3797,
      "ĠHas": 3798,
      "Ġclosed": 3799,
      "Ġassign": 3800,
      "Ġfolders": 3801,
      "Ġbbm": 3802,
      "ĠVER": 3803,
      "fold": 3804,
      "ĠDELET": 3805,
      "Ġpe": 3806,
      "ghts": 3807,
      "Ġmeaning": 3808,
      "Ġfacing": 3809,
      "levant": 3810,
      "Update": 3811,
      "nter": 3812,
      "Ġkill": 3813,
      "ĠDri": 3814,
      "Ġsuccess": 3815,
      "Ġclicking": 3816,
      "ibr": 3817,
      "Ġident": 3818,
      "Ġmar": 3819,
      "Ġinappropriate": 3820,
      "Ġalone": 3821,
      "Ġcontrols": 3822,
      "Ġgarbage": 3823,
      "oting": 3824,
      "ĠBetter": 3825,
      "Ġautomatic": 3826,
      "Ġ90": 3827,
      "Ġcuz": 3828,
      "--": 3829,
      "Ġmic": 3830,
      "Ġlinks": 3831,
      "open": 3832,
      "Ġbir": 3833,
      "Ġbright": 3834,
      "Ġvar": 3835,
      "ĠÃĮ": 3836,
      "Ġfollowing": 3837,
      "Ġschedu": 3838,
      "Ġopens": 3839,
      "Ġinterrup": 3840,
      "lightly": 3841,
      "Ġincredibly": 3842,
      "60": 3843,
      "Ġconsum": 3844,
      "uation": 3845,
      "Ġpie": 3846,
      "plement": 3847,
      "ĠUK": 3848,
      "Ġperio": 3849,
      "ĠWHAT": 3850,
      "Like": 3851,
      "Ġpen": 3852,
      "stru": 3853,
      "Ġmostly": 3854,
      "........": 3855,
      "Ġrequired": 3856,
      "Ġsuggested": 3857,
      "specially": 3858,
      "Ġboy": 3859,
      "Ġgmail": 3860,
      "owing": 3861,
      "etic": 3862,
      "ĠSystem": 3863,
      "Ġnewest": 3864,
      "ĠITS": 3865,
      "Ġzero": 3866,
      "Ġobviously": 3867,
      "Ġpolit": 3868,
      "got": 3869,
      "Ãª": 3870,
      "rew": 3871,
      "ĠUber": 3872,
      "ashes": 3873,
      "Ġeduc": 3874,
      "Ġoccur": 3875,
      "Ġzoomed": 3876,
      "ially": 3877,
      "kiss": 3878,
      "ĠCool": 3879,
      "Ġpract": 3880,
      "Ġicons": 3881,
      "isation": 3882,
      "Ġleaving": 3883,
      "ĠShould": 3884,
      "Ġexplain": 3885,
      "EL": 3886,
      "pro": 3887,
      "Ġthird": 3888,
      "Ġfashion": 3889,
      "iding": 3890,
      "Ġshared": 3891,
      "Ġdownloads": 3892,
      "odes": 3893,
      "Ġearth": 3894,
      "head": 3895,
      "ins": 3896,
      "Ġappro": 3897,
      "Really": 3898,
      "ĠWo": 3899,
      "ĠHate": 3900,
      "Ġdislike": 3901,
      "Ġbuilt": 3902,
      "Ġblurry": 3903,
      "com": 3904,
      "og": 3905,
      "Ġswitched": 3906,
      "Ġprior": 3907,
      "Ġbecoming": 3908,
      "ĠWhenever": 3909,
      "Ġinstantly": 3910,
      "from": 3911,
      "lim": 3912,
      "ÄłP": 3913,
      "Ġknows": 3914,
      "Ġpurchased": 3915,
      "Ġmovie": 3916,
      "Ġnegative": 3917,
      "Dia": 3918,
      "alk": 3919,
      "Ġconcer": 3920,
      "izz": 3921,
      "Ġarticles": 3922,
      "ĠPwe": 3923,
      "box": 3924,
      "Ġversions": 3925,
      "Ġglitching": 3926,
      "Ġtrend": 3927,
      "Ġprotect": 3928,
      "DiaPie": 3929,
      "ĠPweDiaPie": 3930,
      "TER": 3931,
      "male": 3932,
      "Ġwear": 3933,
      "Ġcountries": 3934,
      "Ġmarket": 3935,
      "Ġrevert": 3936,
      "Ġfinger": 3937,
      "Ġwindow": 3938,
      "Ġpot": 3939,
      "uber": 3940,
      "Ġnobody": 3941,
      "ĠiPhones": 3942,
      "Ġinit": 3943,
      "ĠTop": 3944,
      "Ġnotice": 3945,
      "ĠAr": 3946,
      "well": 3947,
      "Ġcelebr": 3948,
      "ously": 3949,
      "Ġglad": 3950,
      "atest": 3951,
      "Ġly": 3952,
      "Ġrelease": 3953,
      "ËľÂį": 3954,
      "Ġdifference": 3955,
      "Ġ2021": 3956,
      "Ġeffort": 3957,
      "ALLY": 3958,
      "aced": 3959,
      "ĠHonestly": 3960,
      "Ġunfortunately": 3961,
      "Ã¢Åĵ": 3962,
      "TUBE": 3963,
      "ste": 3964,
      "ĠEver": 3965,
      "Ġuni": 3966,
      "istent": 3967,
      "Ġgotten": 3968,
      "Ġconfused": 3969,
      "Ġmute": 3970,
      "aim": 3971,
      "Ġfurther": 3972,
      "Ġspecial": 3973,
      "Ġthumbnail": 3974,
      "SS": 3975,
      "ha": 3976,
      "uv": 3977,
      "Ã£": 3978,
      "Ġport": 3979,
      "Ġbuild": 3980,
      "Ġhardly": 3981,
      "Ġdistance": 3982,
      "ev": 3983,
      "ĠInd": 3984,
      "ĠPeople": 3985,
      "ĠHATE": 3986,
      "Ġclock": 3987,
      "Ġsoooo": 3988,
      "Ġbank": 3989,
      "Ġimplement": 3990,
      "Ġposted": 3991,
      "folded": 3992,
      "sle": 3993,
      "Ġfont": 3994,
      "ellow": 3995,
      "Ġdisplayed": 3996,
      "Ġresolved": 3997,
      "Ġmistake": 3998,
      "Ġtotal": 3999,
      "Ġcompanies": 4000,
      "Ġpeo": 4001,
      "Ġready": 4002,
      "Ġfortune": 4003,
      "ailed": 4004,
      "Ġcross": 4005,
      "Ġhacked": 4006,
      "Ġanim": 4007,
      "Ġbecomes": 4008,
      "Ġheal": 4009,
      "ĠMakes": 4010,
      "Ġreasons": 4011,
      "Ġxxx": 4012,
      "Ġuploaded": 4013,
      "Ġlags": 4014,
      "An": 4015,
      "Ġpc": 4016,
      "oody": 4017,
      "ĠCAN": 4018,
      "Ġlogging": 4019,
      "ĠSpotify": 4020,
      "Ġinstructions": 4021,
      "Ġmatch": 4022,
      "lly": 4023,
      "Ġdepend": 4024,
      "iping": 4025,
      "Ġrider": 4026,
      "ĠWHY": 4027,
      "Ġfocus": 4028,
      "olog": 4029,
      "lessly": 4030,
      "Ġbirth": 4031,
      "IG": 4032,
      "ĠBR": 4033,
      "ending": 4034,
      "ĠHaving": 4035,
      "ĠTHAT": 4036,
      "Ġuninstalling": 4037,
      "Still": 4038,
      "Doesn": 4039,
      "symbols": 4040,
      "ext": 4041,
      "ĠAL": 4042,
      "ĠGET": 4043,
      "Ġhigher": 4044,
      "undred": 4045,
      "ĠYOUR": 4046,
      "Ġpermanently": 4047,
      "Ġdig": 4048,
      "Ġalright": 4049,
      "ĠDelet": 4050,
      "Ġdirections": 4051,
      "DF": 4052,
      "Ġproject": 4053,
      "Ġprogress": 4054,
      "ĠFr": 4055,
      "Ġ16": 4056,
      "Ġcollect": 4057,
      "Ġattach": 4058,
      "Ġspeaker": 4059,
      "Ġauthent": 4060,
      "Ġruns": 4061,
      "rown": 4062,
      "watch": 4063,
      "Ġtick": 4064,
      "Ġyoung": 4065,
      "Ġstate": 4066,
      "ĠWish": 4067,
      "Ġscore": 4068,
      "Ġcrazy": 4069,
      "ĠFREE": 4070,
      "Ġterms": 4071,
      "Ġrelated": 4072,
      "Ġcharges": 4073,
      "Ġhur": 4074,
      "Ġforgot": 4075,
      "Ġenjoying": 4076,
      "Ġslack": 4077,
      "Ġfactory": 4078,
      "Ġenjoyed": 4079,
      "Ġsens": 4080,
      "Ġlists": 4081,
      "que": 4082,
      "Ġimag": 4083,
      "Ġserious": 4084,
      "ĠAlthough": 4085,
      "Ġpops": 4086,
      "ĠYOUTUBE": 4087,
      "Ġverify": 4088,
      "ĠWE": 4089,
      "Ġlives": 4090,
      "ĠFrom": 4091,
      "ĠDon": 4092,
      "Ġplaced": 4093,
      "30": 4094,
      "?!": 4095,
      "af": 4096,
      "ĠÃĳ": 4097,
      "Ġaren": 4098,
      "Ġhassle": 4099,
      "Ġsupported": 4100,
      "LO": 4101,
      "Ġresolut": 4102,
      "Ġmini": 4103,
      "Ġposts": 4104,
      "Ġpolicy": 4105,
      "Ġpeoples": 4106,
      "kk": 4107,
      "Ġsamsung": 4108,
      "ËľâĤ¬": 4109,
      "scape": 4110,
      "Ġlower": 4111,
      "arily": 4112,
      "Ġstays": 4113,
      "Ġtherefore": 4114,
      "ĠLet": 4115,
      "Ġthemselves": 4116,
      "ĠGOOGLE": 4117,
      "Ġdang": 4118,
      "Ġcolle": 4119,
      "???": 4120,
      "res": 4121,
      "Ġrese": 4122,
      "ĠMany": 4123,
      "Ġ59": 4124,
      "ĠAdver": 4125,
      "Ġvarious": 4126,
      "Edit": 4127,
      "Ġbi": 4128,
      "Ġuns": 4129,
      "Ġ25": 4130,
      "ĠUpd": 4131,
      "Ġknown": 4132,
      "nose": 4133,
      "Ġrestore": 4134,
      "ĠDefinitely": 4135,
      "ĠGot": 4136,
      "ĠTeams": 4137,
      "ĠRecently": 4138,
      "ĠGive": 4139,
      "ĠPDF": 4140,
      "Ġstopping": 4141,
      "Ġslide": 4142,
      "Ġbasis": 4143,
      "Ġdetect": 4144,
      "Ġepisodes": 4145,
      "Ġaction": 4146,
      "lex": 4147,
      "ism": 4148,
      "Ġrarely": 4149,
      "Ġoutside": 4150,
      "Ġcrashed": 4151,
      "Ġoffered": 4152,
      "ret": 4153,
      "Ġrebo": 4154,
      "ĠSlack": 4155,
      "Ġwasn": 4156,
      "ording": 4157,
      "weet": 4158,
      "Ġcomplaining": 4159,
      "Ġtechno": 4160,
      "Ġquestions": 4161,
      "Ok": 4162,
      "fair": 4163,
      "Ġwide": 4164,
      "Ġthats": 4165,
      "Ġafford": 4166,
      "Ġapparently": 4167,
      "Ġdog": 4168,
      "Ġremoving": 4169,
      "Ġheadphones": 4170,
      "ITH": 4171,
      ".\"": 4172,
      "Ġcatch": 4173,
      "Ġoptim": 4174,
      "Ġcontacted": 4175,
      "steam": 4176,
      "ket": 4177,
      "ination": 4178,
      "unk": 4179,
      "Ġ40": 4180,
      "Ġtypes": 4181,
      "Ġcosts": 4182,
      "With": 4183,
      "Ġbag": 4184,
      "Ġloose": 4185,
      "beaming": 4186,
      "Otherwise": 4187,
      "Ġwarning": 4188,
      "Ġpack": 4189,
      "Ġshocking": 4190,
      "ĠBit": 4191,
      "Ġra": 4192,
      "ĠMake": 4193,
      "ËľâĢļ": 4194,
      "Ġinstagram": 4195,
      "orrend": 4196,
      "Ġsigned": 4197,
      "APP": 4198,
      "ÃĲÂµÃĲ": 4199,
      "Ġattempt": 4200,
      "Ġtreat": 4201,
      "Ġnecessary": 4202,
      "essional": 4203,
      "lowing": 4204,
      "Ġperformance": 4205,
      "ĠBBM": 4206,
      "Ġdumb": 4207,
      "ĠDownload": 4208,
      "Ġsetup": 4209,
      "Ġquicker": 4210,
      "Ġcharac": 4211,
      "ORE": 4212,
      "USER": 4213,
      "Ġaffect": 4214,
      "Im": 4215,
      "Ġsal": 4216,
      "Ġcast": 4217,
      "Ġwouldn": 4218,
      "CE": 4219,
      "ÄłM": 4220,
      "Ġlovely": 4221,
      "Ġleg": 4222,
      "ENT": 4223,
      "ĠSTOP": 4224,
      "Ġintegration": 4225,
      "iday": 4226,
      "ĠMore": 4227,
      "Ġregister": 4228,
      "Ġrespons": 4229,
      "Ġrob": 4230,
      "Ġhealth": 4231,
      "ĠEn": 4232,
      "Ġcloud": 4233,
      "Ġemot": 4234,
      "Ġbitmoji": 4235,
      "Ġbeautiful": 4236,
      "Ġhoping": 4237,
      "NT": 4238,
      "gor": 4239,
      "Ġangry": 4240,
      "ÄłD": 4241,
      "Äłh": 4242,
      "Ġplayed": 4243,
      "Ġarch": 4244,
      "Ġentertaining": 4245,
      "ĠMessages": 4246,
      "Ġbenef": 4247,
      "Ġperiod": 4248,
      "Use": 4249,
      "ta": 4250,
      "Ã¥": 4251,
      "Ġhack": 4252,
      "ĠCustom": 4253,
      "Ġearlier": 4254,
      "Ġfro": 4255,
      "Ġdead": 4256,
      "Ġaccessible": 4257,
      "Ġbrowsing": 4258,
      "icrophone": 4259,
      "Sh": 4260,
      "icator": 4261,
      "usive": 4262,
      "ĠBlack": 4263,
      "ĠPhotos": 4264,
      "Ġpull": 4265,
      "Ġlab": 4266,
      "Ġnotify": 4267,
      "ÄłB": 4268,
      "Ġprovided": 4269,
      "limited": 4270,
      "Ġresolution": 4271,
      "orrendous": 4272,
      "iber": 4273,
      "yal": 4274,
      "Ġequ": 4275,
      "Ġupon": 4276,
      "ilities": 4277,
      "ĠFast": 4278,
      "Ġbiggest": 4279,
      "Ġrequires": 4280,
      "orry": 4281,
      "Ġdial": 4282,
      "ars": 4283,
      "amp": 4284,
      "Ġ17": 4285,
      "Ġdisappears": 4286,
      "encing": 4287,
      "At": 4288,
      "ĠIOS": 4289,
      "iction": 4290,
      "Ġsho": 4291,
      "ngth": 4292,
      "Ġmillions": 4293,
      "Ġincrease": 4294,
      "Have": 4295,
      "pts": 4296,
      "inc": 4297,
      "ËľÂŃ": 4298,
      "ĠPretty": 4299,
      "Ġsource": 4300,
      "Ġscreenshot": 4301,
      "gorith": 4302,
      "now": 4303,
      "izing": 4304,
      "onnect": 4305,
      "Ġdoub": 4306,
      "edy": 4307,
      "ĠSH": 4308,
      "ĠWAS": 4309,
      "Ġ19": 4310,
      "ĠDid": 4311,
      "ĠBefore": 4312,
      "Ġtranslation": 4313,
      "Ġdescription": 4314,
      "EED": 4315,
      "Ġsites": 4316,
      "Ġmeth": 4317,
      "Needs": 4318,
      "Ġrot": 4319,
      "ĠOK": 4320,
      "ĠOR": 4321,
      "Ġaware": 4322,
      "ĠVERY": 4323,
      "UI": 4324,
      "Ġtxt": 4325,
      "Ġwats": 4326,
      "Ġpath": 4327,
      "Ġcleared": 4328,
      "Ġsto": 4329,
      "ĠWITH": 4330,
      "rought": 4331,
      "Ġcommon": 4332,
      "Ġemb": 4333,
      "Ġfrustrated": 4334,
      "Ġchecking": 4335,
      "Ġ;)": 4336,
      "Ġcauses": 4337,
      "arrass": 4338,
      "Ġinconvenient": 4339,
      "cat": 4340,
      "Ġmag": 4341,
      "ĠARE": 4342,
      "Ġsomehow": 4343,
      "Ġgenerally": 4344,
      "Ġmethod": 4345,
      "erg": 4346,
      "Ġclaim": 4347,
      "Ġcrit": 4348,
      "ĠChe": 4349,
      "Ġverification": 4350,
      "Ġcolours": 4351,
      "Ġcancelled": 4352,
      "Ġreleased": 4353,
      "rist": 4354,
      "ËľÂģ": 4355,
      "Ġrude": 4356,
      "Ġideas": 4357,
      "uss": 4358,
      "ÄłF": 4359,
      "Äłg": 4360,
      "ESS": 4361,
      "END": 4362,
      "Ġpreferred": 4363,
      "Ġsizes": 4364,
      "Ġbunch": 4365,
      "Ġglo": 4366,
      "Ġyt": 4367,
      "Ġstress": 4368,
      "ids": 4369,
      "ĠGO": 4370,
      "ĠPls": 4371,
      "OOOO": 4372,
      "ĠAwful": 4373,
      "Ġlandscape": 4374,
      "Ġthous": 4375,
      "Ġlaugh": 4376,
      "Ġmessy": 4377,
      "Ġbye": 4378,
      "EVER": 4379,
      "Ġmum": 4380,
      "ĠFe": 4381,
      "Ġclips": 4382,
      "ĠANY": 4383,
      "Keep": 4384,
      "Ġair": 4385,
      "atives": 4386,
      "icture": 4387,
      "ĠWow": 4388,
      "Ġsyn": 4389,
      "OULD": 4390,
      "ĠAuto": 4391,
      "Ġdeserve": 4392,
      "15": 4393,
      "Since": 4394,
      "ÃĽ": 4395,
      "Ġther": 4396,
      "ooking": 4397,
      "ĠApart": 4398,
      "Ġalert": 4399,
      "Ġlacks": 4400,
      "UL": 4401,
      "bh": 4402,
      "miss": 4403,
      "vir": 4404,
      "Ġten": 4405,
      "ĠSky": 4406,
      "Ġmeal": 4407,
      "ĠGod": 4408,
      "Ġpopping": 4409,
      "Ġlimits": 4410,
      "Ġdamn": 4411,
      "Ġconfirm": 4412,
      "bit": 4413,
      "Ġpers": 4414,
      "anted": 4415,
      "ĠFood": 4416,
      "Ġwrit": 4417,
      "Ġbasket": 4418,
      "Ġfake": 4419,
      "Ġbusy": 4420,
      "Ġenabled": 4421,
      "Ġcensor": 4422,
      "Ġsile": 4423,
      "enced": 4424,
      "orean": 4425,
      "Ġalgorith": 4426,
      "Ġeverywhere": 4427,
      "Ġserver": 4428,
      "aby": 4429,
      "ĠNote": 4430,
      "Ġdecide": 4431,
      "Ġwaited": 4432,
      "Ġactivity": 4433,
      "suit": 4434,
      "Ġschedule": 4435,
      "Pre": 4436,
      "Ġrely": 4437,
      "Ġbelow": 4438,
      "utter": 4439,
      "rier": 4440,
      "earch": 4441,
      "ĠUs": 4442,
      "ledge": 4443,
      "ERE": 4444,
      "ĠDelivery": 4445,
      "Ġbanned": 4446,
      "Ġrestarting": 4447,
      "Any": 4448,
      "Overall": 4449,
      "fl": 4450,
      "ob": 4451,
      "ugg": 4452,
      "Ġos": 4453,
      "Ġasks": 4454,
      "ĠApps": 4455,
      "omething": 4456,
      "Ġknowing": 4457,
      "ĠRubbish": 4458,
      "Ġic": 4459,
      "Ġmid": 4460,
      "Ġcos": 4461,
      "ĠTried": 4462,
      "illy": 4463,
      "Ġhol": 4464,
      "Ġhi": 4465,
      "Ġ18": 4466,
      "Ġsomewhere": 4467,
      "Ġunh": 4468,
      "Ġunlimited": 4469,
      "Ġbluetooth": 4470,
      "Ġselfie": 4471,
      "Ġcausing": 4472,
      "nn": 4473,
      "rd": 4474,
      "Ġmot": 4475,
      "Ġbur": 4476,
      "Ġmessaged": 4477,
      "Ġcontacting": 4478,
      "istr": 4479,
      "graph": 4480,
      "Ġbrings": 4481,
      "Ġlagging": 4482,
      "Ġappreciated": 4483,
      "Ġembarrass": 4484,
      "ĠDes": 4485,
      "Ġspot": 4486,
      "Ġsubject": 4487,
      "Ġlocations": 4488,
      "Ġrestarted": 4489,
      "Ġreminders": 4490,
      "Ġment": 4491,
      "Ġvr": 4492,
      "ules": 4493,
      "unity": 4494,
      "ĠMaybe": 4495,
      "Â¤Â¬": 4496,
      "OME": 4497,
      "Ġinternational": 4498,
      "onts": 4499,
      "Ġdro": 4500,
      "Ġul": 4501,
      "Ġdoor": 4502,
      "Ġbloody": 4503,
      "asses": 4504,
      "Ġparts": 4505,
      "ĠPrem": 4506,
      "iest": 4507,
      "plo": 4508,
      "Ġant": 4509,
      "Ġflash": 4510,
      "Ġexpress": 4511,
      "Ġcaused": 4512,
      "ĠConstant": 4513,
      "Ġhorrendous": 4514,
      "ances": 4515,
      "Ġsimpl": 4516,
      "ĠJan": 4517,
      "ĠJUST": 4518,
      "ĠNotification": 4519,
      "UP": 4520,
      "WN": 4521,
      "here": 4522,
      "mas": 4523,
      "Ġmicrophone": 4524,
      "oted": 4525,
      "ĠBrill": 4526,
      "Ġunlike": 4527,
      "Ġprevent": 4528,
      "Ġcoll": 4529,
      "Ġbigger": 4530,
      "ÅĴÃ°Å¸": 4531,
      "Ġbrought": 4532,
      "Ġincluded": 4533,
      "ding": 4534,
      "Ġach": 4535,
      "ĠWon": 4536,
      "ÄłA": 4537,
      "Ġputs": 4538,
      "Ġconfig": 4539,
      "Ġ60": 4540,
      "idden": 4541,
      "!!!!!!!!": 4542,
      "Ġtechnology": 4543,
      "Ġban": 4544,
      "ĠTot": 4545,
      "Ġvibr": 4546,
      "ĠHe": 4547,
      "indly": 4548,
      "Ġ200": 4549,
      "Fix": 4550,
      "Ġ:/": 4551,
      "ĠBr": 4552,
      "urrent": 4553,
      "ĠCo": 4554,
      "Ġ360": 4555,
      "ieve": 4556,
      "Ġswiping": 4557,
      "Ġsituation": 4558,
      "Ġessential": 4559,
      "Ġbrow": 4560,
      "Ġsatisfied": 4561,
      "ĠGPS": 4562,
      "Ġtones": 4563,
      "omp": 4564,
      "Ġbey": 4565,
      "ĠPL": 4566,
      "ĠLit": 4567,
      "Ġwake": 4568,
      "Ġalarms": 4569,
      "ĠDrive": 4570,
      "Ġtired": 4571,
      "ÄłT": 4572,
      "ĠONE": 4573,
      "sparkles": 4574,
      "aces": 4575,
      "Ġstaff": 4576,
      "Ġloyal": 4577,
      "ĠBEST": 4578,
      "ĠNEED": 4579,
      "ĠMuch": 4580,
      "aste": 4581,
      "Ġsuit": 4582,
      "Ġclicked": 4583,
      "Ġprovides": 4584,
      "Ġresponding": 4585,
      "Ġbrowse": 4586,
      "Ġchoices": 4587,
      "Ġmonthly": 4588,
      "Ġlockdown": 4589,
      "Ġbeyond": 4590,
      "ators": 4591,
      "ĠGr": 4592,
      "ĠNet": 4593,
      "Ġexit": 4594,
      "Ġunb": 4595,
      "apped": 4596,
      "Ġcoz": 4597,
      "ĠXS": 4598,
      "ĠPoor": 4599,
      "haps": 4600,
      "ÃŃ": 4601,
      "Ġwife": 4602,
      "alf": 4603,
      "indi": 4604,
      "noying": 4605,
      "Ġratings": 4606,
      "ĠOkay": 4607,
      "vol": 4608,
      "Ġund": 4609,
      "omen": 4610,
      "ĠAT": 4611,
      "amation": 4612,
      "ĠLatest": 4613,
      "Ġbuffer": 4614,
      "Ġended": 4615,
      "Ġclearing": 4616,
      "Ġswear": 4617,
      "Ġvisible": 4618,
      "Ġrepeated": 4619,
      "inally": 4620,
      "Ġhundred": 4621,
      "Ġshowed": 4622,
      "Ġincorrect": 4623,
      "Ġapplications": 4624,
      "âĢ¡Â®": 4625,
      "Ġboard": 4626,
      "Ġpleased": 4627,
      "Ġdoubt": 4628,
      "Will": 4629,
      "Ġsell": 4630,
      "ures": 4631,
      "Ġbecame": 4632,
      "Ġease": 4633,
      "Ġhelping": 4634,
      "cond": 4635,
      "Ġ2018": 4636,
      "Ġtravel": 4637,
      "viron": 4638,
      "12": 4639,
      "Su": 4640,
      "ĠEspecially": 4641,
      "Ġminor": 4642,
      "lenty": 4643,
      "Ġconcept": 4644,
      "Ġhasn": 4645,
      "Plus": 4646,
      "Ġopport": 4647,
      "bl": 4648,
      "fli": 4649,
      "edom": 4650,
      "Ġrad": 4651,
      "Ġfunctional": 4652,
      "ĠÃ®ÅĴ": 4653,
      "Ã¦": 4654,
      "Ġfonts": 4655,
      "Ġloving": 4656,
      "Ġaswell": 4657,
      "ĠCannot": 4658,
      "Ġknew": 4659,
      "clamation": 4660,
      "ĠSkype": 4661,
      "Could": 4662,
      "Ġadvice": 4663,
      "Ġoffic": 4664,
      "Ġsometime": 4665,
      "Ġutter": 4666,
      "Ġvirt": 4667,
      "ĠOrdered": 4668,
      "Ġdangerous": 4669,
      "HH": 4670,
      "Ġpan": 4671,
      "ĠAds": 4672,
      "ĠDONT": 4673,
      "Ġviewer": 4674,
      "Ġinteract": 4675,
      "Ġinside": 4676,
      "frown": 4677,
      "ony": 4678,
      "Ġpor": 4679,
      "Ġupgraded": 4680,
      "aaaa": 4681,
      "code": 4682,
      "eric": 4683,
      "Ġfu": 4684,
      "aging": 4685,
      "ĠWear": 4686,
      "Ġmaint": 4687,
      "ĠOUR": 4688,
      "Ġadvertisements": 4689,
      "frowning": 4690,
      "bing": 4691,
      "ww": 4692,
      "Ġhidden": 4693,
      "ended": 4694,
      "Ġsnapchats": 4695,
      "Ġenviron": 4696,
      "ĠWorth": 4697,
      "Ġcheckout": 4698,
      "Ġtechn": 4699,
      "Ġreported": 4700,
      "Ġeventually": 4701,
      ",,": 4702,
      "Ġgh": 4703,
      "store": 4704,
      "ĠGu": 4705,
      "Ġliving": 4706,
      "Ġrecover": 4707,
      "ĠUser": 4708,
      "abling": 4709,
      "Ġspeaking": 4710,
      "Ġexperienced": 4711,
      "Ġgraph": 4712,
      "Ġidi": 4713,
      "cross": 4714,
      "land": 4715,
      "Ġchose": 4716,
      "Äłw": 4717,
      "ĠOUT": 4718,
      "appointed": 4719,
      "ĠGIVE": 4720,
      "Ġcircle": 4721,
      "port": 4722,
      "Ġticks": 4723,
      "Ġbod": 4724,
      "icted": 4725,
      "ĠNEW": 4726,
      "Ġdirection": 4727,
      "Ġspending": 4728,
      "struck": 4729,
      "Ġsilly": 4730,
      "Ġna": 4731,
      "Ġcomple": 4732,
      "Ġeverybody": 4733,
      "Easy": 4734,
      "ĠAW": 4735,
      "Ġtools": 4736,
      "Ġrecommendations": 4737,
      "Ġsubscribed": 4738,
      "Ġprompt": 4739,
      "Ġstudent": 4740,
      "Ġestim": 4741,
      "flix": 4742,
      "Was": 4743,
      "Ġforcing": 4744,
      "key": 4745,
      "Ġjump": 4746,
      "ception": 4747,
      "Äłin": 4748,
      "Ġletters": 4749,
      "ĠOnce": 4750,
      "rait": 4751,
      "Ġsubt": 4752,
      "exclamation": 4753,
      "Ġstrong": 4754,
      "Ġmanaged": 4755,
      "FFFFFFFFFFFFFFFF": 4756,
      "Ġsuspend": 4757,
      "Ġsum": 4758,
      "ĠPhone": 4759,
      "Ã¢Ä¢": 4760,
      "ceptable": 4761,
      "Ġpaste": 4762,
      "Ġclasses": 4763,
      "cy": 4764,
      "kn": 4765,
      "Ġnum": 4766,
      "Ġnoise": 4767,
      "azon": 4768,
      "Ġexperiencing": 4769,
      "ĠWORK": 4770,
      "AK": 4771,
      "De": 4772,
      "vid": 4773,
      "Ġrecorded": 4774,
      "ÅłÃ°Å¸": 4775,
      "Ġgifs": 4776,
      "Ġwritten": 4777,
      "dark": 4778,
      "Ġsister": 4779,
      "Ġbroad": 4780,
      "Ġscreens": 4781,
      "Ġerrors": 4782,
      "Ġpremier": 4783,
      "Ġshortcut": 4784,
      "ĠSeriously": 4785,
      "Ġthumbnails": 4786,
      "Ġeats": 4787,
      "uth": 4788,
      "ants": 4789,
      "ĠDark": 4790,
      "Ġdeletes": 4791,
      "ĠAnother": 4792,
      "inese": 4793,
      "ĠSimply": 4794,
      "Ġcelebrities": 4795,
      "zen": 4796,
      "Ġgreen": 4797,
      "Ġnotified": 4798,
      "Ġconv": 4799,
      "illed": 4800,
      "ĠÃ¯": 4801,
      "Ġdem": 4802,
      "Ġreplies": 4803,
      "Ġstyles": 4804,
      "Ġwalk": 4805,
      "Ġodd": 4806,
      "ift": 4807,
      "ĠOLD": 4808,
      "Ġhopefully": 4809,
      "Ġhearing": 4810,
      "Ġsyncing": 4811,
      "Ġstudents": 4812,
      "ĠRecommend": 4813,
      "Ġlines": 4814,
      "ute": 4815,
      "Ġanaly": 4816,
      "Ġvouch": 4817,
      "ÄłH": 4818,
      "Ġkick": 4819,
      "ĠChrist": 4820,
      "Ġruining": 4821,
      "ĠUnable": 4822,
      "Ġsmartphone": 4823,
      "actions": 4824,
      "Ġpermissions": 4825,
      "ĠAdverts": 4826,
      "Maybe": 4827,
      "Ġtowards": 4828,
      "pport": 4829,
      "ĠOh": 4830,
      "ĠEar": 4831,
      "Ġclip": 4832,
      "Ġrespect": 4833,
      "Ġearly": 4834,
      "Ġstaying": 4835,
      "Ġcontinues": 4836,
      "ma": 4837,
      "mare": 4838,
      "Ġtut": 4839,
      "orial": 4840,
      "unky": 4841,
      "ĠWhich": 4842,
      "Ġdidnt": 4843,
      "Ġsubscriptions": 4844,
      "Ġhuman": 4845,
      "\",": 4846,
      "gain": 4847,
      "acc": 4848,
      "acceptable": 4849,
      "Ġchron": 4850,
      "Ġdrag": 4851,
      "Ġ2019": 4852,
      "Ġeye": 4853,
      "EEEEEEEE": 4854,
      "Well": 4855,
      "band": 4856,
      "Ġthinks": 4857,
      "Ġsqu": 4858,
      "room": 4859,
      "ĠCle": 4860,
      "ĠLast": 4861,
      "Ġconnects": 4862,
      "Ġguy": 4863,
      "Ġposting": 4864,
      "ahah": 4865,
      "Ġsolved": 4866,
      "Ġblocking": 4867,
      "Everything": 4868,
      "AV": 4869,
      "Ġ>": 4870,
      "Ġill": 4871,
      "orrible": 4872,
      "Ġusual": 4873,
      "Ġquit": 4874,
      "Ġreplaced": 4875,
      "Ġimagine": 4876,
      "Add": 4877,
      "Most": 4878,
      "ĠAcc": 4879,
      "Ġunread": 4880,
      "ĠRem": 4881,
      "ÂĿâĢĺ": 4882,
      "Ġprofessional": 4883,
      "Ġadditional": 4884,
      "ode": 4885,
      "vv": 4886,
      "Ġdat": 4887,
      "Ġcompleted": 4888,
      "Ġdelayed": 4889,
      "Ġunreliable": 4890,
      "Am": 4891,
      "creen": 4892,
      "Ġpiss": 4893,
      "verage": 4894,
      "ĠFun": 4895,
      "Ġtele": 4896,
      "ERS": 4897,
      "Ġartists": 4898,
      "Ġpurchases": 4899,
      "Ġreminder": 4900,
      "Ġcorner": 4901,
      "Ġenvironment": 4902,
      "big": 4903,
      "Ġ[": 4904,
      "Ġmiles": 4905,
      "Ġreopen": 4906,
      "ĠSE": 4907,
      "Ġshuff": 4908,
      "Ġbacked": 4909,
      "Ġmoder": 4910,
      "Ġscrew": 4911,
      "ables": 4912,
      "Ġfavourites": 4913,
      "Ġfaces": 4914,
      "Ġobject": 4915,
      "fortable": 4916,
      "ĠTeam": 4917,
      "iiii": 4918,
      "Ġintroduced": 4919,
      "Ġmixed": 4920,
      "esides": 4921,
      "ĠGen": 4922,
      "ĠFo": 4923,
      "Ġscam": 4924,
      "ĠYouTubers": 4925,
      "Ġbrother": 4926,
      "Ġignore": 4927,
      "Ġoccasionally": 4928,
      "ĠCustomer": 4929,
      "Tried": 4930,
      "eld": 4931,
      "Ġcat": 4932,
      "ushing": 4933,
      "Ġdiss": 4934,
      "grade": 4935,
      "âĦ¢âĢļ": 4936,
      "Ġfreedom": 4937,
      "Ġbugging": 4938,
      "Ġbirthday": 4939,
      "AA": 4940,
      "IL": 4941,
      "Ġmouse": 4942,
      "acing": 4943,
      "Ġshot": 4944,
      "Ġconver": 4945,
      "Ġcomb": 4946,
      "ished": 4947,
      "Ġslowly": 4948,
      "ĠXR": 4949,
      "Ġmajority": 4950,
      "Ġbody": 4951,
      "ÃĹ": 4952,
      "Ġpizz": 4953,
      "etting": 4954,
      "Ġheadset": 4955,
      "Ġfacebook": 4956,
      "Ġenglish": 4957,
      "IP": 4958,
      "Ġdad": 4959,
      "asks": 4960,
      "eless": 4961,
      "Ġbull": 4962,
      "Ġarr": 4963,
      "ĠShe": 4964,
      "Ġfacility": 4965,
      "Ġsorting": 4966,
      "Ġpotential": 4967,
      "bb": 4968,
      "erm": 4969,
      "omb": 4970,
      "Ġstable": 4971,
      "Ġexisting": 4972,
      "Ġlocks": 4973,
      "Ġenjoyable": 4974,
      "Ġrepeat": 4975,
      "Ġencry": 4976,
      "Ġirre": 4977,
      "Ġpiece": 4978,
      "Ġopportunity": 4979,
      "uy": 4980,
      "Ġwire": 4981,
      "Ġapply": 4982,
      "Ġanytime": 4983,
      "Äłun": 4984,
      "Ġyoutubers": 4985,
      "Ġdistur": 4986,
      "Ġrestricted": 4987,
      "two": 4988,
      "Seems": 4989,
      "come": 4990,
      "Ġtend": 4991,
      "Ġappalling": 4992,
      "Ġmessing": 4993,
      "ĠMax": 4994,
      "ained": 4995,
      "ongue": 4996,
      "ĠUN": 4997,
      "Ġknowledge": 4998,
      "Ġpair": 4999,
      "ĠDoesn": 5000,
      "ĠSuperb": 5001,
      "Ġstrange": 5002,
      "ĠUpdated": 5003,
      "date": 5004,
      "uo": 5005,
      "Ġmer": 5006,
      "Ġhates": 5007,
      "rie": 5008,
      "soever": 5009,
      "venience": 5010,
      "Ġsomebody": 5011,
      "Ġ1000": 5012,
      "ĠTHAN": 5013,
      "Ġsubscribers": 5014,
      "ĠDOWN": 5015,
      "Ġsmoothly": 5016,
      "AIN": 5017,
      "RO": 5018,
      "Ġ=": 5019,
      "Ġtar": 5020,
      "ĠTIM": 5021,
      "ĠTCS": 5022,
      "Ġphys": 5023,
      "Ġwhatsoever": 5024,
      "Ġtroub": 5025,
      "Ġreconnect": 5026,
      "cont": 5027,
      "Ġdecision": 5028,
      "Ġincredible": 5029,
      "press": 5030,
      "Ġplenty": 5031,
      "ises": 5032,
      "ÄłL": 5033,
      "ĠUsing": 5034,
      "Ġpressing": 5035,
      "Ġidk": 5036,
      "IDE": 5037,
      "Ġmodel": 5038,
      "Ġauthor": 5039,
      "Ġregarding": 5040,
      "Ġembarrassing": 5041,
      "Wish": 5042,
      "mar": 5043,
      "pad": 5044,
      "Ġaap": 5045,
      "Ġgalaxy": 5046,
      "arry": 5047,
      "ÄłG": 5048,
      "ĠOut": 5049,
      "Ġprint": 5050,
      "Ġrealise": 5051,
      "phab": 5052,
      "ODE": 5053,
      "Ġpossibly": 5054,
      "Ġpenny": 5055,
      "Ġthousands": 5056,
      "Ġahead": 5057,
      "atic": 5058,
      "arant": 5059,
      "Ġrow": 5060,
      "ĠMS": 5061,
      "ĠEdit": 5062,
      "Ġgrate": 5063,
      "Ġexpand": 5064,
      "Ġfollowed": 5065,
      "Ġdocs": 5066,
      "Ġgirl": 5067,
      "Ġqueue": 5068,
      "Ġpolitical": 5069,
      "anced": 5070,
      "ĠÃ¡": 5071,
      "ĠCome": 5072,
      "Ġunfair": 5073,
      "grace": 5074,
      "Ġtrial": 5075,
      "ĠTHEY": 5076,
      "ushed": 5077,
      "Ġexplan": 5078,
      "Ġshuts": 5079,
      "Ġposition": 5080,
      "Ġchronolog": 5081,
      "mer": 5082,
      "uine": 5083,
      "Ġbal": 5084,
      "Ġye": 5085,
      "Ġpersons": 5086,
      "Ġimproving": 5087,
      "Nothing": 5088,
      "Ġengine": 5089,
      "winking": 5090,
      "icken": 5091,
      "Ġsms": 5092,
      "Ġcolors": 5093,
      "what": 5094,
      "USE": 5095,
      "Ġoccasions": 5096,
      "Ġcheaper": 5097,
      "ĠSeems": 5098,
      "Or": 5099,
      "ai": 5100,
      "dated": 5101,
      "Ġrect": 5102,
      "this": 5103,
      "ĠÃį": 5104,
      "Ġrules": 5105,
      "Ġfield": 5106,
      "ĠCant": 5107,
      "ĠUp": 5108,
      "ĠPlz": 5109,
      "Ġgrand": 5110,
      "Ġnightmare": 5111,
      "clapping": 5112,
      "Used": 5113,
      "ged": 5114,
      "pal": 5115,
      "Ġ_": 5116,
      "Ġseam": 5117,
      "Ġwanting": 5118,
      "Ġwebsites": 5119,
      "Ġmeetings": 5120,
      "ĠUseful": 5121,
      "ĠAnnoying": 5122,
      "Ġmanager": 5123,
      "Ġtutorial": 5124,
      "ipp": 5125,
      "nce": 5126,
      "Ġton": 5127,
      "Ġfill": 5128,
      "ĠTouch": 5129,
      "ĠPH": 5130,
      "ĠMust": 5131,
      "activ": 5132,
      "ference": 5133,
      "Ġconsist": 5134,
      "Ġnetwor": 5135,
      "Ġwondering": 5136,
      "Best": 5137,
      "mi": 5138,
      "Ġcy": 5139,
      "asting": 5140,
      "Ġredownload": 5141,
      "ĠCO": 5142,
      "Ġattention": 5143,
      "Ġvisual": 5144,
      "Ġdestro": 5145,
      "Ġmonitor": 5146,
      "Ġsurprised": 5147,
      "ĠSD": 5148,
      "amily": 5149,
      "loor": 5150,
      "Ġamong": 5151,
      "ĠLots": 5152,
      "derful": 5153,
      "Ġviewed": 5154,
      "Ġcommand": 5155,
      "ĠKorean": 5156,
      "Ġlocate": 5157,
      "ORT": 5158,
      "ĠShame": 5159,
      "Ġmsgs": 5160,
      "ĠTime": 5161,
      "ĠHang": 5162,
      "Ġ45": 5163,
      "Ġspread": 5164,
      "Ġdisappoint": 5165,
      "Ġruins": 5166,
      "Ġsmaller": 5167,
      "Ġmanagement": 5168,
      "CC": 5169,
      "UN": 5170,
      "Ġbrill": 5171,
      "Ġdemon": 5172,
      "ifying": 5173,
      "ARK": 5174,
      "Ġgrey": 5175,
      "ÃĻÅłÃĺ": 5176,
      "Ġteachers": 5177,
      "ĠNetflix": 5178,
      "lar": 5179,
      "Ġ^": 5180,
      "Ġtbh": 5181,
      "Ġfall": 5182,
      "ĠPicture": 5183,
      "Ġclient": 5184,
      "Ã¡Å¾": 5185,
      "ÆĴÃ°Å¸": 5186,
      "Ġsales": 5187,
      "bal": 5188,
      "Ġmi": 5189,
      "Ġfed": 5190,
      "Ġisnt": 5191,
      "Ġneither": 5192,
      "ĠSaves": 5193,
      "ĠWANT": 5194,
      "Ġshoes": 5195,
      "ĠBas": 5196,
      "Äłst": 5197,
      "Ġtraff": 5198,
      "Ġstored": 5199,
      "Ġunique": 5200,
      "Ġchronological": 5201,
      "lay": 5202,
      "tics": 5203,
      "tongue": 5204,
      "Ġaf": 5205,
      "Ġworry": 5206,
      "ĠYeah": 5207,
      "Ġwhoever": 5208,
      "Ġrecognition": 5209,
      "Ġparticularly": 5210,
      "Ġcensorship": 5211,
      "ĠTotally": 5212,
      "nger": 5213,
      "Ġ<": 5214,
      "Ġfal": 5215,
      "Ġom": 5216,
      "Ġaler": 5217,
      "Ġanybody": 5218,
      "Ġshouldn": 5219,
      "Ġclunky": 5220,
      "Ġsearched": 5221,
      "screen": 5222,
      "atur": 5223,
      "ĠIF": 5224,
      "ĠTR": 5225,
      "ĠWay": 5226,
      "elt": 5227,
      "Ġtimeline": 5228,
      "ĠEX": 5229,
      "Ġaddicted": 5230,
      "ËľâĢĻ": 5231,
      "Ġlength": 5232,
      "Ġfamous": 5233,
      "Ġexplore": 5234,
      "Ġdisappearing": 5235,
      "ĠCrashes": 5236,
      "ĠLIKE": 5237,
      "ĠPremium": 5238,
      "Do": 5239,
      "list": 5240,
      "Ġunt": 5241,
      "ĠGroup": 5242,
      "Ġchal": 5243,
      "ags": 5244,
      "Ġoffice": 5245,
      "Â¤âĢ¢": 5246,
      "Ġincoming": 5247,
      "Ġslower": 5248,
      "ÂģâĢĶ": 5249,
      "Ġsuperb": 5250,
      "Ġfrequent": 5251,
      "Ġepisode": 5252,
      "sparkling": 5253,
      "Ġstolen": 5254,
      "Ġfly": 5255,
      "Ġvio": 5256,
      "locked": 5257,
      "plays": 5258,
      "Ġclutter": 5259,
      "Ġlinked": 5260,
      "Ġipod": 5261,
      "ĠIPhone": 5262,
      "ÃĻËĨÃĺ": 5263,
      "Ġnumerous": 5264,
      "UCH": 5265,
      "cise": 5266,
      "overy": 5267,
      "off": 5268,
      "Ġtapping": 5269,
      "ĠId": 5270,
      "Ġnons": 5271,
      "ening": 5272,
      "Ġloud": 5273,
      "ĠTube": 5274,
      "Ġaccording": 5275,
      "ailable": 5276,
      "OUS": 5277,
      "Ġends": 5278,
      "Ġhighlight": 5279,
      "Ġselecting": 5280,
      "Ġpromot": 5281,
      "ĠUSE": 5282,
      "Ġarticle": 5283,
      "Ġsooo": 5284,
      "Ġtraffic": 5285,
      "hip": 5286,
      "ok": 5287,
      "Ġdie": 5288,
      "ĠSorry": 5289,
      "Ġunacceptable": 5290,
      "ssss": 5291,
      "ĠLiterally": 5292,
      "Ġsuspended": 5293,
      "ball": 5294,
      "Ġpap": 5295,
      "Ġkicks": 5296,
      "Ġunw": 5297,
      "avi": 5298,
      "ictive": 5299,
      "Ġduplic": 5300,
      "orn": 5301,
      "Ġhun": 5302,
      "Ġyounger": 5303,
      "Ġalphab": 5304,
      "ubscri": 5305,
      "Ġlens": 5306,
      "Ġdeliveries": 5307,
      "ĠChromecast": 5308,
      "Ġinvest": 5309,
      "Ġfabulous": 5310,
      "Ġmuted": 5311,
      "Because": 5312,
      "Ġportrait": 5313,
      "Ġpathetic": 5314,
      "hic": 5315,
      "tr": 5316,
      "erv": 5317,
      "Ġgest": 5318,
      "Ġinvent": 5319,
      "ĠHappy": 5320,
      "Ġseries": 5321,
      "Ġthroughout": 5322,
      "ÃĻÆĴ": 5323,
      "ĠUseless": 5324,
      "ĠLoving": 5325,
      "ÃĲÂµÃĳ": 5326,
      "ĠVideos": 5327,
      "Ġirrelevant": 5328,
      "page": 5329,
      "uri": 5330,
      "wear": 5331,
      "Ġwi": 5332,
      "Ġground": 5333,
      "ĠAre": 5334,
      "Ġloves": 5335,
      "Ġplann": 5336,
      "ĠCall": 5337,
      "ĠFit": 5338,
      "Ġsubmit": 5339,
      "Ġreports": 5340,
      "Ġretrie": 5341,
      "Ġappearing": 5342,
      "Ġtempor": 5343,
      "Ġcategories": 5344,
      "ĠBRING": 5345,
      "amed": 5346,
      "Ġfamil": 5347,
      "Ġloaded": 5348,
      "Ġdiscovery": 5349,
      "Ġcapability": 5350,
      "Ġactivities": 5351,
      "Ġstruggle": 5352,
      "Ġalbums": 5353,
      "ÃĽÅĴ": 5354,
      "Ġofficial": 5355,
      "ler": 5356,
      "ades": 5357,
      "Ġwasting": 5358,
      "anging": 5359,
      "ĠÃ¢Ä¢": 5360,
      "Ġannoys": 5361,
      "Ġhandle": 5362,
      "Ġcapture": 5363,
      "Inst": 5364,
      "mmmm": 5365,
      "Ġbanner": 5366,
      "Ġtheres": 5367,
      "oof": 5368,
      "Ġvoices": 5369,
      "erely": 5370,
      "Ġtruth": 5371,
      "Ġexch": 5372,
      "ĠDIS": 5373,
      "Ġoutf": 5374,
      "Ġslides": 5375,
      "Ġemotic": 5376,
      "Dis": 5377,
      "ounter": 5378,
      "oop": 5379,
      "ĠSm": 5380,
      "ĠÃ£": 5381,
      "Äłn": 5382,
      "ĠOp": 5383,
      "Ã°Å¸ÅĴ": 5384,
      "Ġregards": 5385,
      "Ġobvious": 5386,
      "Ġroutes": 5387,
      "AYS": 5388,
      "Ġdiscovered": 5389,
      "ĠFROM": 5390,
      "Ġbothered": 5391,
      "THING": 5392,
      "Ġipad": 5393,
      "Ãİ": 5394,
      "ooo": 5395,
      "ĠSa": 5396,
      "ĠPut": 5397,
      "ĠMODE": 5398,
      "ĠLooks": 5399,
      "Ġsearches": 5400,
      "Ġriders": 5401,
      "Ġfeeling": 5402,
      "Ġrequests": 5403,
      "Ġholiday": 5404,
      "HING": 5405,
      "IR": 5406,
      "SO": 5407,
      "Ġwise": 5408,
      "ĠÃª": 5409,
      "âĤ¬âĢĿ": 5410,
      "xtremely": 5411,
      "udd": 5412,
      "Ġcuts": 5413,
      "Ġminimum": 5414,
      "Ġtiny": 5415,
      "urrently": 5416,
      "Ġwireless": 5417,
      "blowing": 5418,
      "gu": 5419,
      "pting": 5420,
      "Ġfli": 5421,
      "Ġhey": 5422,
      "ĠSearch": 5423,
      "Ġareas": 5424,
      "Ġnowhere": 5425,
      "ĠDARK": 5426,
      "ourn": 5427,
      "ĠYouTuber": 5428,
      "Ġlead": 5429,
      "ÂĿâĢĶ": 5430,
      "Ġfoot": 5431,
      "Ġcharging": 5432,
      "Ġdeserves": 5433,
      "ĠConstantly": 5434,
      "Ġhundreds": 5435,
      "ĠChristmas": 5436,
      "Ġshuffle": 5437,
      "IF": 5438,
      "Ġil": 5439,
      "Ġjunk": 5440,
      "ĠWhile": 5441,
      "ĠLe": 5442,
      "ĠOM": 5443,
      "Ġcommands": 5444,
      "Ġmember": 5445,
      "Ġpressed": 5446,
      "Ġkindly": 5447,
      "Ġreverse": 5448,
      "ĠClar": 5449,
      "Ġreplacement": 5450,
      "AUSE": 5451,
      "NO": 5452,
      "hy": 5453,
      "Ġthread": 5454,
      "Ġslightly": 5455,
      "Ġcash": 5456,
      "Ġfans": 5457,
      "Ġgri": 5458,
      "Ġlaw": 5459,
      "ster": 5460,
      "ĠSC": 5461,
      "Ġweather": 5462,
      "ĠBack": 5463,
      "Äłl": 5464,
      "ĠCR": 5465,
      "ĠDear": 5466,
      "istic": 5467,
      "Ġenh": 5468,
      "Ġtries": 5469,
      "Â¥Âį": 5470,
      "Ġearn": 5471,
      "ĠDeleted": 5472,
      "Ġcharacters": 5473,
      "Ġalerts": 5474,
      "Pro": 5475,
      "Ġbaby": 5476,
      "che": 5477,
      "ĠSpe": 5478,
      "antly": 5479,
      "urate": 5480,
      "ĠOver": 5481,
      "cket": 5482,
      "Ġdisplays": 5483,
      "Ġannoy": 5484,
      "Â¤Â°": 5485,
      "ĠAmeric": 5486,
      "Ġlocking": 5487,
      "Ġdrains": 5488,
      "Rec": 5489,
      "ĠREALLY": 5490,
      "Ġq": 5491,
      "Ġtoggle": 5492,
      "Ġreload": 5493,
      "ĠWILL": 5494,
      "ĠCOM": 5495,
      "standing": 5496,
      "ICE": 5497,
      "Ġfairly": 5498,
      "Ġmentioned": 5499,
      "ĠNotifications": 5500,
      "Ġpizza": 5501,
      "pointing": 5502,
      "inner": 5503,
      "Ġwater": 5504,
      "Ġcook": 5505,
      "Ġobs": 5506,
      "Ġgaming": 5507,
      "Ġbeat": 5508,
      "ĠThese": 5509,
      "Ġnewer": 5510,
      "Ġsaver": 5511,
      "Ġdownside": 5512,
      "Ġplayback": 5513,
      "Ġempt": 5514,
      "Ġ67": 5515,
      "ustral": 5516,
      "rrrr": 5517,
      "ĠEarth": 5518,
      "Sim": 5519,
      "iving": 5520,
      "kward": 5521,
      "lasses": 5522,
      "oh": 5523,
      "old": 5524,
      "Ġeg": 5525,
      "Ġaspect": 5526,
      "index": 5527,
      "Ġens": 5528,
      "ĠAmazon": 5529,
      "ĠUnfortunately": 5530,
      "ĠÃĻËĨ": 5531,
      "Ġeffects": 5532,
      "ait": 5533,
      "unt": 5534,
      "Ġnd": 5535,
      "ribut": 5536,
      "aged": 5537,
      "urely": 5538,
      "usion": 5539,
      "ÄłE": 5540,
      "ĠMan": 5541,
      "ssil": 5542,
      "ÃĳÆĴ": 5543,
      "Ġlacking": 5544,
      "Ġrestrictions": 5545,
      "Ġfinished": 5546,
      "ÃĺÂªÃĺ": 5547,
      "Ġalgorithm": 5548,
      "Ġnonsense": 5549,
      "hor": 5550,
      "Ġann": 5551,
      "please": 5552,
      "Ġate": 5553,
      "ĠDuo": 5554,
      "Ġhomework": 5555,
      "Ġassist": 5556,
      "ĠGOOD": 5557,
      "tttttttttttttttt": 5558,
      "Ġghost": 5559,
      "ĠClarus": 5560,
      "Tube": 5561,
      "Ġspl": 5562,
      "Ġmms": 5563,
      "Ġrac": 5564,
      "ĠPri": 5565,
      "âĤ¬âĦ¢": 5566,
      "Ġrefuse": 5567,
      "Ġacceptable": 5568,
      "Ġbehavi": 5569,
      "Ġrecognize": 5570,
      "Ġincreasing": 5571,
      "Ġeducational": 5572,
      "Ġrepeatedly": 5573,
      "aiting": 5574,
      "Ġaverage": 5575,
      "icious": 5576,
      "omend": 5577,
      "Ġrecip": 5578,
      "ĠRed": 5579,
      "Ġpercent": 5580,
      "Ġhardware": 5581,
      "which": 5582,
      "Android": 5583,
      "Ġdevelopment": 5584,
      "ĠQuality": 5585,
      "Ġdeals": 5586,
      "ĠBitmoji": 5587,
      "MB": 5588,
      "ye": 5589,
      "Ġthru": 5590,
      "Ġpand": 5591,
      "Ġappropriate": 5592,
      "Ġrewards": 5593,
      "ĠAB": 5594,
      "Ġinformative": 5595,
      "ĠComplet": 5596,
      "Ġbenefit": 5597,
      "Aw": 5598,
      "ELY": 5599,
      "sung": 5600,
      "tra": 5601,
      "ued": 5602,
      "Ġthrow": 5603,
      "ĠSend": 5604,
      "uration": 5605,
      "ĠFA": 5606,
      "Ġawkward": 5607,
      "Ġsentence": 5608,
      "VEN": 5609,
      "Once": 5610,
      "Ġopinions": 5611,
      "Ġinvol": 5612,
      "Ġpositive": 5613,
      "Ġtroubles": 5614,
      "Too": 5615,
      "can": 5616,
      "fi": 5617,
      "Ġlikely": 5618,
      "ĠPE": 5619,
      "lied": 5620,
      "Â¤âĢĿ": 5621,
      "Ġbadly": 5622,
      "udio": 5623,
      "Ġreader": 5624,
      "Ġbots": 5625,
      "ĠONLY": 5626,
      "ĠSTAR": 5627,
      "ĠBEC": 5628,
      "Ġadvertisement": 5629,
      "known": 5630,
      "Yes": 5631,
      "coming": 5632,
      "spon": 5633,
      "Ġscary": 5634,
      "Ġimpress": 5635,
      "Ġcollection": 5636,
      "Ġtyped": 5637,
      "Ġexport": 5638,
      "design": 5639,
      "Ġvehic": 5640,
      "Ġattempts": 5641,
      "Ġdestination": 5642,
      "Ġmodern": 5643,
      "ius": 5644,
      "Ġpad": 5645,
      "edia": 5646,
      "ison": 5647,
      "amb": 5648,
      "ÄłR": 5649,
      "ÄłW": 5650,
      "Ġlisted": 5651,
      "ĠKind": 5652,
      "Ġlogs": 5653,
      "Ġretail": 5654,
      "Ġsignific": 5655,
      "Ġcreator": 5656,
      "âĦ¢âĢŀ": 5657,
      "Ġgenuine": 5658,
      "Ġarchive": 5659,
      "ĠUsually": 5660,
      "19": 5661,
      "pur": 5662,
      "Ġlights": 5663,
      "Ġfire": 5664,
      "ĠMMS": 5665,
      "ept": 5666,
      "Ġheav": 5667,
      "Ġemerg": 5668,
      "ĠReg": 5669,
      "ATS": 5670,
      "Ġcertainly": 5671,
      "Ġdistr": 5672,
      "Ġintegrated": 5673,
      "mbol": 5674,
      "Ġencounter": 5675,
      "Ġfrozen": 5676,
      "Has": 5677,
      "Ġmate": 5678,
      "esus": 5679,
      "Ġhus": 5680,
      "ĠSIM": 5681,
      "Ġran": 5682,
      "cious": 5683,
      "Ġwrote": 5684,
      "Ġtopics": 5685,
      "ĠServices": 5686,
      "Ġgreedy": 5687,
      "Ġtarget": 5688,
      "ype": 5689,
      "erry": 5690,
      "Ġrelevant": 5691,
      "adays": 5692,
      "ĠGboard": 5693,
      "Ġlie": 5694,
      "ĠVoice": 5695,
      "Â¤Â¨": 5696,
      "Ġarrives": 5697,
      "REAT": 5698,
      "Ġadvise": 5699,
      "ictory": 5700,
      "ĠScreen": 5701,
      "Ġcontinuously": 5702,
      "80": 5703,
      "do": 5704,
      "Ġbomb": 5705,
      "Ġdiction": 5706,
      "ĠAct": 5707,
      "Ġjum": 5708,
      "ĠCalendar": 5709,
      "ĠLG": 5710,
      "Ġdisgrace": 5711,
      "Ġconnectivity": 5712,
      "Ġletter": 5713,
      "Ġsmile": 5714,
      "Ġreduce": 5715,
      "Ġstrugg": 5716,
      "LOAD": 5717,
      "Ġexplanation": 5718,
      "HT": 5719,
      "New": 5720,
      "Ġfelt": 5721,
      "Ġded": 5722,
      "Ġups": 5723,
      "Ġjourn": 5724,
      "ĠMV": 5725,
      "ĠHorrible": 5726,
      "Ġeasiest": 5727,
      "ours": 5728,
      "emic": 5729,
      "ĠVIDE": 5730,
      "Ġintr": 5731,
      "Ġemailed": 5732,
      "Ġfresh": 5733,
      "ĠQR": 5734,
      "Ġgeneration": 5735,
      "ILLION": 5736,
      "ÃĻÅłÃĻ": 5737,
      "ĠBlackberry": 5738,
      "Ġwatsapp": 5739,
      "Never": 5740,
      "pm": 5741,
      "wide": 5742,
      "Ġwing": 5743,
      "Ġpushing": 5744,
      "Ġdress": 5745,
      "Ġtip": 5746,
      "Ġoutdated": 5747,
      "abor": 5748,
      "OUT": 5749,
      "ARD": 5750,
      "Ġmainly": 5751,
      "Ġregardless": 5752,
      "Pretty": 5753,
      "11": 5754,
      "ges": 5755,
      "ror": 5756,
      "victory": 5757,
      "Ġtx": 5758,
      "Ġie": 5759,
      "kemon": 5760,
      "ĠTakes": 5761,
      "Ġloss": 5762,
      "ceed": 5763,
      "ĠCamera": 5764,
      "ĠFamily": 5765,
      "ĠOf": 5766,
      "Â¤Â£": 5767,
      "ĠEverytime": 5768,
      "ÂºÃĲ": 5769,
      "Ġmeasurements": 5770,
      "incerely": 5771,
      "Ġalphabet": 5772,
      "FC": 5773,
      "PT": 5774,
      "cs": 5775,
      "Ġtone": 5776,
      "ina": 5777,
      "Ġgoo": 5778,
      "Ġlazy": 5779,
      "ĠAG": 5780,
      "Ġris": 5781,
      "ifically": 5782,
      "unes": 5783,
      "ĠHu": 5784,
      "ĠView": 5785,
      "Â¤Â®": 5786,
      "Ġreturned": 5787,
      "ĠLoved": 5788,
      "porate": 5789,
      "ĠTIME": 5790,
      "gs": 5791,
      "ured": 5792,
      "Ġdismiss": 5793,
      "Ġprep": 5794,
      "Ġcarry": 5795,
      "Ġencour": 5796,
      "Ġwalking": 5797,
      "Play": 5798,
      "Ġmaxim": 5799,
      "Ġbuffering": 5800,
      "Ġhungry": 5801,
      ".)": 5802,
      "Cloud": 5803,
      "First": 5804,
      "kia": 5805,
      "mb": 5806,
      "ox": 5807,
      "sive": 5808,
      "Ġluv": 5809,
      "oman": 5810,
      "Ġchicken": 5811,
      "Ġbackwards": 5812,
      "Ġkeys": 5813,
      "Ġunav": 5814,
      "eliev": 5815,
      "wei": 5816,
      "ÃĥÄ": 5817,
      "Ġreplied": 5818,
      "Ġshutting": 5819,
      "Ġhangouts": 5820,
      "Ġgift": 5821,
      "Ġraise": 5822,
      "hi": 5823,
      "uary": 5824,
      "Ġtubers": 5825,
      "Ġcorre": 5826,
      "Ġfave": 5827,
      "ĠMot": 5828,
      "ĠMAKE": 5829,
      "Ġpres": 5830,
      "Ġremain": 5831,
      "Ġpartner": 5832,
      "Ġurg": 5833,
      "ternal": 5834,
      "Ġsadly": 5835,
      "friendly": 5836,
      "Ġdropped": 5837,
      "Ġconsistently": 5838,
      "Ġunwanted": 5839,
      "ustralia": 5840,
      "40": 5841,
      "ering": 5842,
      "ubble": 5843,
      "aze": 5844,
      "Ġloop": 5845,
      "honey": 5846,
      "Ġregret": 5847,
      "Ġrealised": 5848,
      "Ġcardboard": 5849,
      "ĠAbsolute": 5850,
      "Ġcareful": 5851,
      "Whenever": 5852,
      "Ġanswers": 5853,
      "AME": 5854,
      "Ġteacher": 5855,
      "Ġbedtime": 5856,
      "ĠWonderful": 5857,
      "YING": 5858,
      "ded": 5859,
      "ral": 5860,
      "Ġthumbs": 5861,
      "Ġdoll": 5862,
      "ĠSign": 5863,
      "Ġusefull": 5864,
      "Ġexe": 5865,
      "Ġexception": 5866,
      "iring": 5867,
      "Ġmanual": 5868,
      "Ġtimers": 5869,
      "ĠÃ°Å¸ÅĴ": 5870,
      "Ġ70": 5871,
      "Â¥âĢ¡": 5872,
      "Ġsheet": 5873,
      "Ġcapable": 5874,
      "Ġbreaks": 5875,
      "Ġhangs": 5876,
      "Ġcategory": 5877,
      "Ġdigital": 5878,
      "Ġcolleag": 5879,
      "sunglasses": 5880,
      "AG": 5881,
      "jd": 5882,
      "mary": 5883,
      "Ġmater": 5884,
      "Ġbee": 5885,
      "Ġdowngrade": 5886,
      "oses": 5887,
      "Ġcompens": 5888,
      "Ġemplo": 5889,
      "bee": 5890,
      "ĠChinese": 5891,
      "EEN": 5892,
      "Ġhorri": 5893,
      "Ġsnoo": 5894,
      "Ġwindows": 5895,
      "Ġsafari": 5896,
      "Ġgrateful": 5897,
      "free": 5898,
      "some": 5899,
      "Ġers": 5900,
      "ĠSame": 5901,
      "ĠGB": 5902,
      "Ġwasted": 5903,
      "ĠMUCH": 5904,
      "Ġbrain": 5905,
      "Ġcompare": 5906,
      "ĠStar": 5907,
      "Ġartist": 5908,
      "Ġvisit": 5909,
      "Ġcute": 5910,
      "Ġachieve": 5911,
      "EAR": 5912,
      "awei": 5913,
      "ea": 5914,
      "man": 5915,
      "Ġhomes": 5916,
      "idiculous": 5917,
      "Ġusable": 5918,
      "uming": 5919,
      "Ġblind": 5920,
      "While": 5921,
      "Ġelsewhere": 5922,
      "Ġgrow": 5923,
      "ĠXL": 5924,
      "Ġdisplaying": 5925,
      "oints": 5926,
      "Ġinsp": 5927,
      "ĠText": 5928,
      "Ġunhappy": 5929,
      "ĠTHANK": 5930,
      "Ab": 5931,
      "Ġtast": 5932,
      "ĠiCloud": 5933,
      "ĠAv": 5934,
      "agr": 5935,
      "ĠNEVER": 5936,
      "ĠDi": 5937,
      "Ġarrow": 5938,
      "Ġsuppose": 5939,
      "Ġsurely": 5940,
      "Ġblocks": 5941,
      "ÂªÃł": 5942,
      "Ġdisconnected": 5943,
      "ĠADD": 5944,
      "Back": 5945,
      "gl": 5946,
      "ercial": 5947,
      "Ġmv": 5948,
      "Ġbubble": 5949,
      "Ġden": 5950,
      "Ġdesper": 5951,
      "Ġrefused": 5952,
      "......": 5953,
      "Ġideal": 5954,
      "Ġradio": 5955,
      "Ġtechnical": 5956,
      "slightly": 5957,
      "ugging": 5958,
      "Ġbin": 5959,
      "Ġrew": 5960,
      "Ġredesign": 5961,
      "Ġtrain": 5962,
      "Ġexcl": 5963,
      "ĠEVEN": 5964,
      "Ġoptional": 5965,
      "Ġviewers": 5966,
      "ĠJesus": 5967,
      "Ġaccessibility": 5968,
      "ĠSTILL": 5969,
      "Ġstandards": 5970,
      "Ġbalance": 5971,
      "ĠBECAUSE": 5972,
      "88": 5973,
      "Help": 5974,
      "Kindly": 5975,
      "night": 5976,
      "rit": 5977,
      "ining": 5978,
      "organ": 5979,
      "Ġpat": 5980,
      "Ġping": 5981,
      "Ġrlly": 5982,
      "ĠMar": 5983,
      "Ġplain": 5984,
      "Ġgreatest": 5985,
      "ĠFriend": 5986,
      "Ġunknown": 5987,
      "Ġthemes": 5988,
      "Ġperhaps": 5989,
      "Ġsupports": 5990,
      "Ġreporting": 5991,
      "backhand": 5992,
      "ĠTrans": 5993,
      "gggggggg": 5994,
      "Ġemoticons": 5995,
      "Ġdictionary": 5996,
      "MY": 5997,
      "aj": 5998,
      "sor": 5999,
      "tf": 6000,
      "Ġast": 6001,
      "Ġbon": 6002,
      "Ġbesides": 6003,
      "ĠBarry": 6004,
      "Äłr": 6005,
      "ĠTheir": 6006,
      "Ġsymbol": 6007,
      "Ġdecre": 6008,
      "ĠWHEN": 6009,
      "Ġdrain": 6010,
      "Ġentirely": 6011,
      "Ġdiscounts": 6012,
      "oooooooooooooooo": 6013,
      "plicity": 6014,
      "Ġvirtual": 6015,
      "Ġhusband": 6016,
      "Did": 6017,
      "Go": 6018,
      "fs": 6019,
      "ods": 6020,
      "Ã¤": 6021,
      "ĠTE": 6022,
      "aught": 6023,
      "lfriend": 6024,
      "ustrating": 6025,
      "mins": 6026,
      "Ġreached": 6027,
      "Ġoperate": 6028,
      "Ġcirc": 6029,
      "Ġcomplex": 6030,
      "Ġempty": 6031,
      "honeybee": 6032,
      "Ser": 6033,
      "ners": 6034,
      "rain": 6035,
      "Ġack": 6036,
      "Ġband": 6037,
      "Ġot": 6038,
      "ghting": 6039,
      "ĠMay": 6040,
      "Ġsake": 6041,
      "ËľâĢł": 6042,
      "pted": 6043,
      "Ġinformed": 6044,
      "IST": 6045,
      "Ġresetting": 6046,
      "Ġsitting": 6047,
      "ĠConnect": 6048,
      "Ġindividually": 6049,
      "Ġintroduce": 6050,
      "Ġsafety": 6051,
      "Ġreboot": 6052,
      "Ġemergency": 6053,
      "SE": 6054,
      "leg": 6055,
      "ĠTry": 6056,
      "Äłcon": 6057,
      "ĠFar": 6058,
      "ĠHOW": 6059,
      "Ġteen": 6060,
      "ĠUX": 6061,
      "ËľâĢĿ": 6062,
      "eye": 6063,
      "Ġremot": 6064,
      "pected": 6065,
      "together": 6066,
      "Ġindic": 6067,
      "Unfortunately": 6068,
      "ĠDELETE": 6069,
      "ĠWHATS": 6070,
      "Ġfalse": 6071,
      "Ġunavailable": 6072,
      "__": 6073,
      "Ġsight": 6074,
      "Ġhar": 6075,
      "Ġappeared": 6076,
      "ĠSU": 6077,
      "Ġvan": 6078,
      "Ġlif": 6079,
      "illion": 6080,
      "Äłde": 6081,
      "Äłex": 6082,
      "ĠMiss": 6083,
      "ËľâĢ¦": 6084,
      "Ġleaves": 6085,
      "abase": 6086,
      "Ġresour": 6087,
      "Ġ80": 6088,
      "Ġverified": 6089,
      "ĠAnyone": 6090,
      "ĠMode": 6091,
      "ĠHopefully": 6092,
      "Ġcentre": 6093,
      "Excellent": 6094,
      "flushed": 6095,
      "wo": 6096,
      "yp": 6097,
      "ada": 6098,
      "Ġframe": 6099,
      "ĠNext": 6100,
      "ĠCANT": 6101,
      "Ġpred": 6102,
      "Ġwatches": 6103,
      "Ġreasonable": 6104,
      "Ġlucky": 6105,
      "Ġexcited": 6106,
      "hhhhhhhh": 6107,
      "Ġdisappointment": 6108,
      "purple": 6109,
      "Had": 6110,
      "Pls": 6111,
      "ien": 6112,
      "inting": 6113,
      "Ġpm": 6114,
      "Ġdream": 6115,
      "ask": 6116,
      "Ġforces": 6117,
      "Ġsold": 6118,
      "Ġdep": 6119,
      "ĠFinally": 6120,
      "Ġgotta": 6121,
      "Ġhost": 6122,
      "ights": 6123,
      "Ġ98": 6124,
      "Ġ99": 6125,
      "Â¥âĤ¬": 6126,
      "RIBLE": 6127,
      "Ġinitial": 6128,
      "FUL": 6129,
      "Per": 6130,
      "Ã¨": 6131,
      "Ġted": 6132,
      "Ġbless": 6133,
      "Ġstri": 6134,
      "idence": 6135,
      "ĠPa": 6136,
      "Ġnowadays": 6137,
      "soci": 6138,
      "anged": 6139,
      "Ġplug": 6140,
      "ËľÂ¤": 6141,
      "grams": 6142,
      "ATION": 6143,
      "Ġcreep": 6144,
      "xxxx": 6145,
      "ĠInstead": 6146,
      "aughing": 6147,
      "Ġbegin": 6148,
      "print": 6149,
      "Ġbreaking": 6150,
      "Ġbrightness": 6151,
      "Ġresearch": 6152,
      "yc": 6153,
      "atin": 6154,
      "ĠSlow": 6155,
      "ĠSomething": 6156,
      "Ġevening": 6157,
      "Ġunlocked": 6158,
      "Ġ21": 6159,
      "ĠRep": 6160,
      "Ġcommercial": 6161,
      "ĠKey": 6162,
      "installing": 6163,
      "Ġsystems": 6164,
      "Ġsigning": 6165,
      "Ġsheets": 6166,
      "Ġmoments": 6167,
      "Unable": 6168,
      "Ġmodels": 6169,
      "ĠMobile": 6170,
      "Ġadministr": 6171,
      "ELP": 6172,
      "ĠÃ®ÅĴÂµ": 6173,
      "Ġanalytics": 6174,
      "Your": 6175,
      "hill": 6176,
      "iet": 6177,
      "ipping": 6178,
      "Ġ~": 6179,
      "ĠAustralia": 6180,
      "ĠPerson": 6181,
      "Ġanyways": 6182,
      "unction": 6183,
      "ĠMORE": 6184,
      "ĠOFF": 6185,
      "Ġaddictive": 6186,
      "ĠRight": 6187,
      "Ġinstance": 6188,
      "ÂĿÂ´": 6189,
      "ulti": 6190,
      "Which": 6191,
      "Ġcloser": 6192,
      "ÃĳÅĴ": 6193,
      "Ġsolid": 6194,
      "Ġcares": 6195,
      "Ġspeakers": 6196,
      "Ġpicked": 6197,
      "Ġadvance": 6198,
      "Ġrecognise": 6199,
      "OPLE": 6200,
      "ondon": 6201,
      "Ġcompetit": 6202,
      "Ġauthenticator": 6203,
      "More": 6204,
      "Ġwomen": 6205,
      "Ġmal": 6206,
      "cember": 6207,
      "ĠBig": 6208,
      "Ġkilled": 6209,
      "facepal": 6210,
      "Ġexperiences": 6211,
      "Ġowner": 6212,
      "Ġcarrier": 6213,
      "ĠSecond": 6214,
      "ĠClear": 6215,
      "GG": 6216,
      "ek": 6217,
      "reet": 6218,
      "ĠIve": 6219,
      "Ġyellow": 6220,
      "Ġinno": 6221,
      "OST": 6222,
      "Ġcompar": 6223,
      "Ġsimplicity": 6224,
      "irect": 6225,
      "Ġguide": 6226,
      "Ġinsert": 6227,
      "Ġspecifically": 6228,
      "Ġmarked": 6229,
      "ĠGetting": 6230,
      "ĠJanuary": 6231,
      "ĠPEOPLE": 6232,
      "Won": 6233,
      "aven": 6234,
      "floor": 6235,
      "uable": 6236,
      "Ġrev": 6237,
      "Ġsteal": 6238,
      "Ġmeh": 6239,
      "Ġliking": 6240,
      "ĠMin": 6241,
      "ĠHD": 6242,
      "ĠViber": 6243,
      "Ġarmy": 6244,
      "Ġsymbols": 6245,
      "Ġowned": 6246,
      "Ġdelivering": 6247,
      "Ġendless": 6248,
      "Ġprovider": 6249,
      "Ġmistakes": 6250,
      "Ġgirlfriend": 6251,
      "Ġregistered": 6252,
      "ĠBasically": 6253,
      "facepalming": 6254,
      "laughing": 6255,
      "Ġwow": 6256,
      "Ġdeactiv": 6257,
      "Ġmak": 6258,
      "ĠMILLION": 6259,
      "Ġatleast": 6260,
      "Ġsupporting": 6261,
      "Ġworldwide": 6262,
      "shru": 6263,
      "Â§Âį": 6264,
      "ĠBeing": 6265,
      "ĠNews": 6266,
      "Ġrequested": 6267,
      "Ġrelation": 6268,
      "Ġholding": 6269,
      "ĠService": 6270,
      "Ġvirus": 6271,
      "Ġboyfriend": 6272,
      "Ġvoucher": 6273,
      "accurate": 6274,
      "ĠDOWNLOAD": 6275,
      "Ġtroublesho": 6276,
      "Ġvehicle": 6277,
      "Cannot": 6278,
      "Me": 6279,
      "books": 6280,
      "Ġtons": 6281,
      "Ġdread": 6282,
      "enly": 6283,
      "Ġect": 6284,
      "Ġreli": 6285,
      "ĠAP": 6286,
      "ĠNorm": 6287,
      "Äłv": 6288,
      "ĠCar": 6289,
      "venue": 6290,
      "Ġsale": 6291,
      "Ġwherever": 6292,
      "Ġcustomize": 6293,
      "Ġrefuses": 6294,
      "OUR": 6295,
      "Ġpasswords": 6296,
      "Ġignoring": 6297,
      "ĠGIF": 6298,
      "ĠBye": 6299,
      "Ġrotate": 6300,
      "Ġpaper": 6301,
      "shrugging": 6302,
      "att": 6303,
      "Ġtom": 6304,
      "Ġcance": 6305,
      "ager": 6306,
      "ĠDont": 6307,
      "ÅĵÃł": 6308,
      "ONG": 6309,
      "when": 6310,
      "ÂıÂ»": 6311,
      "ĠWorld": 6312,
      "Ġsuperv": 6313,
      "Ġinval": 6314,
      "ĠComm": 6315,
      "ĠMessenger": 6316,
      "Ġinternal": 6317,
      "Ġinfuri": 6318,
      "Ġcolleagues": 6319,
      "ABLE": 6320,
      "bar": 6321,
      "iate": 6322,
      "squ": 6323,
      "ĠPod": 6324,
      "ĠMAN": 6325,
      "Ġcaller": 6326,
      "abilities": 6327,
      "ĠLovely": 6328,
      "Â¤Â¯": 6329,
      "ĠChat": 6330,
      "Ġconsistent": 6331,
      "Ġproviding": 6332,
      "Ġeditor": 6333,
      "Ġpoorly": 6334,
      "Ġsorts": 6335,
      "Ġparcel": 6336,
      "Ġminimal": 6337,
      "Ġduo": 6338,
      "Ġconsuming": 6339,
      "Ġcollabor": 6340,
      "Ġmaintain": 6341,
      "Ġdemand": 6342,
      "Ġsnooze": 6343,
      "Ġremotely": 6344,
      "YY": 6345,
      "gb": 6346,
      "Ġactions": 6347,
      "Ġmath": 6348,
      "Ġcity": 6349,
      "Ġpun": 6350,
      "ishing": 6351,
      "chron": 6352,
      "ĠGREAT": 6353,
      "Ġviber": 6354,
      "ama": 6355,
      "ĠCons": 6356,
      "ĠFull": 6357,
      "ĠHE": 6358,
      "ĠHard": 6359,
      "Ġscr": 6360,
      "Ġcry": 6361,
      "Ġtrip": 6362,
      "Ġbringing": 6363,
      "Ġdeveloped": 6364,
      "Ġrefunded": 6365,
      "ĠProblem": 6366,
      "Ġvalid": 6367,
      "ĠDisappointed": 6368,
      "ÃĤÄ": 6369,
      "yyyy": 6370,
      "ĠARMY": 6371,
      "days": 6372,
      "ĠSw": 6373,
      "ĠWind": 6374,
      "Ġtips": 6375,
      "ament": 6376,
      "Ġdeb": 6377,
      "Ġprograms": 6378,
      "ĠBU": 6379,
      "ĠMon": 6380,
      "Ġunst": 6381,
      "Ġ....": 6382,
      "Ġspecially": 6383,
      "Â¦Â°": 6384,
      "ĠTHEM": 6385,
      "Ġupgrading": 6386,
      "ĠToday": 6387,
      "ĠProbably": 6388,
      "THER": 6389,
      "Ġpurposes": 6390,
      "Before": 6391,
      "Ġreduced": 6392,
      "Ġcrop": 6393,
      "Ġfat": 6394,
      "Ġappoint": 6395,
      "ĠTake": 6396,
      "Ġstated": 6397,
      "ĠThink": 6398,
      "Ġcomfortable": 6399,
      "Ġexists": 6400,
      "ĠED": 6401,
      "Ġdisabling": 6402,
      "Â¤Â¸": 6403,
      "ĠReal": 6404,
      "????": 6405,
      "Ġdevs": 6406,
      "weary": 6407,
      "23": 6408,
      "Free": 6409,
      "TT": 6410,
      "green": 6411,
      "ived": 6412,
      "Ġslight": 6413,
      "Ġforum": 6414,
      "ĠSad": 6415,
      "Ġassoci": 6416,
      "ĠÃħ": 6417,
      "Ġfrank": 6418,
      "roud": 6419,
      "Ġpayments": 6420,
      "raised": 6421,
      "AND": 6422,
      "ĠWeb": 6423,
      "Ġchromecast": 6424,
      "Ġactivate": 6425,
      "ĠAuth": 6426,
      "ĠIndia": 6427,
      "Ġsuitable": 6428,
      "ĠHangouts": 6429,
      "Using": 6430,
      "la": 6431,
      "atware": 6432,
      "Ġcam": 6433,
      "Ġcases": 6434,
      "Ġgain": 6435,
      "Ġtik": 6436,
      "Ġprop": 6437,
      "Äłsh": 6438,
      "Ġneeding": 6439,
      "Ġsender": 6440,
      "Ġleads": 6441,
      "ften": 6442,
      "Ġwoke": 6443,
      "ĠDecember": 6444,
      "Ġfollowers": 6445,
      "YouTube": 6446,
      "Ġindeed": 6447,
      "Ġrelax": 6448,
      "ĠWithout": 6449,
      "Äłdis": 6450,
      "HeyHeyHeyHeyHeyHeyHeyHeyHeyHeyHeyHeyHeyHeyHeyHey": 6451,
      "Ġscanning": 6452,
      "Another": 6453,
      "Ġaffordable": 6454,
      "Ġkicking": 6455,
      "Ġrecipient": 6456,
      "yn": 6457,
      "Ġthus": 6458,
      "Ġwired": 6459,
      "ady": 6460,
      "Ġjoy": 6461,
      "ÄłN": 6462,
      "Ġexten": 6463,
      "ĠFind": 6464,
      "Ġplaystore": 6465,
      "Â¤âĢĶ": 6466,
      "Ġguid": 6467,
      "Ġbase": 6468,
      "Always": 6469,
      "Ġprocessing": 6470,
      "Ġfigured": 6471,
      "Ġpresentation": 6472,
      "Ġoppos": 6473,
      "Ġgirls": 6474,
      "Ġpandemic": 6475,
      "ACK": 6476,
      "LI": 6477,
      "bly": 6478,
      "Ġ]": 6479,
      "Ġting": 6480,
      "Ġwel": 6481,
      "atory": 6482,
      "Ġcro": 6483,
      "Ġcul": 6484,
      "Ġhindi": 6485,
      "Ġbel": 6486,
      "quest": 6487,
      "osen": 6488,
      "ĠRest": 6489,
      "Ġwhereas": 6490,
      "Ġfilm": 6491,
      "Where": 6492,
      "HeyHeyHey": 6493,
      "velop": 6494,
      "Ġdetail": 6495,
      "Ġoffering": 6496,
      "Ġparticip": 6497,
      "Ġsuccessful": 6498,
      "Ġcritic": 6499,
      "Ġmaximum": 6500,
      "28": 6501,
      "ECT": 6502,
      "Make": 6503,
      "Qu": 6504,
      "di": 6505,
      "Ġfund": 6506,
      "Ġpet": 6507,
      "aning": 6508,
      "Ġow": 6509,
      "Ġren": 6510,
      "seed": 6511,
      "Ġshit": 6512,
      "Ġintended": 6513,
      "ĠApplication": 6514,
      "Ġcustomise": 6515,
      "Ġfol": 6516,
      "Ġremains": 6517,
      "Ġfunctioning": 6518,
      "Ġgrid": 6519,
      "Ġinstalls": 6520,
      "Ġstores": 6521,
      "Ġ2017": 6522,
      "Ġpushed": 6523,
      "ĠHeyHeyHeyHeyHeyHeyHeyHeyHeyHeyHeyHeyHeyHeyHeyHeyHey": 6524,
      "Ġpractical": 6525,
      "Ġsilent": 6526,
      "51": 6527,
      "FA": 6528,
      "Hi": 6529,
      "KK": 6530,
      "ley": 6531,
      "Ġreplay": 6532,
      "Ġ!!": 6533,
      "ĠTalk": 6534,
      "ĠAV": 6535,
      "Ġdeep": 6536,
      "anger": 6537,
      "Ġkicked": 6538,
      "Ġampl": 6539,
      "ĠFB": 6540,
      "ainy": 6541,
      "0000": 6542,
      "Ġphotograph": 6543,
      "ĠDeleting": 6544,
      "ĠDecent": 6545,
      "Ġtested": 6546,
      "ĠDELETING": 6547,
      "Ġsynced": 6548,
      "Ġconfirmation": 6549,
      "Ġutterly": 6550,
      "Ġintrusive": 6551,
      "Same": 6552,
      "shing": 6553,
      "Ġproud": 6554,
      "Ġdot": 6555,
      "itions": 6556,
      "uts": 6557,
      "Ġstates": 6558,
      "Ġnotch": 6559,
      "Ġexternal": 6560,
      "Å¸Ãł": 6561,
      "ĠLondon": 6562,
      "Ġfilled": 6563,
      "Ġguarant": 6564,
      "Ġcursor": 6565,
      "Ġedited": 6566,
      "Ġadvertised": 6567,
      "Ġadvanced": 6568,
      "rupt": 6569,
      "ĠÃĥÄ": 6570,
      "ĠFeb": 6571,
      "Ġdatabase": 6572,
      "Ġtutorials": 6573,
      "Ġcluttered": 6574,
      "Ġretrieve": 6575,
      "Ġgenuinely": 6576,
      "Ġrewind": 6577,
      "ĠHeyHeyHeyHeyHeyHeyHeyHeyHeyHeyHeyHeyHeyHeyHeyHeyHeyHeyHeyHey": 6578,
      "lu": 6579,
      "Ġll": 6580,
      "Ġflex": 6581,
      "orrow": 6582,
      "Ġnest": 6583,
      "Ġpending": 6584,
      "Ġdates": 6585,
      "Ġhill": 6586,
      "Ġui": 6587,
      "Ġinbox": 6588,
      "Ġinaccurate": 6589,
      "ĠWOULD": 6590,
      "antage": 6591,
      "Ġyours": 6592,
      "Äłe": 6593,
      "Ġgreatly": 6594,
      "ĠDON": 6595,
      "ĠOld": 6596,
      "Ġassume": 6597,
      "Ġrefreshing": 6598,
      "Ġentered": 6599,
      "Ġfitness": 6600,
      "Ġfailing": 6601,
      "bye": 6602,
      "Ġconcern": 6603,
      "Ġimplemented": 6604,
      "ND": 6605,
      "cr": 6606,
      "gin": 6607,
      "sn": 6608,
      "Ġmother": 6609,
      "Ġner": 6610,
      "Ġpound": 6611,
      "Ġdots": 6612,
      "ened": 6613,
      "Ġforth": 6614,
      "ĠTrying": 6615,
      "iders": 6616,
      "ĠGl": 6617,
      "Ġaso": 6618,
      "ĠÃŃ": 6619,
      "ĠOff": 6620,
      "ĠHAS": 6621,
      "ĠHELP": 6622,
      "ĠUntil": 6623,
      "Ġacting": 6624,
      "AST": 6625,
      "Although": 6626,
      "Ġincreased": 6627,
      "Ġresponsive": 6628,
      "Ġsplit": 6629,
      "Cr": 6630,
      "Con": 6631,
      "NOW": 6632,
      "PS": 6633,
      "ios": 6634,
      "Ġthreat": 6635,
      "Ġsat": 6636,
      "Ġbul": 6637,
      "Ġaltogether": 6638,
      "Ġdefe": 6639,
      "ĠYet": 6640,
      "ĠExtremely": 6641,
      "Ġchoosing": 6642,
      "ĠREC": 6643,
      "Ġorganize": 6644,
      "Ġboxes": 6645,
      "Ġintegrate": 6646,
      "ditions": 6647,
      "Ġpolice": 6648,
      "ĠWindows": 6649,
      "MO": 6650,
      "hile": 6651,
      "pensive": 6652,
      "Ġnative": 6653,
      "ana": 6654,
      "Ġchosen": 6655,
      "ĠList": 6656,
      "ops": 6657,
      "ĠRidiculous": 6658,
      "Ġseemed": 6659,
      "Ġrecords": 6660,
      "ĠUSB": 6661,
      "ĠBAD": 6662,
      "Ġflawlessly": 6663,
      "Hopefully": 6664,
      "ippable": 6665,
      "ĠPHONE": 6666,
      "Ġexchange": 6667,
      "epend": 6668,
      "latin": 6669,
      "ya": 6670,
      "Ġmile": 6671,
      "Ġbtw": 6672,
      "Ġtown": 6673,
      "Ġhair": 6674,
      "entially": 6675,
      "ĠPr": 6676,
      "Ġkm": 6677,
      "Ġmoves": 6678,
      "Ġinsta": 6679,
      "ĠAlmost": 6680,
      "ires": 6681,
      "Ġrepair": 6682,
      "ĠANNO": 6683,
      "Ġpasscode": 6684,
      "Ġboys": 6685,
      "Ġ888": 6686,
      "Ġoriginally": 6687,
      "Ġroutine": 6688,
      "Ġpublish": 6689,
      "ĠHelps": 6690,
      "Ġsources": 6691,
      "Ġscreenshots": 6692,
      "ĠPhoto": 6693,
      "going": 6694,
      "Ġscanned": 6695,
      "Ġassignments": 6696,
      "Ġbuilding": 6697,
      "Ġmental": 6698,
      "Ã¢Ä¢Ä": 6699,
      "Ġtemporarily": 6700,
      "gers": 6701,
      "Ġrender": 6702,
      "Ġreorder": 6703,
      "eth": 6704,
      "ĠYellow": 6705,
      "Ġrich": 6706,
      "ĠPing": 6707,
      "ĠLive": 6708,
      "Ġ22": 6709,
      "Ġpicks": 6710,
      "ĠKids": 6711,
      "Ġreception": 6712,
      "ĠInc": 6713,
      "Ġunderstanding": 6714,
      "ĠWorked": 6715,
      "ĠDOES": 6716,
      "Ġoperating": 6717,
      "Ġtesting": 6718,
      "Ġignored": 6719,
      "................": 6720,
      "Ġcharacter": 6721,
      "Super": 6722,
      "Ġidiot": 6723,
      "Ġenhance": 6724,
      "ĠAGAIN": 6725,
      "uf": 6726,
      "Ġdated": 6727,
      "Ġappeal": 6728,
      "send": 6729,
      "ched": 6730,
      "ĠLET": 6731,
      "Ġcontract": 6732,
      "ĠUR": 6733,
      "ĠRes": 6734,
      "Ġplayers": 6735,
      "Ġarg": 6736,
      "Ġtracks": 6737,
      "Ġfinal": 6738,
      "Ġinsane": 6739,
      "Ġcapital": 6740,
      "Ġaccuracy": 6741,
      "button": 6742,
      "Ġdelays": 6743,
      "Ġlarger": 6744,
      "Everytime": 6745,
      "Ġmeasurement": 6746,
      "Ġtrends": 6747,
      "Ġprotection": 6748,
      "Ġglobe": 6749,
      "Ġviol": 6750,
      "Ġmaterial": 6751,
      "Ġbonus": 6752,
      "Com": 6753,
      "pass": 6754,
      "Ġmil": 6755,
      "Ġbread": 6756,
      "Ġcamer": 6757,
      "cho": 6758,
      "Ġcontroll": 6759,
      "Ġdownhill": 6760,
      "Ġ500": 6761,
      "Ġawhile": 6762,
      "she": 6763,
      "Ġlistened": 6764,
      "Ġedits": 6765,
      "ĠiPads": 6766,
      "Ġshops": 6767,
      "arrow": 6768,
      "ĠAnyway": 6769,
      "partying": 6770,
      "Ġtemper": 6771,
      "Simple": 6772,
      "ĠCompletely": 6773,
      "Awesome": 6774,
      "Ġbombard": 6775,
      "ĠWHATSAPP": 6776,
      "CP": 6777,
      "fire": 6778,
      "Ġmir": 6779,
      "Ġcous": 6780,
      "Ġcart": 6781,
      "Ġful": 6782,
      "Ġrevenue": 6783,
      "ĠSony": 6784,
      "Ġconditions": 6785,
      "acks": 6786,
      "ando": 6787,
      "Ġsuffer": 6788,
      "Ġpassed": 6789,
      "Ġbars": 6790,
      "ĠSupport": 6791,
      "Ġpleasure": 6792,
      "eeeeeeee": 6793,
      "forward": 6794,
      "Ġundo": 6795,
      "ettings": 6796,
      "Ġphysical": 6797,
      "Ġrisk": 6798,
      "Ġinfuriating": 6799,
      "fing": 6800,
      "uh": 6801,
      "Ġdinner": 6802,
      "Ġhence": 6803,
      "vel": 6804,
      "Ġyo": 6805,
      "Ġreality": 6806,
      "ĠSP": 6807,
      "ĠSee": 6808,
      "Ġash": 6809,
      "ively": 6810,
      "Ġpocket": 6811,
      "Ġfees": 6812,
      "Ġdish": 6813,
      "ĠRu": 6814,
      "fficient": 6815,
      "Ġconnections": 6816,
      "Ġfilms": 6817,
      "Ġallowance": 6818,
      "Â§âĢ¡": 6819,
      "Ġgrainy": 6820,
      "Ġcomplained": 6821,
      "Ġcontinually": 6822,
      "ĠQuite": 6823,
      "ĠSNAKE": 6824,
      "Ġfingers": 6825,
      "Ġrobot": 6826,
      "Ġlabel": 6827,
      "check": 6828,
      "Ġstruggling": 6829,
      "Ġopposite": 6830,
      ".,": 6831,
      "Ġwat": 6832,
      "Ġbri": 6833,
      "Ġdram": 6834,
      "Ġuk": 6835,
      "ĠCON": 6836,
      "lete": 6837,
      "Â¤Â¤": 6838,
      "Ġcredits": 6839,
      "ĠTele": 6840,
      "Ġorganised": 6841,
      "Ġringing": 6842,
      "Ġrepeating": 6843,
      "Ġlevels": 6844,
      "Ġmembership": 6845,
      "Ġpeace": 6846,
      "prove": 6847,
      "Ġtrending": 6848,
      "Ġhurt": 6849,
      "Ġduplicate": 6850,
      "agraph": 6851,
      "GB": 6852,
      "Ġtall": 6853,
      "Ġay": 6854,
      "Ġsincerely": 6855,
      "Ġapplied": 6856,
      "omi": 6857,
      "ĠLost": 6858,
      "Ġsets": 6859,
      "Ġhighli": 6860,
      "eee": 6861,
      "ÂĲâĢ¢": 6862,
      "Ġcounting": 6863,
      "Ġconsideration": 6864,
      "Ġcutting": 6865,
      "Ġringtone": 6866,
      "Ġspoken": 6867,
      "Ġplanning": 6868,
      "bd": 6869,
      "ĠiT": 6870,
      "oned": 6871,
      "Ġhav": 6872,
      "Ġste": 6873,
      "apt": 6874,
      "lox": 6875,
      "Ġgover": 6876,
      "Ġexper": 6877,
      "ĠLook": 6878,
      "ĠLol": 6879,
      "ĠHere": 6880,
      "ĠHATS": 6881,
      "Ġclue": 6882,
      "Â¤Â¦": 6883,
      "Ġautomated": 6884,
      "cessarily": 6885,
      "Ġorganized": 6886,
      "Ġpackage": 6887,
      "ĠEnjoy": 6888,
      "ĠIdk": 6889,
      "fric": 6890,
      "hrs": 6891,
      "iar": 6892,
      "Ã§": 6893,
      "Ġcable": 6894,
      "arp": 6895,
      "cture": 6896,
      "ĠBug": 6897,
      "ĠPower": 6898,
      "ĠMESS": 6899,
      "ĠOb": 6900,
      "Ġunex": 6901,
      "appointing": 6902,
      "Ġloosing": 6903,
      "ordin": 6904,
      "aked": 6905,
      "Ġending": 6906,
      "ĠWork": 6907,
      "avigation": 6908,
      "Ġflag": 6909,
      "ĠOnePlus": 6910,
      "ÂªÃ°": 6911,
      "Ġinterests": 6912,
      "putes": 6913,
      "gusted": 6914,
      "Ġdisconnects": 6915,
      "Ġtravelling": 6916,
      "ĠDelete": 6917,
      "Ġauthentication": 6918,
      "Ġdemonet": 6919,
      "Ġgesture": 6920,
      "Ġhomescreen": 6921,
      "hd": 6922,
      "tes": 6923,
      "Ġflo": 6924,
      "leading": 6925,
      "Ġwhom": 6926,
      "Ġhai": 6927,
      "sets": 6928,
      "ĠTOO": 6929,
      "thy": 6930,
      "Ġcond": 6931,
      "ĠData": 6932,
      "ĠOur": 6933,
      "ĠEas": 6934,
      "ĠUt": 6935,
      "ĠRob": 6936,
      "Ġ3000": 6937,
      "ĠStories": 6938,
      "Ġhomepage": 6939,
      "Ġtermin": 6940,
      "Ġdecides": 6941,
      "Ġresponses": 6942,
      "Â¥Â°": 6943,
      "ÂµÃł": 6944,
      "Ġbackgrounds": 6945,
      "Ġmeasuring": 6946,
      "Ġidentify": 6947,
      "Ġeducation": 6948,
      "Ġbenefits": 6949,
      "Should": 6950,
      "Ġsimpler": 6951,
      "FFFFFFFFFFFFFFFFFFFFFFFFFFFFFFFF": 6952,
      "Ġinvolved": 6953,
      "Ġencountered": 6954,
      "AGE": 6955,
      "Lo": 6956,
      "Many": 6957,
      "wr": 6958,
      "zy": 6959,
      "Ġwen": 6960,
      "Ġnic": 6961,
      "Ġgps": 6962,
      "Ġreward": 6963,
      "acked": 6964,
      "Ġadmit": 6965,
      "Ġaloud": 6966,
      "Ġrang": 6967,
      "ĠDI": 6968,
      "Ġuncom": 6969,
      "Ġreads": 6970,
      "Ġreflect": 6971,
      "Ġprimary": 6972,
      "Ġaudience": 6973,
      "Ġpauses": 6974,
      "2020": 6975,
      "Ġcounter": 6976,
      "Ġrefunds": 6977,
      "Ġcopied": 6978,
      "Ġparagraph": 6979,
      "Ġstudio": 6980,
      "hoea": 6981,
      "Ġpowerful": 6982,
      "Ġidiots": 6983,
      "Ġoutfit": 6984,
      "ĠAuthent": 6985,
      "WAYS": 6986,
      "glowing": 6987,
      "mg": 6988,
      "ĭÄ": 6989,
      "reg": 6990,
      "resent": 6991,
      "oul": 6992,
      "Ġbare": 6993,
      "llll": 6994,
      "Ġgd": 6995,
      "itude": 6996,
      "ĠACC": 6997,
      "Äłch": 6998,
      "Ġcontr": 6999,
      "Ġimm": 7000,
      "Ġcring": 7001,
      "Ġincomp": 7002,
      "Ġkeyword": 7003,
      "Ġaccepted": 7004,
      "Ġestimated": 7005,
      "Ġenvironmental": 7006,
      "Instead": 7007,
      "Recently": 7008,
      "Ġfrankly": 7009,
      "zes": 7010,
      "ĠIphone": 7011,
      "Ġrefer": 7012,
      "apan": 7013,
      "ifies": 7014,
      "ÄłO": 7015,
      "ĠMade": 7016,
      "Ġation": 7017,
      "update": 7018,
      "Ġglare": 7019,
      "Ġfaults": 7020,
      "Ġbold": 7021,
      "Ġdraining": 7022,
      "Ġrecovery": 7023,
      "arrhoea": 7024,
      "Ġcopyright": 7025,
      "hods": 7026,
      "Ġrequirements": 7027,
      "atisfied": 7028,
      "****": 7029,
      "Äłtr": 7030,
      "ĠALWAYS": 7031,
      "Keeps": 7032,
      "Ġscrewed": 7033,
      "Ġpromotion": 7034,
      "uddenly": 7035,
      "elievable": 7036,
      "ĠNormally": 7037,
      "Tr": 7038,
      "ior": 7039,
      "iri": 7040,
      "look": 7041,
      "uct": 7042,
      "Ġboo": 7043,
      "Ġum": 7044,
      "ĠWicked": 7045,
      "elf": 7046,
      "Ġadult": 7047,
      "ĠMac": 7048,
      "Ġexer": 7049,
      "ĠHindi": 7050,
      "ĠEach": 7051,
      "oughly": 7052,
      "Ġblame": 7053,
      "ĠTHERE": 7054,
      "ĠKEE": 7055,
      "ield": 7056,
      "ĠNokia": 7057,
      "Ġuploads": 7058,
      "away": 7059,
      "ĠWHO": 7060,
      "Ġmethods": 7061,
      "Ġrestrict": 7062,
      "Ġflaws": 7063,
      "ĠContact": 7064,
      "Ġscanner": 7065,
      "Ġconcerned": 7066,
      "IGHT": 7067,
      "Ġdissap": 7068,
      "squinting": 7069,
      "Bring": 7070,
      "google": 7071,
      "pop": 7072,
      "ĠCONT": 7073,
      "Ġcontain": 7074,
      "Ġcontrolling": 7075,
      "ËľâĢ°": 7076,
      "Ġproof": 7077,
      "Â¦Â¨": 7078,
      "ĠXx": 7079,
      "ÂĿâĢľÂ®": 7080,
      "Ġtablets": 7081,
      "ĠEVERYTHING": 7082,
      "Ġsuccessfully": 7083,
      "Ġbiased": 7084,
      "Ġencryption": 7085,
      "ĠHuawei": 7086,
      "ĠAvoid": 7087,
      "ĠDiarrhoea": 7088,
      "Ġtomorrow": 7089,
      "'.": 7090,
      "CR": 7091,
      "pace": 7092,
      "Ã©": 7093,
      "Ġwarm": 7094,
      "ĠAir": 7095,
      "ĠSORT": 7096,
      "ulting": 7097,
      "Ġmach": 7098,
      "Ġtrick": 7099,
      "ĠDay": 7100,
      "Ġoutput": 7101,
      "Ġservers": 7102,
      "graded": 7103,
      "Ġheck": 7104,
      "iaomi": 7105,
      "Ġhole": 7106,
      "Ġyoutuber": 7107,
      "rolled": 7108,
      "Ġindepend": 7109,
      "Ġpurchasing": 7110,
      "Ġselfies": 7111,
      "Ġpriority": 7112,
      "Amazing": 7113,
      "ĠANNOYING": 7114,
      "ĠSNAKEU": 7115,
      "25": 7116,
      "Phone": 7117,
      "Terrible": 7118,
      "call": 7119,
      "Ġsix": 7120,
      "ĠIss": 7121,
      "leng": 7122,
      "Ġlisting": 7123,
      "etime": 7124,
      "roken": 7125,
      "ĠPol": 7126,
      "urring": 7127,
      "ĠLooking": 7128,
      "ĠReli": 7129,
      "Ġspell": 7130,
      "ĠTHEN": 7131,
      "Ġoccurred": 7132,
      "Ġsooooo": 7133,
      "Ġbroadcast": 7134,
      "Ġrectify": 7135,
      "ĠOMG": 7136,
      "Ġacknow": 7137,
      "Last": 7138,
      "TING": 7139,
      "cation": 7140,
      "ĠÂģ": 7141,
      "Ġthr": 7142,
      "Ġsweet": 7143,
      "inter": 7144,
      "Ġpoo": 7145,
      "Ġpatter": 7146,
      "Ġdash": 7147,
      "Ġreapp": 7148,
      "ĠMessage": 7149,
      "ĠLL": 7150,
      "Ġunit": 7151,
      "ĠUr": 7152,
      "Ġ48": 7153,
      "ĠKNOW": 7154,
      "Ġcreative": 7155,
      "Ġflat": 7156,
      "Ġhanging": 7157,
      "Ġoperator": 7158,
      "Ġutil": 7159,
      "Ġinconvenience": 7160,
      "Ġunstable": 7161,
      "Ġcameras": 7162,
      "AH": 7163,
      "From": 7164,
      "Us": 7165,
      "even": 7166,
      "ians": 7167,
      "ka": 7168,
      "Ġneat": 7169,
      "ession": 7170,
      "Ġdemo": 7171,
      "Ġopt": 7172,
      "Ġrecorder": 7173,
      "ĠVer": 7174,
      "Ġbadge": 7175,
      "Ġtrigg": 7176,
      "Ġspotify": 7177,
      "weat": 7178,
      "Ġcustomization": 7179,
      "Ġincor": 7180,
      "Ġaccessing": 7181,
      "ola": 7182,
      "Â¦Â¬": 7183,
      "ARE": 7184,
      "Ġaddresses": 7185,
      "Ġstatuses": 7186,
      "Ġcommunications": 7187,
      "Ġrelatives": 7188,
      "Ġlearned": 7189,
      "Ġexcuse": 7190,
      "Ġspoke": 7191,
      "Ġplanet": 7192,
      "Ġanti": 7193,
      "Ġgraphics": 7194,
      "Ġnetworking": 7195,
      "Ġbehaviour": 7196,
      "Ġgovern": 7197,
      "Bad": 7198,
      "NN": 7199,
      "Samsung": 7200,
      "hugging": 7201,
      "oor": 7202,
      "Ġtag": 7203,
      "Ġfb": 7204,
      "Ġdim": 7205,
      "anish": 7206,
      "Ġgboard": 7207,
      "Ġele": 7208,
      "ĠSER": 7209,
      "Ġchips": 7210,
      "Ġconvenience": 7211,
      "ĠFav": 7212,
      "Ġquiet": 7213,
      "ĠRet": 7214,
      "Ġbud": 7215,
      "ĠStars": 7216,
      "Ġweekly": 7217,
      "Ġreplying": 7218,
      "Ġorganisation": 7219,
      "Ġdrawing": 7220,
      "ĠContacts": 7221,
      "Ġmarks": 7222,
      "Ġprojects": 7223,
      "Ġjourney": 7224,
      "Ġcompensation": 7225,
      "Ġcreepy": 7226,
      "Cle": 7227,
      "Having": 7228,
      "Makes": 7229,
      "iw": 7230,
      "ered": 7231,
      "Ġcri": 7232,
      "ĠAudio": 7233,
      "Ġselling": 7234,
      "ĠÃ³": 7235,
      "Ġweight": 7236,
      "ĠBuy": 7237,
      "ury": 7238,
      "Ġmob": 7239,
      "Ġoutstanding": 7240,
      "ĠLuv": 7241,
      "Ġbeta": 7242,
      "ĠSnapchats": 7243,
      "urns": 7244,
      "ups": 7245,
      "Ġsubs": 7246,
      "ĠThankyou": 7247,
      "Ġgrab": 7248,
      "Ġworthless": 7249,
      "Ġearned": 7250,
      "Ġexpecting": 7251,
      "ĠAdmin": 7252,
      "airs": 7253,
      "Ġflawless": 7254,
      "Ġcompetition": 7255,
      "18": 7256,
      "Mo": 7257,
      "correct": 7258,
      "hr": 7259,
      "points": 7260,
      "atically": 7261,
      "Ġple": 7262,
      "Ġpure": 7263,
      "arter": 7264,
      "ĠAccess": 7265,
      "ĠSettings": 7266,
      "Ġpoll": 7267,
      "Ġaccom": 7268,
      "Ġcontribut": 7269,
      "Ġunsk": 7270,
      "Ġsuck": 7271,
      "Ġcovers": 7272,
      "Ġenables": 7273,
      "ĠStupid": 7274,
      "ATCH": 7275,
      "Ġbits": 7276,
      "Ġtransaction": 7277,
      "Ġsections": 7278,
      "rics": 7279,
      "Ġfaced": 7280,
      "Worst": 7281,
      "Ġroads": 7282,
      "uuuu": 7283,
      "Ġsensitive": 7284,
      "Ġseamless": 7285,
      "Ġtroubleshooting": 7286,
      "Especially": 7287,
      "fc": 7288,
      "ga": 7289,
      "je": 7290,
      "Ġsom": 7291,
      "ĠInt": 7292,
      "Ġyall": 7293,
      "ĠWant": 7294,
      "ĠWats": 7295,
      "Ġusability": 7296,
      "Ġworkout": 7297,
      "Ġrare": 7298,
      "ĠPRO": 7299,
      "Ġoffensive": 7300,
      "ËľâĢŀ": 7301,
      "arted": 7302,
      "Ġpray": 7303,
      "duct": 7304,
      "Ġpromised": 7305,
      "Ġincludes": 7306,
      "ĠFRI": 7307,
      "Ġoperation": 7308,
      "Ġalternatives": 7309,
      "Ġcoverage": 7310,
      "Ġdrops": 7311,
      "Ġforgotten": 7312,
      "Ġlegit": 7313,
      "Ġglobal": 7314,
      "Ġburger": 7315,
      "larna": 7316,
      "ĠÃ°Å¸ÅĴÅ¸": 7317,
      "Ġhorrific": 7318,
      "Ġinnov": 7319,
      "ald": 7320,
      "uro": 7321,
      "Ġiv": 7322,
      "Ġdom": 7323,
      "Ġhat": 7324,
      "Ġrecc": 7325,
      "ĠTW": 7326,
      "acking": 7327,
      "ĠPR": 7328,
      "Ġbacking": 7329,
      "ĠEd": 7330,
      "andy": 7331,
      "Ġyearly": 7332,
      "Ġdesired": 7333,
      "Ġdefin": 7334,
      "Ġswitches": 7335,
      "Ġgenerous": 7336,
      "Ġfailure": 7337,
      "Ġkilling": 7338,
      "Ġpractically": 7339,
      "ĠFriday": 7340,
      "Useless": 7341,
      "ubscribe": 7342,
      "Ġflip": 7343,
      "Ġheavy": 7344,
      "ĠSignal": 7345,
      "ĠKeyboard": 7346,
      "Ġdreadful": 7347,
      "Ġdefeats": 7348,
      "cre": 7349,
      "dis": 7350,
      "double": 7351,
      "spe": 7352,
      "Ġsides": 7353,
      "Ġgud": 7354,
      "Ġapparent": 7355,
      "aries": 7356,
      "Ġreject": 7357,
      "Ġseason": 7358,
      "ĠSl": 7359,
      "Ġchill": 7360,
      "Ġdeath": 7361,
      "Ġtraining": 7362,
      "ĠFil": 7363,
      "elpful": 7364,
      "ËľËľ": 7365,
      "Â¤Â©": 7366,
      "Ġpra": 7367,
      "iped": 7368,
      "Ġretry": 7369,
      "Ġdecl": 7370,
      "Ġcreates": 7371,
      "Ġrealize": 7372,
      "tok": 7373,
      "Ġflow": 7374,
      "Ġremoval": 7375,
      "Ġbusinesses": 7376,
      "Ġcapabilities": 7377,
      "ĠUSA": 7378,
      "Ġresponded": 7379,
      "Ġorganise": 7380,
      "Chat": 7381,
      "Ġpieces": 7382,
      "Ġanimation": 7383,
      "Ġattached": 7384,
      "Ġbias": 7385,
      "ĠTelegram": 7386,
      "Book": 7387,
      "Fr": 7388,
      "Rubbish": 7389,
      "dream": 7390,
      "ÃĮ": 7391,
      "Ġthx": 7392,
      "Ġcasting": 7393,
      "Ġpatch": 7394,
      "Ġhy": 7395,
      "Ġhated": 7396,
      "Ġhavent": 7397,
      "acity": 7398,
      "ĠWAY": 7399,
      "Ġprob": 7400,
      "ĠBL": 7401,
      "Ġrap": 7402,
      "unam": 7403,
      "Ġplans": 7404,
      "Ġgold": 7405,
      "ĠLE": 7406,
      "ĠEv": 7407,
      "irty": 7408,
      "Ġcontains": 7409,
      "Ġscared": 7410,
      "ashed": 7411,
      "ÃĲÂºÃĲ": 7412,
      "Ġowners": 7413,
      "Ġfrustration": 7414,
      "Â¦âĢ¢": 7415,
      "Ġgrowing": 7416,
      "ĠDec": 7417,
      "âĢĻÂ©": 7418,
      "Ġentering": 7419,
      "Ġseparately": 7420,
      "ĠEVERYONE": 7421,
      "Ġpossibility": 7422,
      "----": 7423,
      "ĠDespite": 7424,
      "Ġfuzz": 7425,
      "ĠAccount": 7426,
      "Ġtonight": 7427,
      "Ġnetworks": 7428,
      "ĠCOMP": 7429,
      "Ġdesperately": 7430,
      "ĠPersonally": 7431,
      "ĠMANY": 7432,
      "RY": 7433,
      "Upd": 7434,
      "View": 7435,
      "YS": 7436,
      "nite": 7437,
      "Ãļ": 7438,
      "Ġmes": 7439,
      "Ġbs": 7440,
      "esth": 7441,
      "Ġist": 7442,
      "Ġeating": 7443,
      "ĠAI": 7444,
      "add": 7445,
      "Ġdose": 7446,
      "essages": 7447,
      "Ġadults": 7448,
      "pleading": 7449,
      "love": 7450,
      "Äłse": 7451,
      "ĠDID": 7452,
      "ĠOct": 7453,
      "anda": 7454,
      "ËľÂ¥": 7455,
      "weets": 7456,
      "ĠKFC": 7457,
      "ATING": 7458,
      "raft": 7459,
      "Ġkeyboards": 7460,
      "Ġkinds": 7461,
      "ĠDisc": 7462,
      "Been": 7463,
      "Ġincons": 7464,
      "Ġbeauty": 7465,
      "Ġassigned": 7466,
      "Ġmarketing": 7467,
      "Ġsquare": 7468,
      "Ġdestroyed": 7469,
      "Ġchalleng": 7470,
      "Ġinvestig": 7471,
      "Ġfamilies": 7472,
      "Ġensure": 7473,
      "Ġracist": 7474,
      "organised": 7475,
      "Ġtedious": 7476,
      "45": 7477,
      "Co": 7478,
      "Let": 7479,
      "good": 7480,
      "ora": 7481,
      "Ġgap": 7482,
      "Ġlite": 7483,
      "ito": 7484,
      "Ġworried": 7485,
      "Ġconference": 7486,
      "Ġje": 7487,
      "Ġabuse": 7488,
      "ĠEats": 7489,
      "Ġclicks": 7490,
      "Ġcovid": 7491,
      "INE": 7492,
      "Ġaccessories": 7493,
      "Ġgrad": 7494,
      "ISH": 7495,
      "Ġaddressed": 7496,
      "Ġpreferences": 7497,
      "clown": 7498,
      "Ġ2016": 7499,
      "Ġforeign": 7500,
      "ÂĿâĢľÂ¸": 7501,
      "hold": 7502,
      "Ġdescribe": 7503,
      "ĠFabulous": 7504,
      "Ġcelebs": 7505,
      "Ġindividuals": 7506,
      "Ġexciting": 7507,
      "ĠIndian": 7508,
      "Ġsynchron": 7509,
      "Ġalgorithms": 7510,
      "UPD": 7511,
      "Ġswearing": 7512,
      "Ġpanel": 7513,
      "Ġassociated": 7514,
      "ĠReliable": 7515,
      "GH": 7516,
      "ober": 7517,
      "Ä´": 7518,
      "Ġion": 7519,
      "Ġmat": 7520,
      "Ġdual": 7521,
      "Ġgy": 7522,
      "ĠAfric": 7523,
      "ĠWord": 7524,
      "Äła": 7525,
      "angry": 7526,
      "Ġaband": 7527,
      "Ġrecommending": 7528,
      "Ġrecommendation": 7529,
      "Ġmonet": 7530,
      "ĠStreet": 7531,
      "Ġentry": 7532,
      "ÂģâĢĵ": 7533,
      "Ġdiscuss": 7534,
      "Ġ86": 7535,
      "itional": 7536,
      "Ġvert": 7537,
      "Ġsmartphones": 7538,
      "ĠUSER": 7539,
      "ĠMeet": 7540,
      "Ġpermanent": 7541,
      "Ġrestarts": 7542,
      "OOOOOOOO": 7543,
      "Ġloyalty": 7544,
      "Ġdisturb": 7545,
      "Ġlaws": 7546,
      "Ġsignificantly": 7547,
      "ĠFriends": 7548,
      "Ġunexpected": 7549,
      "PN": 7550,
      "UU": 7551,
      "Ãı": 7552,
      "Ġble": 7553,
      "Ġfool": 7554,
      "icy": 7555,
      "Ġecho": 7556,
      "Ġ!!!": 7557,
      "idays": 7558,
      "essed": 7559,
      "ĠWATCH": 7560,
      "ĠMi": 7561,
      "Ġabs": 7562,
      "igr": 7563,
      "Ġinstallation": 7564,
      "Ġadvertise": 7565,
      "ËĨÃ«": 7566,
      "ĠÃĺÂª": 7567,
      "Ġpromote": 7568,
      "ITE": 7569,
      "Ġparental": 7570,
      "Ġmenus": 7571,
      "Ġvisually": 7572,
      "Ġstraightforward": 7573,
      "Ġjoined": 7574,
      "Ġcompatibility": 7575,
      "Ġmails": 7576,
      "lenge": 7577,
      "Today": 7578,
      "ĠCheers": 7579,
      "Ġsilence": 7580,
      "ĠPLAY": 7581,
      "Ġuntill": 7582,
      "ĠActually": 7583,
      "Ġculture": 7584,
      "GS": 7585,
      "PLEASE": 7586,
      "Something": 7587,
      "UM": 7588,
      "vies": 7589,
      "yin": 7590,
      "zany": 7591,
      "ingly": 7592,
      "Ġhook": 7593,
      "pppp": 7594,
      "ĠAp": 7595,
      "ĠSick": 7596,
      "ĠSound": 7597,
      "ĠSOME": 7598,
      "Ġvice": 7599,
      "Ġsharp": 7600,
      "ulate": 7601,
      "ĠNest": 7602,
      "ĠMulti": 7603,
      "Ġgreater": 7604,
      "Ġamaz": 7605,
      "ĠDM": 7606,
      "ĠDif": 7607,
      "ĠHAPP": 7608,
      "Ġstreams": 7609,
      "Ġlocated": 7610,
      "Ġbitmojis": 7611,
      "ASH": 7612,
      "ĠDevice": 7613,
      "Ġpicking": 7614,
      "Worked": 7615,
      "ĠDisgusting": 7616,
      "Ġepic": 7617,
      "ĠGPM": 7618,
      "Ġlabels": 7619,
      "Ġdialer": 7620,
      "Absolutely": 7621,
      "Ġcompetitors": 7622,
      "unamused": 7623,
      "!?": 7624,
      "AC": 7625,
      "VID": 7626,
      "hal": 7627,
      "Ġwin": 7628,
      "Ġnatur": 7629,
      "Ġsees": 7630,
      "that": 7631,
      "ĠWaste": 7632,
      "ĠBus": 7633,
      "ĠPar": 7634,
      "ÄłI": 7635,
      "unning": 7636,
      "ĠEN": 7637,
      "growing": 7638,
      "Ġedge": 7639,
      "Ġrepresent": 7640,
      "Ġcolum": 7641,
      "why": 7642,
      "ildren": 7643,
      "Ġmedium": 7644,
      "ĠNOTHING": 7645,
      "Ġplacing": 7646,
      "Ġsyncs": 7647,
      "Ġchromebook": 7648,
      "Ġactivated": 7649,
      "Ġlaid": 7650,
      "Ġtransferred": 7651,
      "Ġunrespon": 7652,
      "Ġbene": 7653,
      "Ġhumans": 7654,
      "Ġinterrupted": 7655,
      "Ġdepending": 7656,
      "Ġinvalid": 7657,
      "ĠRuined": 7658,
      "Get": 7659,
      "jj": 7660,
      "Ġhub": 7661,
      "itles": 7662,
      "Ġaside": 7663,
      "ĠPO": 7664,
      "ĠMa": 7665,
      "epie": 7666,
      "Ġscen": 7667,
      "umbers": 7668,
      "Ġresume": 7669,
      "Ġunderst": 7670,
      "pective": 7671,
      "Ġthankyou": 7672,
      "Ġremoves": 7673,
      "Ġstayed": 7674,
      "ncy": 7675,
      "Ġapolog": 7676,
      "Ġconsidered": 7677,
      "Ġcopying": 7678,
      "Äłcom": 7679,
      "ĠDisputes": 7680,
      "Ġadvantage": 7681,
      "Ġcorporate": 7682,
      "Ġrip": 7683,
      "Ġeffectively": 7684,
      "ugged": 7685,
      "Ġsubjects": 7686,
      "Ġportion": 7687,
      "ĠGuys": 7688,
      "Ġstrongly": 7689,
      "marks": 7690,
      "Ġannou": 7691,
      "Ġdistracting": 7692,
      "Ġdedicated": 7693,
      "ĠiTunes": 7694,
      "Ġbudget": 7695,
      "Try": 7696,
      "URE": 7697,
      "bu": 7698,
      "eel": 7699,
      "iven": 7700,
      "ji": 7701,
      "oon": 7702,
      "point": 7703,
      "rest": 7704,
      "icing": 7705,
      "omiting": 7706,
      "verse": 7707,
      "ado": 7708,
      "ĠSending": 7709,
      "thinking": 7710,
      "Ġloses": 7711,
      "urve": 7712,
      "Äłth": 7713,
      "ĠET": 7714,
      "Ġdisgusted": 7715,
      "Ġcrappy": 7716,
      "udes": 7717,
      "Ġthoughts": 7718,
      "ĠDocs": 7719,
      "Ġexpos": 7720,
      "Ġcountless": 7721,
      "Ġgeneric": 7722,
      "Ġinvite": 7723,
      "Ġmanaging": 7724,
      "Che": 7725,
      "Ġinflu": 7726,
      "Ġbills": 7727,
      "Ġoccurs": 7728,
      "Ã£ÆĴ": 7729,
      "Ġunhelpful": 7730,
      "!!!!!!!!!!!!!!!!": 7731,
      "Ġjumps": 7732,
      "ĠTransl": 7733,
      "Ġunresponsive": 7734,
      "Give": 7735,
      "RR": 7736,
      "VI": 7737,
      "eme": 7738,
      "ology": 7739,
      "ux": 7740,
      "under": 7741,
      "vomiting": 7742,
      "Ġthro": 7743,
      "ingo": 7744,
      "itle": 7745,
      "Ġyr": 7746,
      "Ġrent": 7747,
      "sequ": 7748,
      "ĠAgain": 7749,
      "Ġprobs": 7750,
      "ifier": 7751,
      "Äłk": 7752,
      "ĠCurrently": 7753,
      "Ġking": 7754,
      "aud": 7755,
      "ĠOP": 7756,
      "ĠOmg": 7757,
      "Ġrecieve": 7758,
      "ĠUAV": 7759,
      "Ġprev": 7760,
      "ement": 7761,
      "Ġintention": 7762,
      "conf": 7763,
      "Â¤Â¿": 7764,
      "izable": 7765,
      "Â¦Â¯": 7766,
      "Ġcontents": 7767,
      "aha": 7768,
      "ĠÃłÂª": 7769,
      "âĢļÂ¬": 7770,
      "Ġcontrolled": 7771,
      "OOK": 7772,
      "Ġfreaking": 7773,
      "Ġmovement": 7774,
      "Ġtranslating": 7775,
      "âĢ¹Â¤": 7776,
      "athi": 7777,
      "Ġanswering": 7778,
      "Ġoccasional": 7779,
      "ĠComp": 7780,
      "Ġwidgets": 7781,
      "Ġrights": 7782,
      "Ġcovered": 7783,
      "Ġfingerprint": 7784,
      "Ġaffected": 7785,
      "Ġcritical": 7786,
      "EEEEEEEEEEEEEEEE": 7787,
      "Ġprepared": 7788,
      "Ġcomparison": 7789,
      "Ġextens": 7790,
      "ĠAuthenticator": 7791,
      "Ġmachine": 7792,
      "Such": 7793,
      "UD": 7794,
      "XL": 7795,
      "Ġhrs": 7796,
      "isions": 7797,
      "atell": 7798,
      "ĠAA": 7799,
      "Ġlies": 7800,
      "Ġjus": 7801,
      "Ġrings": 7802,
      "ĠMine": 7803,
      "irt": 7804,
      "Ġunsu": 7805,
      "Ġagend": 7806,
      "ĠÃ¢Åĵ": 7807,
      "actory": 7808,
      "Ġlen": 7809,
      "ĠNobody": 7810,
      "Ġterri": 7811,
      "ĠXs": 7812,
      "Â¥Â¤": 7813,
      "Ã¡ÆĴ": 7814,
      "Ġrock": 7815,
      "!!!!!": 7816,
      "Ġcomputers": 7817,
      "Store": 7818,
      "Ġbanning": 7819,
      "Ġminimise": 7820,
      "ĠClass": 7821,
      "Second": 7822,
      "ĠDownloaded": 7823,
      "Ġvirtually": 7824,
      "Ġsubtasks": 7825,
      "ĠFossil": 7826,
      "Ġdisturbing": 7827,
      "Ġseamlessly": 7828,
      "ĠÃĻËĨÃĺ": 7829,
      "Cont": 7830,
      "Rem": 7831,
      "VICE": 7832,
      "fall": 7833,
      "mers": 7834,
      "pre": 7835,
      "Ġts": 7836,
      "Ġwit": 7837,
      "Ġcore": 7838,
      "Ġhaha": 7839,
      "idge": 7840,
      "bled": 7841,
      "ĠNE": 7842,
      "Ġmesses": 7843,
      "Äłj": 7844,
      "unic": 7845,
      "Ġwilling": 7846,
      "agement": 7847,
      "ËľÂĲ": 7848,
      "Ġclar": 7849,
      "Ġnicely": 7850,
      "Ġaccessed": 7851,
      "ATED": 7852,
      "LED": 7853,
      "score": 7854,
      "ĠTHEIR": 7855,
      "Å¡Ãł": 7856,
      "Ġbloatware": 7857,
      "Ġflick": 7858,
      "Ġprofiles": 7859,
      "Ġreturning": 7860,
      "2021": 7861,
      "Ġtraveling": 7862,
      "Ġmisleading": 7863,
      "Ġsurprise": 7864,
      "Ġscheduled": 7865,
      "Ġconfiguration": 7866,
      "ĠSmart": 7867,
      "Ġimpressive": 7868,
      "diepie": 7869,
      "AIL": 7870,
      "WW": 7871,
      "afe": 7872,
      "sweat": 7873,
      "Ġaesth": 7874,
      "Ġffs": 7875,
      "Ġpew": 7876,
      "itation": 7877,
      "ĠTER": 7878,
      "ĠTook": 7879,
      "ĠAF": 7880,
      "ĠSub": 7881,
      "Ġshif": 7882,
      "ĠBET": 7883,
      "ĠCal": 7884,
      "Ġpokemon": 7885,
      "ĠUl": 7886,
      "Ġ300": 7887,
      "Ġhappily": 7888,
      "formation": 7889,
      "Ġtouching": 7890,
      "raid": 7891,
      "Ġtransactions": 7892,
      "Ġsocialise": 7893,
      "rror": 7894,
      "Ġspecified": 7895,
      "Ġcenter": 7896,
      "ĠWhoever": 7897,
      "kissing": 7898,
      "volving": 7899,
      "Ġassistance": 7900,
      "Ġcircles": 7901,
      "ĠMissing": 7902,
      "Ġappointments": 7903,
      "UPDATE": 7904,
      "GUI": 7905,
      "LUT": 7906,
      "Pixel": 7907,
      "aited": 7908,
      "pic": 7909,
      "rage": 7910,
      "zing": 7911,
      "Ġsun": 7912,
      "Ġsau": 7913,
      "Ġharm": 7914,
      "Ġinch": 7915,
      "ching": 7916,
      "kend": 7917,
      "ĠTik": 7918,
      "ĠTwo": 7919,
      "ĠGud": 7920,
      "Ġship": 7921,
      "Ġram": 7922,
      "ĠPh": 7923,
      "ĠPER": 7924,
      "ĠFive": 7925,
      "orted": 7926,
      "place": 7927,
      "ËľÂ¢": 7928,
      "Ġwhose": 7929,
      "ÂĿâĢĿ": 7930,
      "Â¤Â·": 7931,
      "Ġ1080": 7932,
      "Â§âĤ¬": 7933,
      "skull": 7934,
      "Ġscheme": 7935,
      "Ġnavigating": 7936,
      "Ġgenius": 7937,
      "hhh": 7938,
      "Ġimportantly": 7939,
      "Ġgenerate": 7940,
      "athetic": 7941,
      "âĢĵÂ´": 7942,
      "Ġstudy": 7943,
      "Ġredund": 7944,
      "Ġlaunched": 7945,
      "ĠArt": 7946,
      "Ġcelebrity": 7947,
      "Ġattempted": 7948,
      "Ġhackers": 7949,
      "Ġfroze": 7950,
      "HHHH": 7951,
      "ĠAWFUL": 7952,
      "Ġvouchers": 7953,
      "pression": 7954,
      "Ġclients": 7955,
      "Ġchallenge": 7956,
      "ĠÃ¢Ä¢Ä": 7957,
      "Ġfootball": 7958,
      "Ġexecut": 7959,
      "Ġwelcome": 7960,
      "Ġcriticism": 7961,
      "ĠAdministr": 7962,
      "Ġreccomend": 7963,
      "WH": 7964,
      "pa": 7965,
      "eries": 7966,
      "see": 7967,
      "there": 7968,
      "Ġorient": 7969,
      "ils": 7970,
      "Ġgoods": 7971,
      "Ġsomewhat": 7972,
      "Ġ23": 7973,
      "Ġoverr": 7974,
      "Ġcrying": 7975,
      "INK": 7976,
      "Ġrestored": 7977,
      "ĠTHING": 7978,
      "ighb": 7979,
      "Ġtopic": 7980,
      "Ġbrilliantly": 7981,
      "Ġrecordings": 7982,
      "Ġ95": 7983,
      "Ġpixelated": 7984,
      "ĠConf": 7985,
      "Ġpolite": 7986,
      "ĠHelpful": 7987,
      "Ġcensoring": 7988,
      "Ġconcerns": 7989,
      "Ġcollege": 7990,
      "Ġmagic": 7991,
      "ĠCheck": 7992,
      "Ġphysically": 7993,
      "horns": 7994,
      "Ġtxts": 7995,
      "ĠMoto": 7996,
      "apanese": 7997,
      "Cant": 7998,
      "Come": 7999,
      "craft": 8000,
      "iation": 8001,
      "ja": 8002,
      "ki": 8003,
      "ril": 8004,
      "rious": 8005,
      "Ġvo": 8006,
      "agree": 8007,
      "Ġdeg": 8008,
      "ĠOTHER": 8009,
      "ËľâĢĺ": 8010,
      "Ġfinds": 8011,
      "Ġ35": 8012,
      "Ġinteraction": 8013,
      "ĠKindly": 8014,
      "ĠKlarna": 8015,
      "while": 8016,
      "Ġerase": 8017,
      "Ġappearance": 8018,
      "Ġdifficulty": 8019,
      "Ġheadache": 8020,
      "ĠÃĻÅł": 8021,
      "ĠLOT": 8022,
      "Ġentertained": 8023,
      "Ġcleaning": 8024,
      "prof": 8025,
      "Ġscores": 8026,
      "Ġhurry": 8027,
      "ĠAdvert": 8028,
      "fairy": 8029,
      "Ġvibrate": 8030,
      "Ġclipboard": 8031,
      "ĠPriv": 8032,
      "ĠVIDEO": 8033,
      "Crashes": 8034,
      "Def": 8035,
      "Sc": 8036,
      "Ġamend": 8037,
      "Ġice": 8038,
      "Ġwtf": 8039,
      "revolving": 8040,
      "Ġmood": 8041,
      "Ġbum": 8042,
      "orola": 8043,
      "Ġgro": 8044,
      "isp": 8045,
      "Ġbell": 8046,
      "Ġbeep": 8047,
      "Ġbegging": 8048,
      "utions": 8049,
      "utral": 8050,
      "Ġine": 8051,
      "Ġstats": 8052,
      "mem": 8053,
      "elines": 8054,
      "Ġwearing": 8055,
      "ÄłV": 8056,
      "ĠFE": 8057,
      "iment": 8058,
      "ĠLink": 8059,
      "ĠHOR": 8060,
      "ĠEither": 8061,
      "Ġunpl": 8062,
      "Ġ28": 8063,
      "Ġled": 8064,
      "ffers": 8065,
      "intuitive": 8066,
      "upside": 8067,
      "ĠJune": 8068,
      "ĠWorking": 8069,
      "stars": 8070,
      "Ġhoriz": 8071,
      "Ġprofit": 8072,
      "ĠShocking": 8073,
      "Ġspeedy": 8074,
      "Ġwalked": 8075,
      "ĠBrit": 8076,
      "blue": 8077,
      "Ġmerge": 8078,
      "Ġurgent": 8079,
      "Ġcondition": 8080,
      "ĠLLC": 8081,
      "NOT": 8082,
      "fix": 8083,
      "iÃĥ": 8084,
      "lines": 8085,
      "Ġwings": 8086,
      "Ġflight": 8087,
      "Ġpig": 8088,
      "pper": 8089,
      "Ġge": 8090,
      "asion": 8091,
      "Ġupto": 8092,
      "Ġupcoming": 8093,
      "ĠAlex": 8094,
      "adow": 8095,
      "Ġated": 8096,
      "ĠCard": 8097,
      "Ġtrad": 8098,
      "ĠLong": 8099,
      "Ġbuzz": 8100,
      "moon": 8101,
      "âĢĺÂı": 8102,
      "Ġesc": 8103,
      "ruary": 8104,
      "Ġproviders": 8105,
      "Ġears": 8106,
      "Ġsitu": 8107,
      "Ġschedul": 8108,
      "contin": 8109,
      "Ġrelationship": 8110,
      "Ġbelong": 8111,
      "Ġfolks": 8112,
      "Ġnerves": 8113,
      "Ġnicer": 8114,
      "Ġuncomfortable": 8115,
      "Better": 8116,
      "Youtube": 8117,
      "alent": 8118,
      "jf": 8119,
      "million": 8120,
      "ync": 8121,
      "Ġsle": 8122,
      "Ġdict": 8123,
      "isc": 8124,
      "Ġrear": 8125,
      "Ġstating": 8126,
      "Ġnotifying": 8127,
      "ĠSays": 8128,
      "ĠSave": 8129,
      "ĠThx": 8130,
      "ĠThough": 8131,
      "ills": 8132,
      "ĠCS": 8133,
      "Ġgoal": 8134,
      "Ġtrail": 8135,
      "Ġscri": 8136,
      "Â¤âĢļ": 8137,
      "aker": 8138,
      "Ġretweet": 8139,
      "white": 8140,
      "Â¦Â¦": 8141,
      "Â¦Â¿": 8142,
      "Ġreceipt": 8143,
      "ficial": 8144,
      "Â¥âĢ¹": 8145,
      "Ġpaused": 8146,
      "Ġfeeds": 8147,
      "brow": 8148,
      "Ġsmartwatch": 8149,
      "Uninstalled": 8150,
      "Ġdisconnecting": 8151,
      "Ġupsetting": 8152,
      "Ġpolitics": 8153,
      "Ġclaims": 8154,
      "Ġvibration": 8155,
      "Ġsubtitles": 8156,
      "Ġtiktok": 8157,
      "Ġcontroller": 8158,
      "Ġdashboard": 8159,
      "ĠUSERN": 8160,
      "atellite": 8161,
      "Finally": 8162,
      "Latest": 8163,
      "Search": 8164,
      "js": 8165,
      "vo": 8166,
      "Ġsir": 8167,
      "Ġdiv": 8168,
      "Ġgar": 8169,
      "Ġbees": 8170,
      "Ġstation": 8171,
      "thank": 8172,
      "ultane": 8173,
      "ĠJo": 8174,
      "raw": 8175,
      "ellig": 8176,
      "iece": 8177,
      "LESS": 8178,
      "Ġrepet": 8179,
      "Ġtransport": 8180,
      "Ġswap": 8181,
      "rophy": 8182,
      "ĠSTUP": 8183,
      "ĠREMO": 8184,
      "Ġvaluable": 8185,
      "Ġsticker": 8186,
      "ĠINST": 8187,
      "Ġevil": 8188,
      "Ġredirect": 8189,
      "Ġsensor": 8190,
      "Ġshocked": 8191,
      "Ġafraid": 8192,
      "Ġgripe": 8193,
      "tttttttttttttttttttttttttttttttt": 8194,
      "Ġencourage": 8195,
      "FreeCo": 8196,
      "velopers": 8197,
      "ĠFRIEND": 8198,
      "ĠSTUPID": 8199,
      "FreeCoco": 8200,
      "Got": 8201,
      "Hello": 8202,
      "hood": 8203,
      "video": 8204,
      "reaming": 8205,
      "Ġisol": 8206,
      "vert": 8207,
      "Ġec": 8208,
      "Ġyourselves": 8209,
      "ÄłÃĥ": 8210,
      "ĠCens": 8211,
      "ĠFine": 8212,
      "Ġscient": 8213,
      "Ġsuperi": 8214,
      "Ã°Å¸Å½": 8215,
      "Ġpayed": 8216,
      "ĠStay": 8217,
      "Ġweekend": 8218,
      "Â®âĢ¢": 8219,
      "ĠAllows": 8220,
      "Ġbargain": 8221,
      "ITY": 8222,
      "Ġroutines": 8223,
      "ĠDisappointing": 8224,
      "Äłpro": 8225,
      "Ġpins": 8226,
      "Ġsleeping": 8227,
      "Ġfancy": 8228,
      "Ġattempting": 8229,
      "Ġdrawback": 8230,
      "ĠWORST": 8231,
      "ĠADVER": 8232,
      "Ġmonitoring": 8233,
      "ĠSHOULD": 8234,
      "ĠRemove": 8235,
      "iiiiiiii": 8236,
      "Ġgovernment": 8237,
      "bot": 8238,
      "bow": 8239,
      "Ġace": 8240,
      "Ġsli": 8241,
      "eral": 8242,
      "ona": 8243,
      "Ġnick": 8244,
      "Ġnarr": 8245,
      "allpap": 8246,
      "ĠNor": 8247,
      "unno": 8248,
      "tsapp": 8249,
      "ĠVPN": 8250,
      "ËľâĢ¡": 8251,
      "Ġenabling": 8252,
      "cons": 8253,
      "ablish": 8254,
      "Ġspy": 8255,
      "Ġdefo": 8256,
      "Ġtransition": 8257,
      "Ġconsent": 8258,
      "Ġexpired": 8259,
      "Â¯Âį": 8260,
      "Ġcars": 8261,
      "rict": 8262,
      "Ġridiculously": 8263,
      "Ġpainful": 8264,
      "Ġpreviews": 8265,
      "Ġdrawer": 8266,
      "1528": 8267,
      "Ġconvert": 8268,
      "ĠAmerica": 8269,
      "ĠAmerican": 8270,
      "Ġdisgraceful": 8271,
      "Seriously": 8272,
      "ĠPodcasts": 8273,
      "ĠACCOU": 8274,
      "ĠBusiness": 8275,
      "Ġredundant": 8276,
      "Ġsuperior": 8277,
      "69": 8278,
      "FORE": 8279,
      "met": 8280,
      "name": 8281,
      "rong": 8282,
      "xl": 8283,
      "Ġsi": 8284,
      "Ġsis": 8285,
      "around": 8286,
      "stop": 8287,
      "ĠTAKE": 8288,
      "allow": 8289,
      "ali": 8290,
      "ĠSEE": 8291,
      "ĠSOM": 8292,
      "Ġshape": 8293,
      "Ġalign": 8294,
      "Ġmale": 8295,
      "ĠMark": 8296,
      "Ġatro": 8297,
      "Ġexcel": 8298,
      "ĠLife": 8299,
      "ĠOften": 8300,
      "These": 8301,
      "ĠEat": 8302,
      "Ġcouldnt": 8303,
      "atures": 8304,
      "Ġstoring": 8305,
      "ĠiPods": 8306,
      "Ġdelivers": 8307,
      "Ġminus": 8308,
      "ĠRead": 8309,
      "Who": 8310,
      "Ġ612": 8311,
      "Ġterm": 8312,
      "Ġregion": 8313,
      "Ġgrown": 8314,
      "Ġconserv": 8315,
      "Ġtracker": 8316,
      "Ġcosting": 8317,
      "Ġaccurately": 8318,
      "ĠRecent": 8319,
      "ĠADS": 8320,
      "Ġconfirmed": 8321,
      "Ġcontinuous": 8322,
      "Ġidentity": 8323,
      "Ġinterrupting": 8324,
      "Ġapprove": 8325,
      "Ġhurts": 8326,
      "Ġlegal": 8327,
      "Ġultim": 8328,
      "ĠVIDEOS": 8329,
      "Ġdeactivate": 8330,
      "Ġpunct": 8331,
      "2351": 8332,
      "Ġunskippable": 8333,
      "ĠOctober": 8334,
      "Ġ861528": 8335,
      "Ġ8615282351": 8336,
      "==": 8337,
      "Poor": 8338,
      "XT": 8339,
      "hg": 8340,
      "ÃĭÄ": 8341,
      "Ġfuss": 8342,
      "Ġnu": 8343,
      "asc": 8344,
      "stit": 8345,
      "ĠSurely": 8346,
      "ĠGoo": 8347,
      "Ġvast": 8348,
      "ĠBO": 8349,
      "ĠBEEN": 8350,
      "ĠNone": 8351,
      "Ġmainst": 8352,
      "ÄłK": 8353,
      "ĠFire": 8354,
      "ĠFiles": 8355,
      "ĠEm": 8356,
      "asty": 8357,
      "Ġagent": 8358,
      "Ġmanip": 8359,
      "Ġprecise": 8360,
      "OSE": 8361,
      "Ġversa": 8362,
      "acha": 8363,
      "Ġstrength": 8364,
      "ĠSTOR": 8365,
      "Ã«Åł": 8366,
      "Ġstrang": 8367,
      "ĠBEFORE": 8368,
      "ĠYours": 8369,
      "clear": 8370,
      "ĠCrap": 8371,
      "Ġmassively": 8372,
      "ĠDELETED": 8373,
      "Ġresponsibility": 8374,
      "Ġequip": 8375,
      "ĠCOVID": 8376,
      "SOLUT": 8377,
      "Ġresource": 8378,
      "Ġargum": 8379,
      "ĠObviously": 8380,
      "Ġbeneficial": 8381,
      "01": 8382,
      "Aut": 8383,
      "Oh": 8384,
      "Rest": 8385,
      "XX": 8386,
      "ders": 8387,
      "fa": 8388,
      "han": 8389,
      "yle": 8390,
      "Ġmaster": 8391,
      "Ġduration": 8392,
      "lder": 8393,
      "Ġalter": 8394,
      "ĠMUS": 8395,
      "imate": 8396,
      "ĠHARD": 8397,
      "Ġrecurring": 8398,
      "inds": 8399,
      "Ġagre": 8400,
      "Ġamazingly": 8401,
      "Ġsmh": 8402,
      "Ġlessons": 8403,
      "Ġpressure": 8404,
      "Ġdifficulties": 8405,
      "exus": 8406,
      "Ġarrival": 8407,
      "Ġautocorrect": 8408,
      "ĠSTRE": 8409,
      "ĠChromebook": 8410,
      "ĠSomeone": 8411,
      "Ġhitting": 8412,
      "ĠRecommended": 8413,
      "eyebrow": 8414,
      "Ġguidelines": 8415,
      "Ġexposure": 8416,
      "Ġmainstream": 8417,
      "By": 8418,
      "DER": 8419,
      "FE": 8420,
      "dog": 8421,
      "ipped": 8422,
      "lated": 8423,
      "pot": 8424,
      "Ġthick": 8425,
      "Ġwild": 8426,
      "Ġmb": 8427,
      "Ġcooking": 8428,
      "Ġlic": 8429,
      "ĠTab": 8430,
      "Ġstability": 8431,
      "ĠSay": 8432,
      "ghter": 8433,
      "Ġjack": 8434,
      "Ġjud": 8435,
      "Ġdear": 8436,
      "unication": 8437,
      "Ġblah": 8438,
      "uds": 8439,
      "ĠReview": 8440,
      "ieved": 8441,
      "Ġrefine": 8442,
      "Ġfeelings": 8443,
      "Ġtransp": 8444,
      "Â¦Â¸": 8445,
      "Ġextreme": 8446,
      "Ã¡Å¸": 8447,
      "Ġsecret": 8448,
      "Ġtranslated": 8449,
      "Ġclassic": 8450,
      "ĠProf": 8451,
      "Ġpara": 8452,
      "ĠLoads": 8453,
      "Ġjoining": 8454,
      "Ġtrusted": 8455,
      "Ġholidays": 8456,
      "Ġultra": 8457,
      "Ġamongst": 8458,
      "Ġfamiliar": 8459,
      "Ġdollars": 8460,
      "Ġtasty": 8461,
      "Ġcancelling": 8462,
      "amental": 8463,
      "II": 8464,
      "TE": 8465,
      "food": 8466,
      "vin": 8467,
      "Ġward": 8468,
      "Ġwitch": 8469,
      "reate": 8470,
      "Ġbubb": 8471,
      "Ġnuts": 8472,
      "Ġped": 8473,
      "ani": 8474,
      "ancing": 8475,
      "Ġstone": 8476,
      "ĠSaf": 8477,
      "Ġprove": 8478,
      "ĠBY": 8479,
      "Ġride": 8480,
      "Äło": 8481,
      "Äłbe": 8482,
      "Ġdownfall": 8483,
      "ËľâĢ¢": 8484,
      "versity": 8485,
      "umber": 8486,
      "ĠApparently": 8487,
      "Ġtiming": 8488,
      "Ġheight": 8489,
      "Ġsimultane": 8490,
      "Ġcustomizable": 8491,
      "ĠStaff": 8492,
      "Ġhighest": 8493,
      "Ġcreation": 8494,
      "Ġhalfway": 8495,
      "Ġdesigner": 8496,
      "Ġexpectations": 8497,
      "ĠUninstalled": 8498,
      "Ġgenerated": 8499,
      "Ġtransferring": 8500,
      "ĠSpanish": 8501,
      "Chrome": 8502,
      "ĠTrash": 8503,
      "ĠGenerally": 8504,
      "Ġcombined": 8505,
      "ermes": 8506,
      "Ġencrypted": 8507,
      "Ġcycle": 8508,
      "Ġomg": 8509,
      "Ġinvented": 8510,
      "Ġobsessed": 8511,
      "ĠFebruary": 8512,
      "Ġpounds": 8513,
      "urope": 8514,
      "umbersome": 8515,
      "ĠBETTER": 8516,
      "ĠUltra": 8517,
      "FI": 8518,
      "faces": 8519,
      "Ġfits": 8520,
      "Ġoo": 8521,
      "Ġongoing": 8522,
      "ĠTweet": 8523,
      "ĠACT": 8524,
      "Ġneighb": 8525,
      "Ġsex": 8526,
      "Ġvile": 8527,
      "ĠÃĹ": 8528,
      "ĠÃļ": 8529,
      "ursing": 8530,
      "Äłim": 8531,
      "Ġwouldnt": 8532,
      "ĠDue": 8533,
      "Ġcontext": 8534,
      "ÂĿâĦ¢": 8535,
      "mobile": 8536,
      "Ġacts": 8537,
      "Ġtakeaway": 8538,
      "ully": 8539,
      "Ġsports": 8540,
      "ĠInstant": 8541,
      "ivo": 8542,
      ".......": 8543,
      "Ġsubscriber": 8544,
      "Ġsky": 8545,
      "lieved": 8546,
      "ĠUninstall": 8547,
      "Ġrestriction": 8548,
      "Ġgreed": 8549,
      "Plz": 8550,
      "Ġ:-(": 8551,
      "Ġstructure": 8552,
      "Ġapprox": 8553,
      "Ġdropping": 8554,
      "Ġshortcuts": 8555,
      "Ġobjects": 8556,
      "Ġbullying": 8557,
      "ĠSheets": 8558,
      "ÃĻÆĴÃĻ": 8559,
      "Ġpercentage": 8560,
      "ĠListen": 8561,
      "Ġpattern": 8562,
      "Ġhorizont": 8563,
      "Ġsituations": 8564,
      "Ġscientific": 8565,
      "-)": 8566,
      "Point": 8567,
      "lus": 8568,
      "new": 8569,
      "rid": 8570,
      "xi": 8571,
      "Ġtapped": 8572,
      "ints": 8573,
      "Ġwicked": 8574,
      "Ġburn": 8575,
      "Ġbound": 8576,
      "Ġborder": 8577,
      "Ġfear": 8578,
      "Ġnah": 8579,
      "Ġpu": 8580,
      "Ġelect": 8581,
      "eter": 8582,
      "Ġstalk": 8583,
      "Ġvs": 8584,
      "Ġved": 8585,
      "esting": 8586,
      "ulations": 8587,
      "Ġmand": 8588,
      "ĠMedia": 8589,
      "ĠFre": 8590,
      "ĠDa": 8591,
      "ĠLens": 8592,
      "ĠHermes": 8593,
      "Ġdisput": 8594,
      "Ġhappier": 8595,
      "Ġspelling": 8596,
      "Ġgrouping": 8597,
      "Ġslick": 8598,
      "being": 8599,
      "beating": 8600,
      "Ġfossil": 8601,
      "aky": 8602,
      "Ġvoicemail": 8603,
      "dddd": 8604,
      "Ġfactor": 8605,
      "Ġbrowsers": 8606,
      "Ġpreference": 8607,
      "cloud": 8608,
      "Ġfiltering": 8609,
      "ÂºÃ¯": 8610,
      "Ġpresented": 8611,
      "Ġefficiently": 8612,
      "levision": 8613,
      "Ġfocused": 8614,
      "Ġconsumer": 8615,
      "Ġoutfits": 8616,
      "Ã°Å¸ÅĴÅ¸": 8617,
      "ÃĳÆĴÃĲ": 8618,
      "ĠSTARS": 8619,
      "Ġretailer": 8620,
      "Ġurgently": 8621,
      "Ġexclusive": 8622,
      "Ġcommercials": 8623,
      "ÃĤÄ¿": 8624,
      "ĠSadly": 8625,
      "ufact": 8626,
      "RubbishRubbish": 8627,
      "Ġrapid": 8628,
      "Ġequipment": 8629,
      "ĠMUSIC": 8630,
      "CON": 8631,
      "broken": 8632,
      "eg": 8633,
      "gles": 8634,
      "lam": 8635,
      "nause": 8636,
      "Ġmu": 8637,
      "Ġmigr": 8638,
      "Ġball": 8639,
      "Ġcents": 8640,
      "Ġpitch": 8641,
      "Ġlunch": 8642,
      "thanks": 8643,
      "ĠÃİ": 8644,
      "Ġatm": 8645,
      "ĠCor": 8646,
      "imin": 8647,
      "Ġfell": 8648,
      "icking": 8649,
      "Ġoverl": 8650,
      "Ġ--": 8651,
      "Ġcru": 8652,
      "Ġimpact": 8653,
      "Ġtalked": 8654,
      "Ġmemes": 8655,
      "Ġcorrected": 8656,
      "Ġdetailed": 8657,
      "ĠProgram": 8658,
      "ĠFirstly": 8659,
      "Ġestablish": 8660,
      "Ġanimations": 8661,
      "Ġconfigure": 8662,
      "ĠCovid": 8663,
      "Ġconvo": 8664,
      "Ġalphabetical": 8665,
      "Ġmakers": 8666,
      "Ġpropag": 8667,
      "Ġindependent": 8668,
      "Ġmatters": 8669,
      "ĠTERRIBLE": 8670,
      "!)": 8671,
      "ML": 8672,
      "Stop": 8673,
      "hey": 8674,
      "link": 8675,
      "mes": 8676,
      "men": 8677,
      "tc": 8678,
      "Ġies": 8679,
      "inary": 8680,
      "Ġbang": 8681,
      "ork": 8682,
      "orage": 8683,
      "oroughly": 8684,
      "Ġder": 8685,
      "Ġhiding": 8686,
      "sec": 8687,
      "chool": 8688,
      "ague": 8689,
      "ĠWR": 8690,
      "Ġconstru": 8691,
      "amil": 8692,
      "ĠPart": 8693,
      "ĠDr": 8694,
      "Ġrecomend": 8695,
      "Ġfemale": 8696,
      "izon": 8697,
      "INT": 8698,
      "Ġspons": 8699,
      "ipts": 8700,
      "ĠChar": 8701,
      "ĠÃĤÄ": 8702,
      "Ġproductivity": 8703,
      "mitt": 8704,
      "ahoo": 8705,
      "Ġpausing": 8706,
      "EDIT": 8707,
      "Ġcaptions": 8708,
      "Ġpainting": 8709,
      "hob": 8710,
      "ĠSec": 8711,
      "ĠMovies": 8712,
      "Ġtitles": 8713,
      "Ġresets": 8714,
      "ĠUpdates": 8715,
      "Ġresponsible": 8716,
      "ĠNEEDS": 8717,
      "AKING": 8718,
      "Ġtelephone": 8719,
      "ĠSaved": 8720,
      "Ġaspects": 8721,
      "ĠRegards": 8722,
      "ĠMini": 8723,
      "Ġcousin": 8724,
      "ĠAfrica": 8725,
      "Ġagenda": 8726,
      "nauseated": 8727,
      "17": 8728,
      "65": 8729,
      "Bas": 8730,
      "High": 8731,
      "IES": 8732,
      "Inc": 8733,
      "Sorry": 8734,
      "UE": 8735,
      "ham": 8736,
      "yellow": 8737,
      "Ġ00": 8738,
      "Ġah": 8739,
      "Ġating": 8740,
      "Ġaim": 8741,
      "Ġwoman": 8742,
      "reh": 8743,
      "Ġcas": 8744,
      "Ġft": 8745,
      "Ġoops": 8746,
      "Ġish": 8747,
      "ĠTim": 8748,
      "ĠTitle": 8749,
      "adv": 8750,
      "Ġlim": 8751,
      "Ġconcl": 8752,
      "ĠBIG": 8753,
      "ural": 8754,
      "ĠNight": 8755,
      "ĠMap": 8756,
      "ĠMarch": 8757,
      "ĠCol": 8758,
      "ĠES": 8759,
      "Ġdisaster": 8760,
      "Ġ27": 8761,
      "deem": 8762,
      "ĠAppStore": 8763,
      "Ġpermit": 8764,
      "tones": 8765,
      "Ġcheers": 8766,
      "Ġstreets": 8767,
      "Ġclever": 8768,
      "ĠChina": 8769,
      "Ġavailability": 8770,
      "Ġslows": 8771,
      "Ġproduce": 8772,
      "Ġlayers": 8773,
      "Ġclearer": 8774,
      "ANG": 8775,
      "Ġenjoyment": 8776,
      "Ġfastest": 8777,
      "âĢĻÂ¸": 8778,
      "ĠAbout": 8779,
      "Ġrole": 8780,
      "Ġheadphone": 8781,
      "Ġpromo": 8782,
      "aaa": 8783,
      "Ġadvised": 8784,
      "autiful": 8785,
      "Ġrooms": 8786,
      "ĠYTM": 8787,
      "ÃĻËĨÃĻ": 8788,
      "Ġpractice": 8789,
      "Ġapproach": 8790,
      "kkkk": 8791,
      "Ġdetection": 8792,
      "Ġhacker": 8793,
      "nnnn": 8794,
      "Ġunbelievable": 8795,
      "Ġinteractive": 8796,
      "Ġarrange": 8797,
      "ĠOpen": 8798,
      "ĠGIFs": 8799,
      "Ġparticipants": 8800,
      "snake": 8801,
      "Ġexercise": 8802,
      "Ġreappear": 8803,
      "ĠSOMET": 8804,
      "Connect": 8805,
      "PL": 8806,
      "ROU": 8807,
      "Up": 8808,
      "rt": 8809,
      "sav": 8810,
      "Ġtaste": 8811,
      "Ġfather": 8812,
      "Ġnt": 8813,
      "Ġpp": 8814,
      "Ġpink": 8815,
      "Ġdied": 8816,
      "ancy": 8817,
      "ppa": 8818,
      "Ġgeo": 8819,
      "Ġlying": 8820,
      "Ġbear": 8821,
      "ĠTell": 8822,
      "ĠSiri": 8823,
      "ths": 8824,
      "Ġmeals": 8825,
      "Ġworrying": 8826,
      "ĠWA": 8827,
      "apes": 8828,
      "Ġdepart": 8829,
      "Ġweak": 8830,
      "ĠBang": 8831,
      "ĠPUT": 8832,
      "ÄłJ": 8833,
      "ĠFl": 8834,
      "ĠError": 8835,
      "astically": 8836,
      "Ġmanufact": 8837,
      "ĠVers": 8838,
      "Ġcoordin": 8839,
      "Ġtexted": 8840,
      "IND": 8841,
      "Ġsliced": 8842,
      "Ġpron": 8843,
      "plete": 8844,
      "Ġbasics": 8845,
      "Ġxox": 8846,
      "Ġsooner": 8847,
      "Ġacce": 8848,
      "Ġcounts": 8849,
      "Ġdeter": 8850,
      "Ġreplacing": 8851,
      "Ġtranslations": 8852,
      "Ġrelig": 8853,
      "Ġbothering": 8854,
      "ĠGoing": 8855,
      "rupted": 8856,
      "Ġtempl": 8857,
      "ĠSnapChat": 8858,
      "Ġsusp": 8859,
      "Ġpolicies": 8860,
      "Ġexplained": 8861,
      "Ġdigit": 8862,
      "Ġrebooting": 8863,
      "ĠAccording": 8864,
      "Ġpissing": 8865,
      "Ġreconnecting": 8866,
      "PTION": 8867,
      "Ġashamed": 8868,
      "Ġbubbles": 8869,
      "Currently": 8870,
      "DD": 8871,
      "Ever": 8872,
      "Looks": 8873,
      "OB": 8874,
      "Sad": 8875,
      "VING": 8876,
      "black": 8877,
      "fast": 8878,
      "gely": 8879,
      "ht": 8880,
      "mal": 8881,
      "ogn": 8882,
      "xic": 8883,
      "ÅĤ": 8884,
      "Ġsatellite": 8885,
      "Ġwer": 8886,
      "Ġfot": 8887,
      "Ġgut": 8888,
      "Ġgig": 8889,
      "ĠappÃ°Å¸": 8890,
      "Ġredeem": 8891,
      "ĠTable": 8892,
      "ĠTasks": 8893,
      "Ġdosent": 8894,
      "ĠSW": 8895,
      "ĠSept": 8896,
      "Ġvi": 8897,
      "ĠÃ¥": 8898,
      "Ġadapt": 8899,
      "ationally": 8900,
      "urs": 8901,
      "ĠMB": 8902,
      "Ġabit": 8903,
      "ĠHAD": 8904,
      "Ġrecyc": 8905,
      "Ġscans": 8906,
      "Ġtalent": 8907,
      "loaded": 8908,
      "ĠRID": 8909,
      "Ġleading": 8910,
      "ffo": 8911,
      "ÃłÂª": 8912,
      "Ġsentences": 8913,
      "Ġxs": 8914,
      "Ġdecisions": 8915,
      "ASS": 8916,
      "ĠFaceBook": 8917,
      "Ġzone": 8918,
      "Ġflu": 8919,
      "ĠDev": 8920,
      "atively": 8921,
      "Ġattend": 8922,
      "Ġattract": 8923,
      "Ġlearnt": 8924,
      "ENS": 8925,
      "isingly": 8926,
      "Ġclassroom": 8927,
      "Ġfaulty": 8928,
      "Ġdealing": 8929,
      "Ġrefreshed": 8930,
      "Ġmodify": 8931,
      "Ġthousand": 8932,
      "yees": 8933,
      "Ġharass": 8934,
      "Ġtemperature": 8935,
      "ĠKEEP": 8936,
      "ĠFavour": 8937,
      "Ġinconsistent": 8938,
      "halo": 8939,
      "Ġnatural": 8940,
      "Ġrepetitive": 8941,
      "Ġatrocious": 8942,
      "Ġrecycled": 8943,
      "AW": 8944,
      "Tot": 8945,
      "pay": 8946,
      "Ġou": 8947,
      "Ġtok": 8948,
      "ĠIv": 8949,
      "Ġyrs": 8950,
      "etch": 8951,
      "alking": 8952,
      "ĠSwitch": 8953,
      "Ġchinese": 8954,
      "ulation": 8955,
      "ĠBo": 8956,
      "ĠNove": 8957,
      "Ġkorean": 8958,
      "Ġmoon": 8959,
      "umer": 8960,
      "Ġscale": 8961,
      "isted": 8962,
      "Ġquarant": 8963,
      "Ġmanner": 8964,
      "ĠRU": 8965,
      "ËľÂ©": 8966,
      "Ġintellig": 8967,
      "Ġheld": 8968,
      "Ġarm": 8969,
      "Ġcustomisation": 8970,
      "ATES": 8971,
      "ĠChannel": 8972,
      "Â§Âģ": 8973,
      "ension": 8974,
      "âĦ¢âĤ¬": 8975,
      "Ġproperty": 8976,
      "Ġdiscord": 8977,
      "Ġsurv": 8978,
      "Ġflies": 8979,
      "Ġskin": 8980,
      "Ġprompts": 8981,
      "mmm": 8982,
      "ĠSnapseed": 8983,
      "lence": 8984,
      "Ġactively": 8985,
      "Ġinterruptions": 8986,
      "Ġcollected": 8987,
      "Okay": 8988,
      "Useful": 8989,
      "Ġstressful": 8990,
      "uggy": 8991,
      "ĠPLS": 8992,
      "ahahahah": 8993,
      "Ġthreads": 8994,
      "Ġqr": 8995,
      "ĠABSOLUT": 8996,
      "Ġresources": 8997,
      "Ġcollaboration": 8998,
      "ĠEDIT": 8999,
      "ĠTalkBack": 9000,
      "Ġguaranteed": 9001,
      "Ġmobiles": 9002,
      "Ġextension": 9003,
      "ĠACCOUNT": 9004,
      "95": 9005,
      "BUT": 9006,
      "Cl": 9007,
      "IA": 9008,
      "Lots": 9009,
      "after": 9010,
      "aired": 9011,
      "dr": 9012,
      "Ġbes": 9013,
      "Ġfuming": 9014,
      "Ġnamed": 9015,
      "Ġdying": 9016,
      "enomen": 9017,
      "Ġgiant": 9018,
      "Ġles": 9019,
      "icate": 9020,
      "Ġreference": 9021,
      "ĠTweets": 9022,
      "ĠThree": 9023,
      "Ġsoci": 9024,
      "ĠWaze": 9025,
      "ĠWaited": 9026,
      "Ġphr": 9027,
      "losed": 9028,
      "ĠCALL": 9029,
      "Ġexcess": 9030,
      "ĠOption": 9031,
      "ĠEnd": 9032,
      "Ġdisli": 9033,
      "Ġfreely": 9034,
      "Ġworkspace": 9035,
      "Ġtheirs": 9036,
      "grav": 9037,
      "Ġcommit": 9038,
      "Ġpriced": 9039,
      "Ġreviewed": 9040,
      "Ġconfusion": 9041,
      "Ġfaith": 9042,
      "Ġrule": 9043,
      "whel": 9044,
      "Ġprime": 9045,
      "veloper": 9046,
      "OOD": 9047,
      "ÅłÃ¡": 9048,
      "Ġearphones": 9049,
      "Å½Ã°": 9050,
      "Ġapk": 9051,
      "Ġskype": 9052,
      "ĠSuggest": 9053,
      "Äłsp": 9054,
      "ĠAdam": 9055,
      "Ġbehalf": 9056,
      "Ġutube": 9057,
      "ĠPokemon": 9058,
      "ĠIPad": 9059,
      "ĠContin": 9060,
      "Ġinitially": 9061,
      "respect": 9062,
      "Ġaffecting": 9063,
      "Ġmotion": 9064,
      "Ġemploy": 9065,
      "Ġemployees": 9066,
      "Ġfloating": 9067,
      "ĠPROBLE": 9068,
      "Ġpraise": 9069,
      "Ġjeans": 9070,
      "Ġpewdiepie": 9071,
      "Ġtraditional": 9072,
      "CI": 9073,
      "Camera": 9074,
      "Hard": 9075,
      "Id": 9076,
      "Over": 9077,
      "Pal": 9078,
      "bre": 9079,
      "nced": 9080,
      "uk": 9081,
      "Ġiron": 9082,
      "Ġthie": 9083,
      "ato": 9084,
      "Ġcale": 9085,
      "Ġnav": 9086,
      "eng": 9087,
      "Ġlou": 9088,
      "Ġappl": 9089,
      "step": 9090,
      "rive": 9091,
      "ĠWaiting": 9092,
      "Ġasleep": 9093,
      "Ġshift": 9094,
      "Ġgoodbye": 9095,
      "ĠYEAR": 9096,
      "ĠPe": 9097,
      "ĠFU": 9098,
      "Though": 9099,
      "ĠEM": 9100,
      "Ġtelevision": 9101,
      "Ġ31": 9102,
      "ferent": 9103,
      "ÂĿâĢŀ": 9104,
      "Ġsnapscore": 9105,
      "iantly": 9106,
      "Ġreceipts": 9107,
      "Ġseemingly": 9108,
      "Ġelimin": 9109,
      "Â°âĤ¬": 9110,
      "âĢ¢Ëľ": 9111,
      "Ġbothers": 9112,
      "âĢĻâĢ¢": 9113,
      "ĠWHERE": 9114,
      "Ġrequesting": 9115,
      "Ġtranslator": 9116,
      "OMM": 9117,
      "Ġforwarding": 9118,
      "Ġ2013": 9119,
      "Ġcalories": 9120,
      "Äłsu": 9121,
      "ĠING": 9122,
      "zzzz": 9123,
      "ĠSelect": 9124,
      "Ġsnapping": 9125,
      "Ġopposed": 9126,
      "Ġdescribed": 9127,
      "Ġprotected": 9128,
      "Ġrebooted": 9129,
      "Without": 9130,
      "Ġperspective": 9131,
      "Ġpanor": 9132,
      "Ġtelegram": 9133,
      "Ġtends": 9134,
      "Ġsubmitted": 9135,
      "Ġsignificant": 9136,
      "ĠPaul": 9137,
      "Ġhooked": 9138,
      "Definitely": 9139,
      "Ġdispute": 9140,
      "ĠNovember": 9141,
      "Act": 9142,
      "Gu": 9143,
      "Phot": 9144,
      "Until": 9145,
      "fin": 9146,
      "hundred": 9147,
      "uous": 9148,
      "Ġsons": 9149,
      "ergy": 9150,
      "Ġtor": 9151,
      "Ġdirty": 9152,
      "isable": 9153,
      "Ġlady": 9154,
      "Ġdod": 9155,
      "Ġseper": 9156,
      "ĠSing": 9157,
      "ĠSubscribe": 9158,
      "ĠBoth": 9159,
      "urger": 9160,
      "ĠNavigation": 9161,
      "ÄłSt": 9162,
      "ĠMUST": 9163,
      "anges": 9164,
      "Ġexam": 9165,
      "ĠLi": 9166,
      "Ġdisagree": 9167,
      "oph": 9168,
      "Ġawsome": 9169,
      "Ġcomprom": 9170,
      "Ġincom": 9171,
      "Ġlayer": 9172,
      "Â¦Â®": 9173,
      "âĢ¡Â§": 9174,
      "Ġgrade": 9175,
      "ooooo": 9176,
      "ĠXiaomi": 9177,
      "Ġsolutions": 9178,
      "âĢĻÂ¯": 9179,
      "Ġamounts": 9180,
      "ĠTech": 9181,
      "Ġpleasant": 9182,
      "ĠZoom": 9183,
      "Ġbillion": 9184,
      "ÃĺÂªÃĻ": 9185,
      "Ġconsumers": 9186,
      "ĠANYTHING": 9187,
      "mission": 9188,
      "Ġestimate": 9189,
      "IFI": 9190,
      "Ġvanished": 9191,
      "Perfect": 9192,
      "Ġforums": 9193,
      "Ġflexible": 9194,
      "ĠIncred": 9195,
      "Ġsauce": 9196,
      "ĠHORRIBLE": 9197,
      "Ġpunctuation": 9198,
      "ACE": 9199,
      "Des": 9200,
      "Download": 9201,
      "Ive": 9202,
      "SION": 9203,
      "Yet": 9204,
      "ba": 9205,
      "bf": 9206,
      "ias": 9207,
      "ui": 9208,
      "Ġtiles": 9209,
      "Ġak": 9210,
      "Ġsd": 9211,
      "eres": 9212,
      "Ġwether": 9213,
      "Ġwiped": 9214,
      "oning": 9215,
      "atile": 9216,
      "relieved": 9217,
      "Ġcumbersome": 9218,
      "orer": 9219,
      "Ġpal": 9220,
      "asive": 9221,
      "ott": 9222,
      "utes": 9223,
      "ĠTex": 9224,
      "Ġvlog": 9225,
      "ulated": 9226,
      "Ġproceed": 9227,
      "urd": 9228,
      "ĠNexus": 9229,
      "ĠMr": 9230,
      "ĠMAD": 9231,
      "Ġplugged": 9232,
      "ĠCE": 9233,
      "Ġoutrage": 9234,
      "ĠHalf": 9235,
      "Ġfellow": 9236,
      "arest": 9237,
      "oping": 9238,
      "Ġprecious": 9239,
      "ËľÂ¬": 9240,
      "ĠSocial": 9241,
      "Ġclos": 9242,
      "Â®âĢ¡": 9243,
      "Ġrequiring": 9244,
      "Ġsecs": 9245,
      "CKS": 9246,
      "Ã¬Å¡": 9247,
      "monkey": 9248,
      "Ġpleasing": 9249,
      "Ġxxxx": 9250,
      "Ġspreadshe": 9251,
[...]
