#version: 0.2
Ġ t
Ġ a
Ġ i
Ġt h
Ġ s
i n
e r
Ġ w
o n
a t
r e
Ġ m
o u
Ġth e
Ġ b
n d
in g
Ġ c
Ġ f
Ġt o
Ġ I
o r
e s
Ġ n
l e
Ġ p
Ġi t
Ġ .
Ġ d
e n
Ġ h
Ġa nd
a n
p p
Ġ u
l l
e d
Ġ o
Ġ g
i s
Ġ l
a s
v e
i t
Ġa pp
Ġi s
i c
o t
o m
a r
Ġ y
v er
Ġ on
Ġ e
s t
Ġ re
Ġb e
o w
u t
Ġy ou
o o
Ġ ,
Ġi n
Ġw h
Ġh a
s e
Ġo f
Ġ !
l y
a y
Ġm y
c h
Ġ '
Ġf or
' t
e t
i on
a c
k e
Ġth is
Ġ T
a ll
Ġs t
l d
Ġu p
i d
it h
Ġb ut
Ġn ot
at e
Ġha ve
Ġa n
Ġ A
a d
Ġc an
Ġd o
Ġth at
r o
Ġw ith
on e
r i
m e
Ġn e
a l
Ġs e
en t
ver y
Ġ S
b le
ou ld
ĠT h
es s
Ġs o
t h
t er
Ġm e
Ġ G
u st
Ġc h
Ġl o
Ġ v
c t
Ġw or
a g
Ġup d
oo d
ou t
Ġ W
Ġ ?
Ġl i
a p
all y
Ġu se
er e
e o
Ġu s
Ġa s
Ġs h
Ġ or
e l
. .
Ġa ll
Ġ :
g h
an t
o re
Ġc on
re at
i l
Ġ Ã
om e
Ġupd ate
Ġ j
Ġt i
Ġwh en
Ġp h
i ll
ac k
c e
Ġwor k
a m
es t
Ġa re
Ġa d
p le
Ġg et
Ġli ke
Ġa l
at ion
Ġw as
Ġd e
Ġg ood
u l
ic e
ĠI t
n t
u b
â Ģ
Ġw e
le as
Ġ Y
Ġp ro
u re
Ġ B
Ġj ust
Ġf r
n ap
er s
Ġ r
Ġ P
l o
u r
Ġ N
Ġi f
u s
Ġf i
Ġc om
Ġm ess
leas e
Ġan y
Ġyou r
Ġm a
g le
Ġti me
Ġn ow
Ġne w
Ġh as
Ġo p
i f
e ar
Ġv id
oo gle
t ing
p e
Ä ł
u n
s o
ĠW h
Ġfr om
Ġn o
Ġ M
ĠTh e
an g
Ġvid eo
Ġw ould
Ġe very
Ġa t
Ġwh at
Ġp l
ĠY ou
Ġb ack
ac e
e w
Ġthe y
Ġph one
Ġmess ag
t s
Ġ C
ay s
v en
Ġg reat
e p
' s
Ġ k
Ġlo ve
ch at
a u
Ġg o
e nd
nap chat
Ġ ke
k s
ub e
Ġth ere
Ġt r
Ġe x
Ġdo es
Ġon e
Ġa m
Ġ very
ow n
Ġ F
q u
Ġm o
a in
Ġ 1
Ġ D
i m
Ġse e
Å ¸
au se
Ġbe c
c c
Ġne ed
Ġa b
Ġ out
ri end
i ve
Ġ L
u m
Ġre ally
Ġs a
Ġ O
gh t
Ġ H
T h
° Å¸
Ġ E
Ġt e
Ġf riend
th er
Ġm ore
eo ple
Ġe as
as t
r ou
i r
Ġon ly
Ġs ome
e ct
u ch
Ġp eople
le t
Ġp o
a ble
Ġre c
c k
Ġw ant
in d
Ġfi x
ar d
on g
Ġw ill
Ġbe en
ou r
Ġad d
h ing
Ġbec ause
ĠG oogle
t ion
Ġch ang
i g
Ġf e
Ġa cc
it e
Ġcon t
Ġst ar
Ġe ven
Ġd is
Ġs c
Ġu n
ĠYou T
Ġth an
re e
Ġke ep
Ġd own
ĠYouT ube
at s
a pp
or t
Ġa g
Ġo ther
ĠTh is
y ing
a nd
at ch
is t
it y
i ew
Ġth ing
ic k
s s
Ġ 2
Ġfriend s
Ġse nd
â Ĥ
âĤ ¬
a re
in e
Ġ qu
Ġt a
o p
om et
Ġm an
v ing
Ġha d
Ġi m
Ġ U
Ġthe m
Ġs u
Ġw ay
ou nt
ble m
lo ad
ic h
Ġh ow
ic ation
k ing
i le
f ul
Ġp lease
Ġp re
Ġeas y
Ġthe n
Ġpro blem
Ġus ing
Ġc ould
Ġof f
Ġm uch
Ġk n
Ġ (
Ġbe t
ag e
a il
Ġw atch
Ġma ke
i es
Ã °Å¸
f ace
u e
Ġf ree
v ice
th ing
el i
Ġ. ..
Ġto o
Ġwh ich
p l
e m
I t
Ġ V
ot h
Ġop tion
Ġkn ow
at ed
f ter
d er
d e
ĠÃ ¢
Ġs omet
Ġ 5
Ġsh ould
o s
Ġvideo s
p er
ĠG reat
o ve
re en
Ġ R
x t
ac t
in k
ou s
Ġb y
Ġus ed
a z
Ġc all
Ġab out
at ure
el p
m ent
Ġp ic
Ë ľ
Ġst ill
Ġs er
Ġchang e
Ġc l
n o
Ġs napchat
Ġbet ter
Ġmessag es
Ġ "
Ġo ver
v ed
Ġfe ature
Ġwh o
Ġb est
ĠS napchat
i ly
Ġpl ay
w ays
Ġb u
ver s
at ing
Ġop en
Ġman y
Ġc o
Ġsc reen
Ġst or
ĠWh ats
k es
Ġl oo
Ġsh ow
Ġis s
er y
Ġh elp
Ġal so
Ġin st
a me
e ver
Ġ -
Ġ en
Ġc r
re d
is h
Ġf ind
Ġ le
Ġapp s
l i
Ġa fter
f f
az ing
ct ion
Ġa ble
or m
Ġd on
Ġi P
h one
n ect
Ġd eli
Ġ 3
Ġdown load
Ġph ot
A pp
Ġag ain
Ġs ay
a v
Ġha pp
in ce
Ġacc ount
ĠG ood
Ġth ink
Ġit s
ou gh
Ġde let
Ġl ot
Ġd id
Ġo ld
Ġv iew
c i
ar t
t ure
Ġan no
Ġin t
Ġmessag e
um b
Ġwe ll
Ġor der
Ġal ways
Ġa w
Ġl ong
ĠP lease
f er
Ġs et
Ġy ear
Â Ŀ
ur n
Ġwh y
m o
ĠA pp
Ġwork ing
f ore
ul t
Ġch at
g g
c on
a b
e y
Ġp er
Ġf un
ĠWhats App
Ġcon nect
Ġ )
Ġim p
Ġwith out
Ġpic ture
Ã ł
Ġ let
ĠL ove
l f
in t
Ġg ot
if ication
le d
Ġwork s
Ġti m
Ġthe ir
Ġanno ying
u p
b o
.. .
e ly
us ic
Ġin ter
! !
ĠV ery
Ġser vice
me nd
Ġne ver
Ġg ive
as h
Ġd ay
Ġwh ere
Ġad s
Ġs pe
O S
om mend
ig n
Ġam azing
l ess
Ġe ver
Ġd if
ad e
Ġbe fore
Ġ vers
Ġsa me
at es
g r
ĠA nd
an s
Ġb r
Ġsomet hing
Ġrec ommend
u ally
Ġnot ification
w it
id e
Ġs ince
Th e
Â ¤
h ear
Ġvers ion
Ġw r
Ġ1 0
Ġb ad
Ġmo st
Ġb l
Ġus er
f orm
Ġcom p
Ġh e
a ch
so l
ĠS o
in st
Ġtim es
Ġf am
Ġm in
Ġs nap
Ġm usic
Ġ 4
is s
Ġf il
im es
ou nd
i a
an n
Ġn ice
Ġ &
' m
Ġa ct
Ġthing s
Ġs im
u d
Ġbe ing
Ġiss ue
Ġte xt
rou p
Ġl ist
Ġtr y
as s
oth er
rou gh
hear t
Ġdoes n
Ġta ke
Ġevery thing
i z
r y
Ġphot os
Ġre ad
ĠiP hone
Ġth rough
Ġ J
I N
u ll
al ity
Ġg oogle
Ġd es
Ġlo ad
c el
Ġg roup
Ġget ting
Ġfam ily
ĠÃ °Å¸
ar k
en ce
ou ch
ri ll
ĠTh an
or d
Ġha ving
i ght
Ġl ast
a ve
Ġt ri
Ġhapp en
Ġre st
i ous
v iew
Ġstar s
ers on
Ġt urn
Ġint o
ĠN ot
Ġs p
t t
Ġcom m
p t
Ġgo ing
Ġall ow
is e
ust om
ĠT H
w e
ar ch
Ġs l
Ġl at
Ġneed s
Ġe m
Ġdeli very
Th is
o ice
Ġyear s
ri ght
i ant
sol ut
Ã Ĳ
ic es
Ġkeep s
i ble
Ġp ay
Ġa r
Ġsu pp
as on
Ġrec ent
E R
Ġre s
at a
Ġs y
Ġp r
v es
Ġp ut
ĠM y
Ġf ew
Ã ĺ
Ġdelet e
Ġm ade
al led
rill iant
d ay
le nt
Ġany thing
ĠR e
Ġstor ies
Ġs ays
Ġse arch
ĠA l
ĠB ut
t on
Ġc ustom
ĠA S
Ġst op
Å ĵ
W h
Ġa ut
rou nd
w ith
Ġt ouch
d u
ri ble
Ġdis app
Ġh o
Ġ K
o pp
Ġloo k
Ġdif fer
f t
Ġre ason
am er
Ġm on
Ġwhat s
Ġwh ile
l ine
Ġp erson
Ġre ce
Ġ. .
oo l
Ġupd ated
Ã ¢
ro id
nd er
one y
Ġd ata
b e
Ġ /
Ġstar t
Ġf ine
Ġsee m
i re
Ġcont act
y s
i p
Ġin c
Ġacc ess
Ġ our
Ġfi r
f ect
Ġm oney
Ġw o
re ss
d s
amer a
Ġl it
ĠO n
Ġma kes
n ing
Ġa v
h er
Ġbut ton
Ġtri ed
Ġch e
Ġn umb
Ġuse ful
u es
Ġf o
ĠS t
Ġqu ick
Ġad ver
Ġfir st
Ġsomet imes
Ġre view
Ġupd ates
Ġevery one
A T
IN G
Ġnot hing
e ad
Ã Ļ
Ġdiffer ent
Ġw ere
Ġg i
f e
Ġu nder
Ġt y
g e
Ġh ard
Ġ ed
Ġre m
Ġfeature s
cel lent
Ġsome one
ĠI f
re ad
Ġw on
Ġc amera
o y
Ġg u
i gh
Ġbu g
ĠI n
oo k
Ġth ough
Ġ2 0
ic ally
i x
Ġpicture s
Ġde vice
Ġh our
Ġmo de
Ġwhats app
r a
Ġcomm un
Ġst re
per i
nt il
Ġh ate
Ġst u
solut ely
Ġc lo
Ġqu ality
Ġcr ash
e ll
Ġc le
ĠD o
Ġset ting
Ġs m
b er
ĠWh en
bo ard
ple t
i e
Ġ right
Ġmon th
ĠN o
Ġs ub
Ġf av
ĠWh y
Ġc ome
Ġan other
inst all
Ġex peri
on es
Ġfun ction
se lf
Ġd ays
it ing
Ġg l
a k
Ġu ntil
Ġh ome
L E
Ġf ar
w n
ĠWh at
Ġt w
Ġtr ying
Ġlo c
' ve
Ġm iss
P lease
Ġwr ong
m ore
Ġimp ro
v ices
ĠC h
Ġcl ick
Ġper fect
ter s
s c
ck ed
Â į
Ġke y
Ġnotification s
Ġproblem s
Ġte ll
o se
Ġiss ues
B ut
i o
il ity
Ġt al
st em
Ġne xt
Ġany more
Ġview s
Ġw a
Ġb it
Ġsh all
l ication
Ġnumb er
ion s
Ġre p
Ġav ail
Ġe t
âĢ ĺ
Ġcom plet
Ġe l
i me
Ġd one
Ġf ood
Ġw ish
Ġsupp ort
Ġs ent
Ġcon f
Ġwor ld
er t
Ġs ure
Ġre f
wit ter
Ġv oice
Ġo wn
Ġb as
ĠAS OS
es ome
Ġsl ow
Ġthe se
b s
Ġ 6
it ch
Ġde f
ro ll
s h
am s
ment s
j oy
Ġmin ut
O U
Ġ ent
ac ts
Ġapp lication
ust r
Ġem ail
Ġlo g
Ġp art
Ġet c
Ġlong er
Ġdeli ver
an ce
Ġus ers
0 0
Ġwe e
Ġs uch
Ġj o
Ġavail able
b ile
ĠE x
i er
Ġinst ead
Ġsim ple
Ġsend ing
Â ¸
ĠB est
ĠJ ust
t le
ag es
Ġpro du
ci al
le ct
H ey
âĤ¬ ÂĿ
Ġse con
Ġt er
Ġr id
t en
ĠÃ Ĥ
Ġact ually
Ġit em
Â §
Ġch ats
ar y
Ġf a
i v
i um
o d
Ġel se
E E
Ġlat est
Ġf ull
Ġsay ing
Ġm ap
o l
Ġ: )
ast ic
Ġe nd
Ġexperi ence
Ġdelet ed
O N
Ġp age
ate ly
Ġh ere
st and
Ġk id
Ġs ort
s m
Ġta kes
Â £
at ter
Ġpo int
o int
Ġm ay
.. ..
d d
Ġcont acts
ou ght
Ġo k
Ġfe el
Ġl ay
Ġsy stem
am es
Ġh igh
ation s
ĠI T
Ġlit tle
ĠN ice
Ġma king
Ġco l
Ġprodu ct
Ġpl ace
Ġd ri
ant astic
en s
Ġtr ans
Ġ es
i ent
ci ally
Ġfav our
Ġphot o
p on
Ġmo bile
Ġho pe
ĠE very
Ġ 7
Ġ *
Ġto p
Ġsa id
as y
Ġte x
Ġstor y
or y
Ġon ce
ann el
Ġre t
Ġcom pl
Ġstu ff
v ious
Ġaw ay
read y
Ġr u
w h
ĠThan k
i ld
Ġfr ustr
wit ch
il ing
g et
Ġon line
Ġ x
Ġcall s
Ġtw o
Ġde c
s k
as e
Ġmessag ing
ĠH ow
Ġany one
Ġlist en
ss ible
st ant
Hey Hey
u al
Ġgl itch
Ġal ready
Ġre g
Ġch annel
Â ®
Ġhapp y
ĠA m
ĠTh ere
Ġhow ever
ul ar
Ġkey board
Ġcle ar
Â ¦
Ġm ust
A N
Ġlo st
Ġbl ack
tt y
at form
Ġfix ed
ĠTH E
e ed
ĠRe ally
or re
l es
Ġb ig
sm iling
pe cially
Ġunder stand
Ġ er
Ġm ed
Ġi de
if i
Â ı
Ġcrash es
Ġyou t
Ġh ear
Ġshow s
F F
Ġa round
Ġli fe
ĠP l
Ġs witch
ĠAnd roid
Ġli ve
ĠW or
âĢ ¡
Ġseem s
Ġsetting s
m ed
Ġs ign
Ġimpro ve
li ght
Ġha nd
e e
Â Ĳ
Ġpl atform
Ġlay out
ĠN O
ert ain
Ġwatch ing
w ard
Ġre qu
opp ing
Ġg r
Ġcustom er
Ġf act
us ing
are d
ĠAl so
Ġtal k
Ġsa ve
Ġwor th
Ġup load
Ġoption s
Ġchang ed
Ġdo ing
ce pt
âĢ ŀ
Ġch ar
Ġres pon
Ġp ri
m it
as hing
O R
Ġfree z
Ġrecent ly
an k
Ġaut om
Ġs w
k en
Ġche ck
n et
ĠD eli
Ġex t
gg est
st ar
Ġab solutely
A S
ĠEx cellent
sc ri
Ġen joy
t one
Ġcon s
Â ģ
Ġm ult
Ġy et
Ġin form
ĠE asy
ĠThan ks
Ġf ast
Ġag o
c ess
ĠT witter
Ġso on
ith er
pe ct
Ġe ach
Ġrece i
L L
an y
Ġminut es
ro l
Ġfavour ite
Ġb rilliant
Ġhour s
ow s
av ig
Ġpo st
g er
Â °
Ġget s
a le
Ã ĳ
ro ad
Ġwho le
iz e
ĠC an
Ġcont ent
Ġs ound
ĠF ace
Ġfil ters
r u
Ġas k
Ġmed ia
Ã °
E S
a h
Ġme m
Ġbr ing
Ġru in
Ġcr ashing
sk in
Ġsu ggest
Ġautom at
i al
n y
ĠB rilliant
Ġc reat
le ting
Ġl ess
oo oo
Ġfrustr ating
â Ħ
âĦ ¢
âĢ Ŀ
Ġkid s
A nd
b ook
se t
leas t
Ġadver ts
Ġd ark
i b
Ġpro per
V E
ĠÃ ł
Ġeas ier
oint ed
Ġso cial
Ġcomplet ely
Ġmult i
Ġpro v
u nd
Â Ń
un g
ent s
on t
Ġyout ube
Ġsub scri
A P
r ome
Ġitem s
Ġthan k
Ġn ame
or s
Ġs ch
ĠA N
in ite
ang e
Ġconnect ion
th ers
Å ¡
Ġcon stant
A l
Ġcan t
Ġr un
Å Ĵ
Ġth ose
Ġn orm
Ġb lo
Ġre al
Ġrec ord
ĠThe y
Ġter rible
Ġes pecially
Ġinst all
Ġse lect
p hone
Ġapp ear
Ġshow ing
c ed
Ġn avig
Ġi OS
ĠA ll
Ġen ough
I S
Ġqu ite
âĢ ļ
âĢ ¢
Ġcont rol
âĤ¬ Ëľ
Ġp ur
Ġloc ation
Ġa c
Ġg one
N ot
Ġo thers
Ġle ft
f ic
Ġg en
t o
Ġcommun ic
Ġpre tty
n ot
Ġpo p
Ġdis c
e ep
p tion
Ġ X
Ġa ud
ĠDeli ver
Ġ 9
Ġc ur
pl ay
Ã ĥ
Ġp ass
umb s
Ġde leting
Ġha lf
Ġdownload ed
ve lo
ĠW e
mo st
orre ct
inite ly
t op
Ġc ool
Ġs ong
Ġsh opping
w or
Ġas s
Ġ z
ent ly
Ġch ild
Ġhelp ful
Ġ least
Ġf ound
Ġs ur
Ġide a
ic al
Ġthan ks
Â ¥
at her
ĠDeliver oo
Ġgu ys
ll ow
Ġwe bs
O O
Ġloo king
Ġaw ful
Ġe ff
Ġed it
Ġmiss ing
Ġof ten
I f
and s
Ġb o
Ġf l
Ġwork ed
ĠB e
Ġadd ed
Ġty p
Ġ 8
Ġe ither
Ġh or
Ġde vices
Ġpro f
Ġst ore
Ġmonth s
Ġph ones
Â ¾
er ally
inst alled
Ġsh are
re nt
ĠD e
n g
w ise
Ġc ard
Ġmulti ple
Ġbu y
Ġcompl ain
mo j
ĠAm azing
are nt
Ġty pe
Ġdon t
Ġsnap s
ĠY OU
Å ł
S o
Ġb us
Ġpic s
on est
Ġb ar
Ġp a
and om
a ks
ey es
Ġp ast
Ġlat er
Ġadver t
Ã ¡
Ġun install
Ġautomat ically
Ġwor se
ub b
t ime
ĠS h
Ġgo es
ĠF or
Ġrem ove
Ġdisapp ointed
Ġret urn
ĠiP ad
Ġe ar
Ġloo ks
Ġi con
is ed
Ġex p
Ġde velo
Ġaw esome
ĠW ould
âĢ ¦
Ġcom es
ams ung
Ġupd ating
opp ed
Ġrece ive
s ing
Ġinform ation
Ġb oth
Ġpre ss
Ġl ag
th umbs
Ġconf using
Ġpre vious
ĠWhats app
Ġli mit
fic ult
Ġer r
Ġfil es
ĠIt s
at ive
if y
Ġit self
Ġw ent
Ġinter net
Ġre mo
it ion
a ur
Ġu r
up id
ar m
Ġuse less
Ġk ind
Ġuser n
Ġc ount
Ġsm all
Ġclo se
a ke
p d
Ġ +
ĠN ow
Ġso l
Ġwebs ite
Ġnew s
Ġpo ssible
2 0
Ġsc roll
Ġwee k
ab ly
Ġth ought
Ġst ay
? ?
Ġstart ed
we en
ix el
Ġcon vers
t ed
Ġhappen ed
Ġfo llow
G oogle
Â ²
Ġpri v
Ġproper ly
Y ou
Ġal most
aur ant
Ġr andom
Ġdes ign
Ġdif ficult
Ġlo ck
Ġaud io
Ġbet ween
ro ss
âĢ Ļ
et s
Ġc re
ro p
Ġplay ing
ĠA b
ĠOn e
Ġc are
Ġinc l
Ġrest aurant
id er
âĢ ľ
Ġstor age
Ġsecon ds
Ġcont in
Ġch oo
Â ¡
Ġst opped
ul ous
ĠÃ ®
s ed
Ġsu per
Ġimp ort
ĠK eep
ubb ish
Ġd a
Ġse c
Ġb ro
ĠT O
oth es
M y
âĢ °
Al so
n c
Ġse en
Ġbug s
Ġcommunic ate
Ġi nd
Ġs ing
Ġg ame
Ġconstant ly
r r
g round
ĠA w
w are
Ġtr ack
wh ere
Â µ
in ess
Ġst upid
Ġto day
b ack
Ġat t
Ġdis play
Wh en
Ġr ating
Ġ ro
Ġf re
Ġmo ve
Ġcl othes
Ġc orrect
g n
Ġeas ily
Å ½
Ġw all
Ġdef initely
Ġa p
Ġme et
p ap
Ġwor st
Ġcomp any
ĠS ince
Ġme an
Ġnorm al
P P
Ġsa ved
ĠA s
ĠFace book
ang u
Ġpre m
Ġcur rent
i ke
Ġcan not
Ġw ifi
ĠT V
Ġar t
wor k
Ġ %
ĠI s
is ts
Ġand roid
ail s
w ord
Ġd ue
Ġst at
Ġd et
ur ing
Ġr ate
Ġta king
E D
atter y
Ġb ot
Ġc ou
ĠN ew
A R
Ġhe ad
Â ª
n e
Ġpo or
ĠDo es
Ġwa it
Ë Ĩ
Ġd ire
Ġfor m
Ġsh e
Ġr ather
Ġab road
Ġback ground
Ġ Q
ĠHow ever
f o
Ġsp ace
C K
Â ±
Ġon es
Ġd ate
o ck
Ġwant ed
or ies
ĠÃ ĺ
Ġmap s
d y
i pe
Ġruin ed
Ġhor rible
Ġn et
ĠN eed
Ġaccount s
Ġco de
c es
Ġt as
Ġadd ress
Ġl angu
Â ¯
Ġf antastic
ĠO k
Ġsch ool
Ġc ar
Ġerr or
re me
Ġlo ved
Ġhe ll
li able
Ġb attery
Ġf in
T S
Ġstre aks
ĠC a
v ent
Th ere
Ġchoo se
Ġ ;
Ġ1 1
Ġevery day
Ġinter face
Â ¹
Ġle ar
ou d
Ġab ility
Ġda ily
Ġsh op
Ġma in
o st
Ġte am
V ery
f ull
Ġinst alled
Ġjo b
e x
Ġinter est
Ġn ight
Ġrep ly
G ood
in ning
Â ¨
Ġse ction
o ver
Ġwall pap
Æ Ĵ
Ġc ertain
Ġtex ting
omet imes
Ġco st
ĠNO T
Ġgi ving
Ġsing le
Ġspe ak
Ġ10 0
Ġs k
Ġlo cked
Ġlot s
Ġun able
ist ant
o in
Ġbr ows
r am
Ġcre ate
ĠW ell
E N
l ish
ou ble
g y
U S
Ġreview s
Ġstat us
Ġgi ven
Ġdevelo p
ĠO N
Ġpre fer
Ġbus iness
h h
Ġfriend ly
V ER
Ġbec ome
on s
ĠAN D
l s
d own
Ġkeep ing
Ġprof ile
m in
Ġl ink
Ġref und
Ġimport ant
Ġex pect
Ġwith in
c l
t e
Ġi d
Ġf ace
AT E
Ġrecei ved
Ġh er
Ġdid n
Ġar ri
Ġc ame
at or
Ġfe ed
ĠU se
Ġh onest
r ic
ow er
r ing
Ġex cellent
reme ly
ĠS u
Ġwor ds
am ing
Ġsw ipe
ĠPl ay
ĠA fter
' ll
Ġup gr
Ġc red
k ed
Ġg ames
Ġneed ed
Ġpur ch
Ġchang es
Ġsecon d
ĠT o
Ġpass word
ĠS amsung
u me
Ġload s
Ġaut o
ĠA M
li e
Ġwon der
a w
ir d
Ġv ia
us ed
Ġto ld
Ġre install
ar ing
b ably
Ġ 0
Ġmay be
U T
Â ´
bo dy
Ġwa iting
Ġ ver
ĠOn ly
th ough
Ġto t
ĠTh at
Ġread ing
Ġfi le
ĠWor ks
Ġst ep
) .
Ġf ac
Ġcred it
H ow
Ġcom ments
Ġam ount
ĠA PP
ĠU n
Ġtex ts
id d
am ple
ic ulous
Ġun less
med ium
g an
Ġch oice
Ġs ite
Ġre pl
Ġwhen ever
Ġal arm
is ing
Ġtyp ing
ac y
Ġse ver
ĠW i
p h
l ing
Ġusern ame
p ly
Ġo cc
Ġconnect ed
a x
Ġnavig ate
Ġcou ple
id es
N o
id ed
Ġser vices
en ger
1 0
Ġs ize
Ġm ight
Ġover all
Wh y
Ġhelp s
pd ate
Ġprem ium
Ġt ap
ĠW H
C an
ĠTH IS
âĢĺ Âį
ĠF antastic
Ġcom ing
Ġrequ est
âĢ ł
Ġt we
ĠO ther
!! !!
Ġdeliver ed
Ġper m
re n
Ġtoo k
Â ¬
Ġpr om
ĠAb solutely
Ġlit erally
ĠS T
c ast
Ġwee ks
âĢ Ķ
Â ³
Ġcommun ication
I T
ot e
us h
LE AS
Ġturn ed
Ġsur ve
Ġr ubbish
Ġpo d
Ġin s
s w
ven ient
F i
t om
ĠA n
Ġspe nd
Ġtrans l
m ail
Ġplay l
Â ¼
k top
Ġhappen ing
Ġle ave
Ã ¯
Ġfo ld
N ow
Ġnot es
Ġwor d
dd en
Ġy es
Ġperfect ly
Ġfreez es
Ġsu dden
ag ram
Ġremo ved
so s
Â ©
Ġg ave
ĠAw esome
Ġs ide
b r
Ġdo c
Ġgen er
o om
in king
ĠA sos
Ġex act
Ġchang ing
Ġhappen s
w ay
ar i
Ġre liable
âĢ ¹
HeyHey HeyHey
c ks
ap s
Ġex ample
en se
Ġo b
Ġm om
C H
ction s
Ġpl ac
Ġre set
LEAS E
Ġpa id
Ġp arent
Ġsong s
Ġc ause
it ies
Ġim ages
ĠAl ways
Ġcons ider
Ġbot tom
x x
A Z
Ġre l
R E
f ort
Ġc op
i red
Ġext remely
re ci
Ġpl us
ĠI S
Ġblo ck
Ġc ap
Ġsm art
ĠU S
l ic
Ġme ans
Ġsever al
Ġl ate
Ġgroup s
ĠApp le
Ġadd s
or ing
Ġlo gg
Ġcl ass
ot s
ĠIn st
ver all
Ġbe lie
' re
ou se
Ġd uring
Ġdis t
Ġs it
Ġsy nc
O M
ing s
moj i
ĠB A
if ic
ear s
Ġgi ves
ÂŃ ÂĲ
Ġpro bably
Ġm en
Ġst and
FF FF
Ġfor ward
Ġdes ktop
a ving
Ġwe b
Ġcomp ut
Ġoff er
Ġload ing
get her
Ġan sw
ic s
ĠÃ Ĳ
Ġne ar
Ġspe c
i ed
Ġnet work
ĠAM AZ
I n
j ect
Ġprov ide
Ġreg ular
h and
n a
Ġperson al
out ing
m s
oo ks
Ġpro cess
r om
Ġapp reci
Ġta ken
Ġallow s
ĠAMAZ ING
oin ting
Â ½
ĠÃ Ļ
Ġse lf
Ġon to
Ã ¬
ĠL O
at h
Ġis n
Ġrest art
m ber
u ck
Ġex pl
Ġcall ing
o pe
gr am
Ġwr ite
Ġrid iculous
Ġmy self
Ġdis able
Ġrecommend ed
Ġ: (
Ġfa ult
' d
ĠP LEASE
O n
Ġlangu age
Â ¢
Ġmess enger
Ġfil ter
ĠWi Fi
Ġd r
ig in
Ġproduct s
Ġ20 1
Ġquick ly
an ks
Ġfi ve
ĠU I
Ġnot e
Ġso ft
ĠT oo
Ġorder ed
Ġop in
ĠCh rome
it ive
au gh
Ġcom ment
un ch
Ġ1 2
ĠU P
ile d
Ġbelie ve
Ġor igin
Ġ3 0
Ġh u
p ut
Ġadd ing
o es
Ġv is
ĠH ave
Ã «
Ġm atter
âĢ º
Ġlo se
ĠP ro
full y
p outing
Ġf ore
Ġz oom
E T
Ġv ol
Ġag es
ious ly
R e
Ġoff line
Ġc a
Ġother wise
ĠÃ Ĵ
ul ts
ĠQ u
ĠT e
!! !
Ġincl ud
G reat
Ġs or
in es
Ġc ut
Ġc al
Ġr out
ĠN ever
ĠB l
ÂĿ âĢľ
ra ight
Ġchar g
ĠAS AP
Ġin v
Ġsh ort
Ġopen ing
Ġm ark
nd ar
ĠG et
Ġmo v
Ġim age
Ġl ack
ĠH i
Ġus ually
li ke
Ġhigh ly
Ġbro ken
Ġsoft ware
Ġp ick
Ġta b
a kes
Th ank
Ġcomput er
Ġt ube
ale ndar
Ġi phone
ore d
Ġent ertain
Â ¿
et y
Ġc alled
Ġth ree
out ube
Ġinst ant
Ġbrows er
p ar
Ġ1 5
Ġtoo l
Ġch rome
Ġstu ck
Ġchild ren
a a
F or
Ġdownload ing
Ġh ist
it ed
S t
Ġacc ur
Ġsubscri ption
Ġrespon d
Ġas king
Ġbas ic
j or
Ġm ind
tt tt
Ġfunction ality
e ah
ter n
it s
Ġdef a
ĠL ike
Ġp ar
Ġsim ply
Ġchannel s
Ġh is
en c
Ġsh ut
ĠD O
Ġte ch
Ġwh ite
Ġsh aring
Ġt v
I D
id ent
ĠB TS
Â º
g ust
Ġst raight
p s
Ġto gether
as ed
ĠBA CK
Ġpl s
ĠR E
Ġke pt
Wh at
ĠSu per
s es
s ent
Ġvol ume
ĠP re
Ġcol our
Ġref re
Â ¶
Ġrespon se
os ed
ĠO r
Ġag e
Ġbe g
Ġgu ess
Ġansw er
b ut
l ow
p r
s ign
Ġglitch es
Ġb ts
Ã°Å¸ Å¡
Ġstop s
Ġdri ver
Ġpriv acy
ent ion
Ġlear n
Ġus es
ĠF ix
Ġac ross
le ction
ic ro
ate ver
d es
ic ated
n er
Â ·
pe nd
Â¸ Âı
Ġwas te
o ssible
Ġco ld
ur ity
A Y
Ġsee ing
Ġbu gg
idd le
m m
Ġor gan
Ġass istant
Ġhist ory
J ust
ĠM usic
Ġex cept
M S
Ġrep ort
Ġtot ally
ifi ed
Th anks
Ġrec o
Ġchar ge
b ers
ir st
L Y
Ġopen ed
om ing
Ġm ill
Ġe y
Ġcan cel
Ġv al
Ġ #
E W
Ġbo x
ber ry
u de
Äł c
ĠF I
ĠL o
Ġmem ories
Ġm or
Ġd el
ĠC ould
Ġorigin al
Ġsa fe
Ġent er
Ġact iv
Ġst ick
Ġdefa ult
a king
Ġrun ning
Ġor d
Ġb re
Ġl ine
are ly
Ġdoc um
âĢ ĵ
Ġeff ect
e gr
Ġt witter
Â »
Ġcustom ers
Ġdire ct
u et
Ġt able
Ġma jor
ic ed
Ġ2 4
W or
Å ¾
r ying
Ġf it
Ġtal king
le ep
Ġl ow
Ġre sol
Ġse par
Ġde al
Ġen able
Ġupgr ade
Ġimprove ment
Ġexact ly
pp ing
ĠC H
Ġhonest ly
Ġopin ion
Ġst ud
ĠY outube
Äł s
e ch
e ared
ri ed
as ts
ĠInst agram
Ġimp ossible
m on
n ess
I ts
Ġl a
as ter
Ġhell o
ĠA d
Ġconvers ation
o oth
Ġdevelop ers
ar r
ĠE ng
Ġsec urity
a ir
ĠU pdate
Ġcop y
Ġmen u
cess ary
Ġfre qu
ĠO verall
fort un
Ġs ad
Ġext ra
Ġask ed
in ks
ĠW ith
Ġok ay
me mber
Ġcomplet e
uet ooth
s ide
Ġbe ans
ab ility
ach e
Ġcon venient
Ġlisten ing
Ġm et
ĠS ometimes
med i
ĠM Y
Ġspe ed
Ġre ach
Ġhu ge
c ul
Ġwh atever
Ġst y
ĠD is
Ġqu est
Ġrecord ing
ĠP ixel
Ġpl z
ĠS im
Ġtrans fer
o f
Ġb ought
Ġminut e
Ġhand y
Ġconvers ations
ens ive
ĠS p
us es
ĠI N
ĠUP D
t y
Ã Ĥ
Ġh ang
Ġnumb ers
Ġap art
Ġad v
Ġfore ver
ĠÃ °
Ġallow ed
Ġfi g
Ġac cept
Ġho ld
Ġp ain
Ġme as
Ġrefre sh
Ġent ire
I C
Ġbe h
Äł p
Ġc ase
lo ck
Ġold er
y ed
ĠU sed
Ġst r
ĠRe c
Ġemail s
Ġsudden ly
ĠS ome
ess age
p ite
u se
Ġe v
Ġcontin ue
Ġp ixel
Ġin fo
Ġint egr
How ever
Ġs mo
Ġas os
Ġr ange
Ġany where
Ġu g
gr inning
Ġfreez ing
Ġwallpap er
Ġim medi
ward s
Ġdri ve
Ġr ing
k y
Ġc alendar
ic ks
Ġdec ided
et her
Ġtas ks
Ġun installed
Ġtell ing
Ġsk ip
U n
Ġrecei ving
Ġrandom ly
Ġord ers
Ġin g
2 1
Ġocc as
Ġrem ind
ib ly
Ġn on
ĠS O
Ġfold er
Ġfig ure
Ġst ock
Ġact ual
Ġdisc over
Ġlogg ed
ĠEng lish
h o
ut ure
Ġsh ame
Ġal though
ÃĲ Âµ
Ġpart ic
u g
Ġplayl ist
Ġreturn s
c ause
Ġp in
Ġwe ird
Ġreco gn
al ax
il ar
ann a
Ġjo in
rr it
Ġm ine
Ġp ower
Ġpro gram
ĠF R
Ġre member
Ġwant s
Ġman age
fortun ately
Ġre ver
alax y
Ġm iddle
Ġmin s
ĠE ven
Ġform at
L D
d it
ĠI m
Th at
iv id
ic ient
Ġe p
ut ion
ĠE VER
K E
Ġf ab
Ġwonder ful
Ġth umb
Ġv ari
ress ed
Ġed iting
Ġb other
Ġh ouse
Ġl ar
ac tion
Ġsupp osed
Ġrequ ire
Ġaccur ate
Ġpo in
ĠEvery thing
moj is
Ġa ff
Ġli kes
Ġinc re
Ġmom ent
a ff
Ġli ked
il es
ĠKeep s
Ġappreci ate
Ġback up
gust ing
a ut
Ġf uture
ĠS N
Äł d
Ġperm iss
Ġi rrit
Ġm s
Ġrest ric
Ġdisapp ointing
O ther
c asts
m bo
ĠG o
Ġevery time
ap h
ub ers
T H
c o
ĠD E
E very
ot hing
ĠSt ill
Ġspe ech
A D
ĠP er
Ġug ly
Ġbas ically
Ġdeliver oo
Ġdet ails
ĠNeed s
Ġs ense
Ġnavig ation
Ġmor ning
ĠA ny
r up
Ġwr iting
Ġstep s
i i
Ġare a
O P
ard s
o id
Ġn ames
Ġop er
Ġacc ident
ation al
ĠC on
Ġfor ced
G E
ĠC om
Ġche ap
Ġre pe
Ġplac es
Ġfun ny
s p
Ġli ght
Ġappear s
Ġt est
Ġsurve ys
Ġimmedi ately
Ġcr ap
Ġm ut
Ġpr ices
Ġdisapp ear
Ġtas k
j ust
Ġw id
ĠF OR
Ġcl othing
Ġpay ing
Ġind ivid
Ġfeed back
on na
Ġspec ific
Ġcal cul
Ġconnect ing
Ġlet ting
Ġres ults
it es
Ġre installed
ap top
âĤ¬ Âį
ĠUPD ATE
Ġb ook
Ġman ually
Ġen c
D oes
ĠM e
ain s
Ġtw ice
Ġparent s
ĠFI X
ĠS er
ĠB E
c ri
Ġth inking
ĠSt ore
Ġfa ir
I ON
Ġpriv ate
A ll
ip s
Ġc or
Ġw anna
Ġany way
EE EE
iz ed
A M
Ġre d
Ġsign al
Ġw al
Ġpr ice
Ġpur p
Ġsmo oth
A fter
z z
Ġh im
ĠS e
ell o
ĠLO VE
is ter
Ġy eah
us able
Ġh it
Ġmo d
Ġcomp at
rop ri
I LL
N eed
Ġc ache
h ands
id eo
ĠYou r
ĠSt op
B e
Ġp ub
Ġtim er
Ġwon t
h ot
ri es
Ġcompl icated
ĠF irst
Ġpo l
Ġpre sent
Ġs leep
Ġm ass
Ġg re
Ġle ts
Ġmeet ing
Ġcle an
Ġf ail
Ġfr ont
Ġblack berry
il st
ib ility
Ġw ays
Ġb ann
Ġnot iced
ter day
Ġal tern
Ġfin ally
p art
at is
Ġse lection
Ġs n
Ġg onna
Ġdoes nt
s er
ĠW as
Ġsa ves
solut e
at er
con nect
Ġdisc ount
Ġfor ce
Ġmeas ure
Ġlimit ed
or ts
Ġsim ilar
ph ones
ÃĻ Åł
" .
e f
ou th
Ġvid s
Ġtr ouble
Ġ1 3
m ark
A LL
Ġview ing
Ġaut h
Ġtable t
ĠM em
Ġinc red
Ġf an
Ġdisapp eared
Ġrem ote
Ġc e
ĠiP od
Ġcurrent ly
Ġpoin ts
ĠTh en
Ġbutton s
atis f
Ġu t
ad ing
Ġstar ts
Ġwallpap ers
Ġthumb n
Ġ est
ĠÃ ¬
n s
Ġg if
Ġal ong
Äł re
Ġfunction s
Ġsort ed
I M
Ġl aptop
ic t
ĠIn ter
Ġsol ve
l oud
ent ial
Ġadd ition
Ġstar ting
ropri ate
P l
Ġb b
Ġsepar ate
c le
Ġtr ash
ĠF ree
ĠB UT
app ing
Ġpay ment
r on
Ġw ind
Ġtwe ets
g ing
Ġp leas
Ġclear ly
Ġro om
Ġ ve
Ġp ush
ion al
ĠA LL
ĠM aps
Ġsa ving
Ġman ag
roll ing
Ġbl ue
Ġatt em
ĠCh ange
y y
ĠW ill
Ġtell s
Ġdes pite
Ġimpro ved
Ëľ Â¡
Ġart ic
Ġdis gusting
Ġpartic ular
Ġvari ety
Ġjo ke
Ġlag gy
Ġlo l
Äł S
Ġi M
Ġ: -
Ġl ately
cc ess
00 0
vious ly
Ġinclud ing
Ġsor ry
Ġst an
Ġwh ether
ĠS ort
hear ts
Ġun usable
Ġbl ur
O W
Ġcreat ors
Ġi gn
Ġo pp
ĠM o
Ġsp ent
um p
Ġsearch ing
Ġm ist
ro du
ĠB ring
Ġen g
Ġbas ed
Ġarri ved
on d
ou b
ĠÃ «
Ġmo ving
Ġcreat ed
Ġirrit ating
Ġwh ilst
Ġag ree
Ġeff icient
Ġmov ies
Ġdel ay
er rible
Ġyes terday
Ġey es
Ġe vent
th e
az y
Ġche cked
Ġth o
ĠA ut
Th ey
A s
Ġfa iled
b y
r ow
ay be
Ġsu cks
Ġpop ular
âĢº âĢĿ
U B
Ġal ot
âĦ¢ Âı
Ġf ing
ĠM ess
Ġdes er
s y
Ġd ra
lo g
Ġser iously
ON E
c er
Ġn one
as es
c ing
un e
Ġpod cast
ĠA dd
ĠH ello
Ġun re
Ġnear ly
Ġd ouble
om es
Ġmin im
ĠQu ick
c ent
le v
al s
Ġpod casts
Ġre du
ĠSN AP
Ġms g
ĠY T
Ġtr ust
Ġincl ude
pp ed
Ġapp le
Ġsh own
Ġyour self
Ġle ve
Ġper form
so ft
AN T
Ġpurch ase
N ice
T ime
Ġin con
Ġha ven
Ġfl aw
d f
Ġab ove
Ġcould n
Ġfind ing
Ġwid get
app y
p or
t ears
Ġep is
u itive
Ġlog in
i an
S ometimes
W e
Ġc our
an e
Ġl uck
ĠH ey
C h
O K
Ġhelp ed
oooo oooo
A L
Ġthe me
Ġin put
ĠM ost
Ġstre am
Ġcount ry
Ġbugg y
b ed
Ġb ooks
Ġdec ent
is ion
em s
Ġfav or
ee ee
ĠG OO
Ġti ll
Ġte ach
Ġpre view
Ġdis connect
Ġbr ands
Ġ Z
Ġg ir
il t
Äł f
Ġrout e
Ġt in
Ġ20 20
Ġscroll ing
ĠPer fect
all ery
ĠS uch
em ale
Ġte m
Ġadvert is
U R
f emale
s u
ĠCH AN
Ġf aster
ĠV I
h ow
Ġi p
er ous
Ġanno yed
ĠA t
ĠS MS
Ġtr ave
Ġh ide
Ġrestaurant s
FFFF FFFF
icro soft
b um
Ġsch ed
Ġm ention
Ġma il
Ġun ne
Ġqu e
ĠA R
Ġbl ank
Ġsubscri be
Ġfrequ ently
Ġe moji
Ġdes cri
* *
es e
Ġturn s
W ould
Ġw ar
ĠÃ ĥ
Ġmo ved
Ġ5 0
Ġinter n
ĠF ab
Ġnorm ally
Ġlar ge
a ly
Ġval ue
c rying
j o
Ġc u
Ġin f
ap e
Ġsuggest ions
Ġe mojis
Ġaccident ally
ar b
ain ing
ĠO S
L ove
Ġinterest ing
Ġce le
Ġp ages
ĠO F
Ġstre aming
ĠiM essage
Ġt it
Ġd am
Ġimp ressed
l ves
Ġsol ution
Ġmill ion
Ġs oo
Äł b
Ġsend s
Ġglitch y
Ġadvert ising
Ġindivid ual
Ġcompat ible
Ġm ates
gr y
Ġbeg inning
Ġad just
ĠT r
ĠP ay
Ġsec ure
) ,
m y
et ter
Ġfo c
Ġpurp ose
Ġco des
Ġcol or
Ġ ri
Ġfix ing
Ġpoint less
ĠS nap
ĠH elp
Ġbro ke
mbo ls
ÂĿ Â¤
ÂĿ âĢ¢
ĠBe en
US T
A VE
Ġ $
ĠB B
Ġr ound
ĠP o
Ġd u
Ġst ru
Äł t
ĠH igh
Ġpo s
Ġlook ed
Ġp df
Ġgener al
ĠMem es
ot ify
Ġla unch
Ġint rodu
it al
Ġas ap
Ġchat ting
Ġbr and
B LE
Ġp pl
Ġblo cked
sp ark
Ġcomp ared
Ġx x
Ġcorrect ly
u ly
Ġorder ing
Ġfull y
Wor ks
Â «
Ġd augh
Äł m
Ġ roll
Ġlo sing
Ġhear t
.. ...
Ġal bum
Ġav oid
Ġtransl ate
o ices
z e
Ġbe aut
ĠV ideo
Ġv ir
Ġfeel s
ĠFace Time
Ġcour se
g gle
le n
Ġun lock
Ġmem bers
Ġput ting
Ġhard er
Ġcomplain ts
Ġe at
se lves
pl ic
ES T
t im
Ã ħ
ĠM E
Ġhear d
Ġusern ames
Ġfor t
ate g
Ġturn ing
Ġb ill
T o
u c
Ġc ens
Ġplay er
Ġh op
u ff
y stem
Ġsound s
Ġmem ory
ĠBl uetooth
Ġus age
Ġexpect ed
Ġs on
Ġc ell
On ly
arb age
m ing
Ġt re
Ġma x
ĠC r
ĠInter net
ll ing
Ġsuggest ion
Ġb oring
ĠP C
Ġaltern ative
9 9
Ġstand ard
ĠEVER Y
Ġsurve y
S T
er o
ĠH ope
âĤ¬ Â¢
Ġ6 9
Ġpart y
i ves
ac ting
pl es
Ġco ver
gg ing
E ven
en ces
re am
ĠB ad
Ġdri ving
Ġb en
Ġn or
Ġg allery
ĠA ss
Ġmiss ed
Ġimprove ments
O D
Ã Ħ
ĠOther wise
Ġdra w
i ence
Ġmess ed
LE T
i k
ĠG alaxy
Ġbu ying
Ġinst ru
D on
o c
ĠH ad
ĠBe cause
Ġne g
ĠW atch
ur ther
Ġfin ish
Ġ:- )
Ġs our
Ġf our
ĠI M
ĠT errible
Ġreg ard
if e
ĠC l
Ġ1 4
Ġperm an
g est
Ä ¢
Ġb c
ĠG mail
Ġex c
Ġscreen sh
Ġh um
Ãĺ Âª
EW S
Ġd est
ad ed
Th en
Ġstre et
in ed
ON T
Ġswitch ing
Ġtwe et
ĠOr der
f or
Ġs ick
ĠW OR
arent ly
Ġpermiss ion
ĠP hot
Ġwatch ed
C S
Ġad min
sh ip
Ġunne cessary
m outh
Ġb ed
tion s
Ġsp am
Ġpub lic
ĠG I
ock ing
Ġmass ive
Ġadvertis em
Ġ road
Ġup set
Ġm ix
ĠA D
Ġover se
Ġquest ion
Ġfavor ite
Ġh ot
Ġsp o
ĠNO W
Ġtr ue
Ġregular ly
Ġsty le
l ack
Ġs atisf
Ġo h
av es
ĠCHAN GE
f riend
Ġ ess
all ing
out s
ĠSim ple
Ġc ateg
lo gy
Ġplatform s
ĠI P
ĠM icrosoft
Ġinterest ed
c ut
t w
Ġs us
Ġc ir
el s
Ġpo lic
enc y
O ne
ĠY es
iz ation
Ġperson ally
Ġc ent
ĠG P
Ġfix es
ff er
ÃĻ ËĨ
Ġpr ot
Ġy a
Ġfor get
ĠB y
Ġab solute
Ġclo ses
gg gg
Ġcard s
onest ly
li er
Ġint uitive
ann ot
ĠEvery one
Ġconsider ing
Ġdisable d
Ġdocum ent
e al
is ting
down load
CH AT
Ġentertain ment
Ġdaugh ter
H ope
Ġte ams
Ġlear ning
Ġreinstall ing
Ġeffect ive
ĠHigh ly
v al
Ġ @
Ġl and
Ġexp ensive
Ġplayl ists
Ġcalcul ator
g ress
Ġallow ing
Ġclo sing
iv ity
Ġdirect ly
A KE
C T
if ul
Ġpl an
hh hh
R I
Ġb ored
ĠS c
Ġch ance
Ġgo d
HeyHeyHeyHey HeyHeyHeyHey
Ġbre ak
p erson
ĠI D
Ġarri ve
y ou
Ġa in
Ġli br
Ġres ult
E x
h ones
Ġtr uly
Ġact ive
ĠDe f
5 0
Ġd i
Ġd rop
Ġre leas
Ġex ist
Ġcharg ed
Ġoccas ion
S ome
g o
ĠSNAP CHAT
as ing
ĠWh o
own load
Ġpo ss
Ġselect ed
ĠAss istant
G LE
Ġi os
Ġconf ir
Ġkind a
Ġleve l
Ġoverse as
ick ed
Ġb arely
Ġf ails
Ġp ause
ĠH AVE
ĠNot hing
Ġm ad
Ġsc an
Ġupload ing
Ġdri vers
Å½ Ã°Å¸
Ġrepl ace
Ġresol ve
Ġbeh ind
r s
Ġme ant
ĠC ont
S e
Ġm is
P ie
Ġi ve
Ġmon it
Ġloc al
Ġlog o
Ġhand s
Ġcommunic ating
Ġcontin u
Ġtrack ing
tttt tttt
Ġcomplain t
I s
n ed
Ġsa f
app ropriate
Ġtit le
O T
or ting
Ġde v
ĠWh ere
Ġdocum ents
Ġlibr ary
ash ion
loud ly
ĠWor st
Ġdesign ed
Ġev ents
ĠVI EWS
h e
or der
Äł C
Ġfe e
Ġcomp an
Ġcommun ity
Ġcreat ing
Ġsur pr
Ġstick ers
jo ying
ĠL I
ĠV R
Ġagain st
Ġstre ak
Ġfreez e
Ġsc ann
Ġoff ers
Ġrest ar
UB E
Ġcomp et
iz es
ad s
ĠH ome
ĠPl us
Ġinstall ing
Ġlangu ages
Ġsa w
Ġta bs
Ġdevelo per
Ġprevious ly
r act
u u
Ġi r
Ġr ated
Ġpl ays
ĠH as
Ġclo sed
Ġass ign
Ġfold ers
Ġbb m
ĠV ER
fo ld
ĠDE LET
Ġp e
gh ts
Ġmean ing
Ġfac ing
lev ant
U pdate
n ter
Ġk ill
ĠD ri
Ġsu ccess
Ġclick ing
ib r
Ġid ent
Ġm ar
Ġin appropriate
Ġal one
Ġcontrol s
Ġg arbage
ot ing
ĠB etter
Ġautomat ic
Ġ9 0
Ġcu z
- -
Ġm ic
Ġl inks
op en
Ġb ir
Ġb right
Ġv ar
ĠÃ Į
Ġfollow ing
Ġsched u
Ġopen s
Ġinter rup
light ly
Ġincred ibly
6 0
Ġcons um
u ation
Ġp ie
ple ment
ĠU K
Ġper io
ĠWH AT
L ike
Ġp en
st ru
Ġmost ly
.... ....
Ġrequ ired
Ġsuggest ed
s pecially
Ġb oy
Ġg mail
ow ing
et ic
ĠS ystem
Ġnew est
ĠIT S
Ġz ero
Ġob viously
Ġpol it
g ot
Ã ª
re w
ĠU ber
ash es
Ġed uc
Ġocc ur
Ġzoom ed
i ally
k iss
ĠC ool
Ġpr act
Ġicon s
is ation
Ġle aving
ĠSh ould
Ġexpl ain
E L
p ro
Ġth ird
Ġf ashion
id ing
Ġsh ared
Ġdownload s
od es
Ġear th
h ead
in s
Ġapp ro
Re ally
ĠW o
ĠH ate
Ġdis like
Ġbu ilt
Ġblur ry
c om
o g
Ġswitch ed
Ġpri or
Ġbec oming
ĠWhen ever
Ġinstant ly
f rom
l im
Äł P
Ġknow s
Ġpurch ased
Ġmov ie
Ġneg ative
D ia
al k
Ġcon cer
iz z
Ġartic les
ĠP we
bo x
Ġversion s
Ġglitch ing
Ġtre nd
Ġprot ect
Dia Pie
ĠPwe DiaPie
T ER
m ale
Ġwe ar
Ġcount ries
Ġmark et
Ġrever t
Ġfing er
Ġwind ow
Ġp ot
ub er
Ġno body
ĠiP hones
Ġin it
ĠT op
Ġnot ice
ĠA r
we ll
Ġcele br
ous ly
Ġgl ad
at est
Ġl y
Ġre lease
Ëľ Âį
Ġdiffer ence
Ġ20 21
Ġeff ort
ALL Y
ac ed
ĠH onestly
Ġun fortunately
Ã¢ Åĵ
T UBE
st e
ĠE ver
Ġun i
ist ent
Ġgot ten
Ġconf used
Ġmut e
a im
Ġf urther
Ġspe cial
Ġthumbn ail
S S
h a
u v
Ã £
Ġp ort
Ġbu ild
Ġhard ly
Ġdist ance
e v
ĠI nd
ĠP eople
ĠH ATE
Ġclo ck
Ġs oooo
Ġb ank
Ġim plement
Ġpost ed
fold ed
s le
Ġf ont
ell ow
Ġdisplay ed
Ġresol ved
Ġmist ake
Ġtot al
Ġcompan ies
Ġp eo
Ġread y
Ġfort une
a iled
Ġc ross
Ġha cked
Ġan im
Ġbec omes
Ġhe al
ĠM akes
Ġreason s
Ġx xx
Ġupload ed
Ġlag s
A n
Ġp c
ood y
ĠC AN
Ġlogg ing
ĠSp otify
Ġinstru ctions
Ġm atch
ll y
Ġde pend
ip ing
Ġrid er
ĠWH Y
Ġfoc us
o log
less ly
Ġbir th
I G
ĠB R
end ing
ĠH aving
ĠTH AT
Ġuninstall ing
St ill
Does n
sy mbols
e xt
ĠA L
ĠG ET
Ġhigh er
und red
ĠYOU R
Ġperman ently
Ġd ig
Ġal right
ĠDe let
Ġdire ctions
D F
Ġpro ject
Ġpro gress
ĠF r
Ġ1 6
Ġcol lect
Ġatt ach
Ġspeak er
Ġauth ent
Ġrun s
r own
w atch
Ġt ick
Ġyou ng
Ġst ate
ĠW ish
Ġsc ore
Ġcr azy
ĠFR EE
Ġter ms
Ġrel ated
Ġcharg es
Ġh ur
Ġfor got
Ġen joying
Ġsl ack
Ġfact ory
Ġenjoy ed
Ġs ens
Ġl ists
qu e
Ġim ag
Ġser ious
ĠAl though
Ġpop s
ĠYOU TUBE
Ġver ify
ĠW E
Ġli ves
ĠF rom
ĠD on
Ġplac ed
3 0
? !
a f
ĠÃ ĳ
Ġare n
Ġhas sle
Ġsupport ed
L O
Ġre solut
Ġmin i
Ġpost s
Ġpolic y
Ġpeo ples
k k
Ġs amsung
Ëľ âĤ¬
sc ape
Ġl ower
ar ily
Ġst ays
Ġthere fore
ĠL et
Ġthem selves
ĠGOO GLE
Ġd ang
Ġcol le
?? ?
re s
Ġre se
ĠM any
Ġ5 9
ĠAd ver
Ġvar ious
E dit
Ġb i
Ġun s
Ġ2 5
ĠU pd
Ġkn own
no se
Ġrest ore
ĠDef initely
ĠG ot
ĠTe ams
ĠRec ently
ĠG ive
ĠP DF
Ġst opping
Ġsl ide
Ġbas is
Ġdet ect
Ġepis odes
Ġa ction
le x
is m
Ġr arely
Ġout side
Ġcrash ed
Ġoffer ed
re t
Ġre bo
ĠS lack
Ġwas n
ord ing
we et
Ġcomplain ing
Ġtech no
Ġquest ions
O k
f air
Ġw ide
Ġthat s
Ġaff ord
Ġapp arently
Ġdo g
Ġremo ving
Ġhead phones
IT H
. "
Ġc atch
Ġop tim
Ġcontact ed
ste am
k et
in ation
un k
Ġ4 0
Ġtyp es
Ġcost s
W ith
Ġb ag
Ġloo se
be aming
Other wise
Ġwar ning
Ġp ack
Ġsh ocking
ĠB it
Ġr a
ĠM ake
Ëľ âĢļ
Ġinst agram
orre nd
Ġsign ed
AP P
ÃĲÂµ ÃĲ
Ġattem pt
Ġt reat
Ġne cessary
ess ional
low ing
Ġperform ance
ĠBB M
Ġd umb
ĠD ownload
Ġset up
Ġquick er
Ġchar ac
OR E
US ER
Ġaff ect
I m
Ġs al
Ġc ast
Ġwould n
C E
Äł M
Ġlove ly
Ġle g
EN T
ĠST OP
Ġintegr ation
id ay
ĠM ore
Ġreg ister
Ġrespon s
Ġro b
Ġheal th
ĠE n
Ġcl oud
Ġem ot
Ġbit moji
Ġbeaut iful
Ġhop ing
N T
g or
Ġan gry
Äł D
Äł h
Ġplay ed
Ġar ch
Ġentertain ing
ĠMess ages
Ġben ef
Ġperio d
U se
t a
Ã ¥
Ġha ck
ĠC ustom
Ġear lier
Ġf ro
Ġde ad
Ġaccess ible
Ġbrows ing
icro phone
S h
ic ator
us ive
ĠBl ack
ĠPhot os
Ġp ull
Ġl ab
Ġnot ify
Äł B
Ġprov ided
lim ited
Ġresolut ion
orrend ous
i ber
y al
Ġe qu
Ġup on
il ities
ĠF ast
Ġbig gest
Ġrequire s
or ry
Ġd ial
ar s
am p
Ġ1 7
Ġdisapp ears
enc ing
A t
ĠI OS
ic tion
Ġsh o
ng th
Ġmill ions
Ġincre ase
H ave
p ts
in c
Ëľ ÂŃ
ĠPre tty
Ġsour ce
Ġscreensh ot
gor ith
n ow
iz ing
on nect
Ġd oub
ed y
ĠS H
ĠW AS
Ġ1 9
ĠD id
ĠBe fore
Ġtransl ation
Ġdescri ption
EE D
Ġsit es
Ġmet h
Need s
Ġr ot
ĠO K
ĠO R
Ġaw are
ĠVER Y
U I
Ġt xt
Ġw ats
Ġp ath
Ġcle ared
Ġst o
ĠW ITH
rou ght
Ġcomm on
Ġem b
Ġfrustr ated
Ġcheck ing
Ġ; )
Ġca uses
arr ass
Ġincon venient
c at
Ġm ag
ĠA RE
Ġsome how
Ġgen erally
Ġmeth od
er g
Ġcl aim
Ġcr it
ĠCh e
Ġver ification
Ġcolour s
Ġcancel led
Ġreleas ed
r ist
Ëľ Âģ
Ġru de
Ġide as
us s
Äł F
Äł g
ES S
EN D
Ġprefer red
Ġs izes
Ġb unch
Ġg lo
Ġy t
Ġst ress
id s
ĠG O
ĠPl s
OO OO
ĠAw ful
Ġland scape
Ġth ous
Ġl augh
Ġmess y
Ġby e
E VER
Ġm um
ĠF e
Ġcl ips
ĠAN Y
K eep
Ġa ir
at ives
ic ture
ĠW ow
Ġsy n
OU LD
ĠAut o
Ġdeser ve
1 5
S ince
Ã Ľ
Ġth er
oo king
ĠA part
Ġal ert
Ġlack s
U L
b h
m iss
v ir
Ġt en
ĠS ky
Ġme al
ĠG od
Ġpo pping
Ġlimit s
Ġdam n
Ġconfir m
b it
Ġp ers
ant ed
ĠF ood
Ġwr it
Ġbas ket
Ġfa ke
Ġbus y
Ġenable d
Ġcens or
Ġs ile
en ced
ore an
Ġal gorith
Ġevery where
Ġser ver
ab y
ĠNot e
Ġdec ide
Ġwait ed
Ġactiv ity
su it
Ġschedu le
P re
Ġre ly
Ġbe low
ut ter
ri er
ear ch
ĠU s
led ge
ER E
ĠDeli very
Ġbann ed
Ġrestar ting
A ny
O verall
f l
o b
u gg
Ġo s
Ġas ks
ĠApp s
omet hing
Ġknow ing
ĠR ubbish
Ġi c
Ġm id
Ġc os
ĠT ried
ill y
Ġho l
Ġh i
Ġ1 8
Ġsome where
Ġun h
Ġun limited
Ġbl uetooth
Ġself ie
Ġca using
n n
r d
Ġm ot
Ġb ur
Ġmessag ed
Ġcont acting
ist r
gr aph
Ġbring s
Ġlag ging
Ġappreci ated
Ġemb arrass
ĠD es
Ġsp ot
Ġsub ject
Ġloc ations
Ġrestart ed
Ġremind ers
Ġm ent
Ġv r
ul es
un ity
ĠM aybe
Â¤ Â¬
OM E
Ġintern ational
on ts
Ġd ro
Ġu l
Ġdo or
Ġbl oody
ass es
Ġpar ts
ĠPre m
i est
p lo
Ġan t
Ġfl ash
Ġexp ress
Ġca used
ĠCon stant
Ġh orrendous
an ces
Ġsim pl
ĠJ an
ĠJ UST
ĠNot ification
U P
W N
h ere
m as
Ġm icrophone
ot ed
ĠB rill
Ġun like
Ġpre vent
Ġco ll
Ġbig ger
ÅĴ Ã°Å¸
Ġb rought
Ġinclud ed
d ing
Ġa ch
ĠW on
Äł A
Ġput s
Ġconf ig
Ġ6 0
idd en
!!!! !!!!
Ġtechno logy
Ġb an
ĠT ot
Ġv ibr
ĠH e
ind ly
Ġ20 0
F ix
Ġ: /
ĠB r
ur rent
ĠC o
Ġ3 60
ie ve
Ġsw iping
Ġsit uation
Ġess ential
Ġbr ow
Ġsatisf ied
ĠGP S
Ġt ones
om p
Ġbe y
ĠP L
ĠL it
Ġwa ke
Ġalarm s
ĠDri ve
Ġti red
Äł T
ĠON E
spark les
ac es
Ġst aff
Ġlo yal
ĠB EST
ĠN EED
ĠM uch
ast e
Ġsu it
Ġclick ed
Ġprov ides
Ġrespond ing
Ġbrow se
Ġch oices
Ġmonth ly
Ġlock down
Ġbey ond
at ors
ĠG r
ĠN et
Ġex it
Ġun b
app ed
Ġco z
ĠX S
ĠPo or
h aps
Ã Ń
Ġw ife
al f
ind i
no ying
Ġrating s
ĠOk ay
v ol
Ġu nd
om en
ĠA T
am ation
ĠL atest
Ġbu ffer
Ġend ed
Ġclear ing
Ġsw ear
Ġvis ible
Ġrepe ated
in ally
Ġh undred
Ġshow ed
Ġinc orrect
Ġapplication s
âĢ¡ Â®
Ġbo ard
Ġpleas ed
Ġdoub t
W ill
Ġse ll
ure s
Ġbec ame
Ġeas e
Ġhelp ing
con d
Ġ201 8
Ġtrave l
vir on
1 2
S u
ĠE specially
Ġmin or
lent y
Ġcon cept
Ġhas n
Pl us
Ġopp ort
b l
f li
ed om
Ġr ad
Ġfunction al
ĠÃ® ÅĴ
Ã ¦
Ġf onts
Ġlo ving
Ġas well
ĠC annot
Ġkn ew
cl amation
ĠSky pe
C ould
Ġad vice
Ġoff ic
Ġsomet ime
Ġut ter
Ġvir t
ĠOrder ed
Ġdang erous
H H
Ġp an
ĠA ds
ĠD ONT
Ġview er
Ġinter act
Ġins ide
f rown
on y
Ġp or
Ġupgr aded
aa aa
co de
er ic
Ġf u
ag ing
ĠW ear
Ġma int
ĠO UR
Ġadvertisem ents
frown ing
b ing
w w
Ġh idden
end ed
Ġsnapchat s
Ġen viron
ĠWor th
Ġcheck out
Ġtech n
Ġreport ed
Ġevent ually
, ,
Ġg h
st ore
ĠG u
Ġli ving
Ġrec over
ĠU ser
ab ling
Ġspe aking
Ġexperi enced
Ġgr aph
Ġid i
c ross
l and
Ġch ose
Äł w
ĠO UT
app ointed
ĠGI VE
Ġcir cle
p ort
Ġt icks
Ġb od
ic ted
ĠN EW
Ġdire ction
Ġspend ing
stru ck
Ġs illy
Ġn a
Ġcom ple
Ġevery body
E asy
ĠA W
Ġtoo ls
Ġrecommend ations
Ġsubscri bed
Ġprom pt
Ġstud ent
Ġest im
fli x
W as
Ġfor cing
ke y
Ġj ump
ce ption
Äł in
Ġlet ters
ĠOn ce
ra it
Ġsub t
ex clamation
Ġstr ong
Ġmanag ed
FFFFFFFF FFFFFFFF
Ġsus pend
Ġs um
ĠP hone
Ã¢ Ä¢
cept able
Ġpast e
Ġclass es
c y
k n
Ġn um
Ġno ise
az on
Ġexperi encing
ĠWOR K
A K
D e
v id
Ġrecord ed
Åł Ã°Å¸
Ġgif s
Ġwrit ten
d ark
Ġs ister
Ġb road
Ġscreen s
Ġerr ors
Ġprem ier
Ġshort cut
ĠSer iously
Ġthumbn ails
Ġe ats
ut h
ant s
ĠD ark
Ġdelet es
ĠAn other
ines e
ĠSim ply
Ġcelebr ities
z en
Ġg reen
Ġnot ified
Ġcon v
il led
ĠÃ ¯
Ġde m
Ġrepl ies
Ġsty les
Ġwal k
Ġo dd
if t
ĠO LD
Ġhope fully
Ġhear ing
Ġsync ing
Ġstud ents
ĠRec ommend
Ġl ines
ut e
Ġan aly
Ġv ouch
Äł H
Ġk ick
ĠCh rist
Ġruin ing
ĠUn able
Ġsmart phone
action s
Ġpermiss ions
ĠAdver ts
M aybe
Ġto wards
pp ort
ĠO h
ĠE ar
Ġcl ip
Ġres pect
Ġear ly
Ġstay ing
Ġcontin ues
m a
m are
Ġt ut
or ial
un ky
ĠWh ich
Ġdid nt
Ġsubscription s
Ġhum an
" ,
g ain
ac c
ac ceptable
Ġch ron
Ġdr ag
Ġ201 9
Ġey e
EEEE EEEE
W ell
b and
Ġth inks
Ġs qu
ro om
ĠC le
ĠL ast
Ġconnect s
Ġgu y
Ġpost ing
ah ah
Ġsol ved
Ġblock ing
Every thing
A V
Ġ >
Ġi ll
or rible
Ġus ual
Ġqu it
Ġrepl aced
Ġimag ine
A dd
M ost
ĠA cc
Ġun read
ĠR em
ÂĿ âĢĺ
Ġprof essional
Ġaddition al
o de
v v
Ġd at
Ġcomplet ed
Ġdelay ed
Ġunre liable
A m
c reen
Ġp iss
ver age
ĠF un
Ġte le
ER S
Ġart ists
Ġpurch ases
Ġremind er
Ġcor ner
Ġenviron ment
b ig
Ġ [
Ġm iles
Ġre open
ĠS E
Ġsh uff
Ġback ed
Ġmo der
Ġsc rew
ab les
Ġfavour ites
Ġfac es
Ġob ject
fort able
ĠTe am
ii ii
Ġintrodu ced
Ġmix ed
es ides
ĠG en
ĠF o
Ġsc am
ĠYouT ubers
Ġbr other
Ġign ore
Ġoccasion ally
ĠCustom er
T ried
e ld
Ġc at
us hing
Ġdis s
gr ade
âĦ¢ âĢļ
Ġfre edom
Ġbugg ing
Ġbirth day
A A
I L
Ġm ouse
ac ing
Ġsh ot
Ġcon ver
Ġcom b
ish ed
Ġslow ly
ĠX R
Ġmajor ity
Ġbod y
Ã Ĺ
Ġp izz
et ting
Ġhead set
Ġface book
Ġeng lish
I P
Ġd ad
as ks
el ess
Ġbu ll
Ġar r
ĠSh e
Ġfac ility
Ġsor ting
Ġpot ential
b b
er m
om b
Ġst able
Ġex isting
Ġloc ks
Ġenjoy able
Ġrepe at
Ġenc ry
Ġir re
Ġpie ce
Ġopport unity
u y
Ġw ire
Ġapp ly
Ġany time
Äł un
Ġyout ubers
Ġdist ur
Ġrestric ted
tw o
Se ems
c ome
Ġt end
Ġapp alling
Ġmess ing
ĠM ax
ain ed
ong ue
ĠU N
Ġknow ledge
Ġpa ir
ĠDoes n
ĠSuper b
Ġstr ange
ĠUpd ated
d ate
u o
Ġm er
Ġh ates
ri e
so ever
ven ience
Ġsome body
Ġ10 00
ĠTH AN
Ġsubscri bers
ĠDO WN
Ġsmooth ly
A IN
R O
Ġ =
Ġt ar
ĠT IM
ĠT CS
Ġph ys
Ġwhat soever
Ġtr oub
Ġrec onnect
con t
Ġdec ision
Ġincred ible
p ress
Ġp lenty
is es
Äł L
ĠU sing
Ġpress ing
Ġid k
ID E
Ġmod el
Ġauth or
Ġregard ing
Ġembarrass ing
W ish
m ar
p ad
Ġa ap
Ġg alaxy
ar ry
Äł G
ĠO ut
Ġpr int
Ġreal ise
ph ab
OD E
Ġposs ibly
Ġpen ny
Ġthous ands
Ġa head
at ic
ar ant
Ġr ow
ĠM S
ĠE dit
Ġgr ate
Ġexp and
Ġfollow ed
Ġdoc s
Ġgir l
Ġque ue
Ġpolit ical
an ced
ĠÃ ¡
ĠC ome
Ġun fair
gr ace
Ġtri al
ĠTHE Y
ush ed
Ġexpl an
Ġshut s
Ġpos ition
Ġchron olog
m er
u ine
Ġb al
Ġy e
Ġperson s
Ġimpro ving
Not hing
Ġeng ine
w inking
ick en
Ġsm s
Ġcol ors
wh at
US E
Ġoccas ions
Ġcheap er
ĠSe ems
O r
a i
d ated
Ġre ct
th is
ĠÃ į
Ġr ules
Ġfi eld
ĠC ant
ĠU p
ĠPl z
Ġgr and
Ġnight mare
cl apping
U sed
g ed
p al
Ġ _
Ġse am
Ġwant ing
Ġwebs ites
Ġmeet ings
ĠUse ful
ĠAn noying
Ġmanag er
Ġtut orial
i pp
n ce
Ġt on
Ġf ill
ĠT ouch
ĠP H
ĠM ust
act iv
fer ence
Ġcons ist
Ġnet wor
Ġwonder ing
B est
m i
Ġc y
as ting
Ġre download
ĠC O
Ġatt ention
Ġvis ual
Ġdest ro
Ġmonit or
Ġsurpr ised
ĠS D
am ily
lo or
Ġam ong
ĠL ots
der ful
Ġview ed
Ġcomm and
ĠK orean
Ġloc ate
OR T
ĠSh ame
Ġmsg s
ĠT ime
ĠH ang
Ġ4 5
Ġsp read
Ġdisapp oint
Ġruin s
Ġsmall er
Ġmanage ment
C C
U N
Ġb rill
Ġde mon
if ying
AR K
Ġgre y
ÃĻÅł Ãĺ
Ġteach ers
ĠNet flix
l ar
Ġ ^
Ġt bh
Ġf all
ĠP icture
Ġcl ient
Ã¡ Å¾
ÆĴ Ã°Å¸
Ġsal es
b al
Ġm i
Ġf ed
Ġis nt
Ġne ither
ĠS aves
ĠW ANT
Ġsh oes
ĠB as
Äł st
Ġtr aff
Ġstore d
Ġuni que
Ġchronolog ical
l ay
t ics
t ongue
Ġa f
Ġwor ry
ĠY eah
Ġwho ever
Ġrecogn ition
Ġparticular ly
Ġcensor ship
ĠTot ally
n ger
Ġ <
Ġf al
Ġo m
Ġal er
Ġany body
Ġshould n
Ġcl unky
Ġsearch ed
sc reen
at ur
ĠI F
ĠT R
ĠW ay
el t
Ġtime line
ĠE X
Ġadd icted
Ëľ âĢĻ
Ġle ngth
Ġfam ous
Ġexpl ore
Ġdisappear ing
ĠCr ashes
ĠLI KE
ĠPrem ium
D o
l ist
Ġu nt
ĠG roup
Ġch al
ag s
Ġoff ice
Â¤ âĢ¢
Ġinc oming
Ġslow er
Âģ âĢĶ
Ġsuper b
Ġfrequ ent
Ġepis ode
spark ling
Ġsto len
Ġf ly
Ġv io
lo cked
pl ays
Ġcl utter
Ġlink ed
Ġip od
ĠIP hone
ÃĻËĨ Ãĺ
Ġnum erous
U CH
c ise
o very
o ff
Ġt apping
ĠI d
Ġn ons
en ing
Ġl oud
ĠT ube
Ġacc ording
ail able
OU S
Ġend s
Ġhigh light
Ġselect ing
Ġprom ot
ĠUS E
Ġartic le
Ġsoo o
Ġtraff ic
h ip
o k
Ġd ie
ĠS orry
Ġun acceptable
ss ss
ĠLit erally
Ġsuspend ed
b all
Ġp ap
Ġk icks
Ġun w
av i
ict ive
Ġdu plic
or n
Ġh un
Ġyou nger
Ġal phab
ub scri
Ġle ns
Ġdeliver ies
ĠChrome cast
Ġinv est
Ġfab ulous
Ġmut ed
Be cause
Ġport rait
Ġpath etic
h ic
t r
er v
Ġg est
Ġin vent
ĠH appy
Ġser ies
Ġthrough out
ÃĻ ÆĴ
ĠUse less
ĠLo ving
ÃĲÂµ Ãĳ
ĠVideo s
Ġirre levant
p age
u ri
w ear
Ġw i
Ġg round
ĠA re
Ġlo ves
Ġpl ann
ĠC all
ĠF it
Ġsub mit
Ġrep orts
Ġret rie
Ġappear ing
Ġtem por
Ġcateg ories
ĠBR ING
am ed
Ġfam il
Ġload ed
Ġdisc overy
Ġcap ability
Ġactiv ities
Ġstru ggle
Ġalbum s
ÃĽ ÅĴ
Ġoffic ial
l er
ad es
Ġwas ting
ang ing
ĠÃ¢ Ä¢
Ġanno ys
Ġhand le
Ġcap ture
In st
mm mm
Ġbann er
Ġther es
oo f
Ġv oices
ere ly
Ġtr uth
Ġex ch
ĠD IS
Ġout f
Ġsl ides
Ġemot ic
D is
ou nter
oo p
ĠS m
ĠÃ £
Äł n
ĠO p
Ã°Å¸ ÅĴ
Ġreg ards
Ġob vious
Ġrout es
AY S
Ġdiscover ed
ĠFR OM
Ġbother ed
TH ING
Ġip ad
Ã İ
oo o
ĠS a
ĠP ut
ĠM ODE
ĠL ooks
Ġsearch es
Ġrid ers
Ġfeel ing
Ġrequest s
Ġhol iday
H ING
I R
S O
Ġw ise
ĠÃ ª
âĤ¬ âĢĿ
xt remely
ud d
Ġcut s
Ġminim um
Ġtin y
urrent ly
Ġwire less
b lowing
g u
p ting
Ġf li
Ġh ey
ĠS earch
Ġare as
Ġnow here
ĠD ARK
our n
ĠYouT uber
Ġle ad
ÂĿ âĢĶ
Ġfo ot
Ġcharg ing
Ġdeser ves
ĠConstant ly
Ġhundred s
ĠChrist mas
Ġshuff le
I F
Ġi l
Ġj unk
ĠWh ile
ĠL e
ĠO M
Ġcomm ands
Ġmem ber
Ġpress ed
Ġkind ly
Ġrever se
ĠCl ar
Ġreplace ment
A USE
N O
h y
Ġth read
Ġs lightly
Ġc ash
Ġf ans
Ġg ri
Ġl aw
st er
ĠS C
Ġwe ather
ĠB ack
Äł l
ĠC R
ĠD ear
ist ic
Ġen h
Ġtri es
Â¥ Âį
Ġear n
ĠDelet ed
Ġcharac ters
Ġaler ts
P ro
Ġb aby
ch e
ĠS pe
ant ly
ur ate
ĠO ver
ck et
Ġdis plays
Ġanno y
Â¤ Â°
ĠAm eric
Ġlock ing
Ġdr ains
Re c
ĠRE ALLY
Ġ q
Ġto ggle
Ġre load
ĠW ILL
ĠC OM
stand ing
IC E
Ġfair ly
Ġmention ed
ĠNotification s
Ġpizz a
p ointing
in ner
Ġw ater
Ġc ook
Ġo bs
Ġg aming
Ġbe at
ĠTh ese
Ġnew er
Ġsa ver
Ġdown side
Ġplay back
Ġem pt
Ġ6 7
ustr al
rr rr
ĠEar th
S im
i ving
k ward
l asses
o h
o ld
Ġe g
Ġas pect
ind ex
Ġen s
ĠAm azon
ĠUn fortunately
ĠÃĻ ËĨ
Ġeffect s
a it
u nt
Ġ nd
ri but
ag ed
ure ly
us ion
Äł E
ĠM an
ss il
Ãĳ ÆĴ
Ġlack ing
Ġrestric tions
Ġfinish ed
ÃĺÂª Ãĺ
Ġalgorith m
Ġnons ense
h or
Ġan n
ple ase
Ġat e
ĠD uo
Ġhome work
Ġass ist
ĠGOO D
tttttttt tttttttt
Ġgh ost
ĠClar us
T ube
Ġs pl
Ġm ms
Ġr ac
ĠP ri
âĤ¬ âĦ¢
Ġref use
Ġaccept able
Ġbeh avi
Ġrecogn ize
Ġincre asing
Ġeduc ational
Ġrepeated ly
a iting
Ġa verage
ic ious
ome nd
Ġrec ip
ĠR ed
Ġper cent
Ġhard ware
wh ich
And roid
Ġdevelop ment
ĠQu ality
Ġdeal s
ĠBit moji
M B
y e
Ġth ru
Ġp and
Ġapp ropriate
Ġre wards
ĠA B
Ġinform ative
ĠCom plet
Ġbenef it
A w
E LY
s ung
t ra
u ed
Ġth row
ĠS end
ur ation
ĠF A
Ġaw kward
Ġsent ence
VE N
On ce
Ġopin ions
Ġinv ol
Ġpos itive
Ġtroub les
T oo
c an
f i
Ġlike ly
ĠP E
li ed
Â¤ âĢĿ
Ġbad ly
ud io
Ġread er
Ġbot s
ĠON LY
ĠST AR
ĠBE C
Ġadvertisem ent
kn own
Y es
c oming
s pon
Ġsc ary
Ġimp ress
Ġcol lection
Ġtyp ed
Ġexp ort
des ign
Ġve hic
Ġattem pts
Ġdest ination
Ġmoder n
i us
Ġp ad
ed ia
is on
am b
Äł R
Äł W
Ġlist ed
ĠK ind
Ġlog s
Ġret ail
Ġsign ific
Ġcreat or
âĦ¢ âĢŀ
Ġgen uine
Ġarch ive
ĠUs ually
1 9
p ur
Ġli ghts
Ġfi re
ĠM MS
ep t
Ġhe av
Ġem erg
ĠRe g
AT S
Ġcertain ly
Ġdist r
Ġintegr ated
mbo l
Ġenc ounter
Ġfro zen
H as
Ġm ate
es us
Ġh us
ĠS IM
Ġr an
ci ous
Ġwr ote
Ġtop ics
ĠSer vices
Ġgre edy
Ġtar get
y pe
er ry
Ġre levant
ad ays
ĠG board
Ġli e
ĠV oice
Â¤ Â¨
Ġarri ves
RE AT
Ġadv ise
ict ory
ĠSc reen
Ġcontinu ously
8 0
d o
Ġb omb
Ġd iction
ĠA ct
Ġj um
ĠC alendar
ĠL G
Ġdis grace
Ġconnect ivity
Ġlet ter
Ġsm ile
Ġredu ce
Ġstru gg
LO AD
Ġexplan ation
H T
N ew
Ġf elt
Ġd ed
Ġup s
Ġj ourn
ĠM V
ĠH orrible
Ġeas iest
our s
em ic
ĠV IDE
Ġint r
Ġem ailed
Ġfre sh
ĠQ R
Ġgener ation
ILL ION
ÃĻÅł ÃĻ
ĠBlack berry
Ġwats app
N ever
p m
w ide
Ġw ing
Ġp ushing
Ġd ress
Ġti p
Ġout dated
ab or
OU T
AR D
Ġmain ly
Ġregard less
Pre tty
1 1
g es
r or
v ictory
Ġt x
Ġi e
ke mon
ĠT akes
Ġlo ss
ce ed
ĠC amera
ĠF amily
ĠO f
Â¤ Â£
ĠEvery time
Âº ÃĲ
Ġmeasure ments
inc erely
Ġalphab et
F C
P T
c s
Ġt one
in a
Ġg oo
Ġl azy
ĠA G
Ġr is
if ically
un es
ĠH u
ĠV iew
Â¤ Â®
Ġreturn ed
ĠLo ved
por ate
ĠTIM E
g s
ure d
Ġdis miss
Ġpre p
Ġcar ry
Ġenc our
Ġwal king
Pl ay
Ġmax im
Ġbuffer ing
Ġhun gry
. )
C loud
F irst
k ia
m b
o x
s ive
Ġl uv
om an
Ġch icken
Ġback wards
Ġke ys
Ġun av
eli ev
we i
Ãĥ Ä
Ġrepl ied
Ġshut ting
Ġhang outs
Ġgif t
Ġra ise
h i
u ary
Ġt ubers
Ġc orre
Ġf ave
ĠM ot
ĠM AKE
Ġpre s
Ġrem ain
Ġpart ner
Ġur g
tern al
Ġsad ly
friend ly
Ġdro pped
Ġconsist ently
Ġunw anted
ustral ia
4 0
er ing
ub ble
az e
Ġloo p
hone y
Ġreg ret
Ġreal ised
Ġcard board
ĠAb solute
Ġcare ful
When ever
Ġansw ers
AM E
Ġteach er
Ġbed time
ĠWon derful
Y ING
d ed
r al
Ġth umbs
Ġdo ll
ĠS ign
Ġuse full
Ġex e
Ġex ception
ir ing
Ġman ual
Ġtim ers
ĠÃ°Å¸ ÅĴ
Ġ7 0
Â¥ âĢ¡
Ġshe et
Ġcap able
Ġbre aks
Ġhang s
Ġcateg ory
Ġdig ital
Ġcolle ag
sung lasses
A G
j d
m ary
Ġm ater
Ġbe e
Ġdown grade
os es
Ġcomp ens
Ġem plo
be e
ĠCh inese
EE N
Ġhor ri
Ġsn oo
Ġwind ows
Ġsaf ari
Ġgrate ful
f ree
s ome
Ġ ers
ĠS ame
ĠG B
Ġwas ted
ĠM UCH
Ġbr ain
Ġcomp are
ĠSt ar
Ġart ist
Ġvis it
Ġcut e
Ġach ieve
E AR
a wei
e a
m an
Ġh omes
id iculous
Ġus able
um ing
Ġbl ind
Wh ile
Ġelse where
Ġgr ow
ĠX L
Ġdisplay ing
oin ts
Ġins p
ĠTe xt
Ġunh appy
ĠTHAN K
A b
Ġt ast
Ġi Cloud
ĠA v
ag r
ĠN EVER
ĠD i
Ġar row
Ġsupp ose
Ġsure ly
Ġblo cks
Âª Ãł
Ġdisconnect ed
ĠAD D
B ack
g l
er cial
Ġm v
Ġb ubble
Ġd en
Ġdes per
Ġref used
.... ..
Ġide al
Ġrad io
Ġtechn ical
s lightly
u gging
Ġb in
Ġre w
Ġre design
Ġtr ain
Ġex cl
ĠE VEN
Ġoption al
Ġview ers
ĠJ esus
Ġaccess ibility
ĠST ILL
Ġstand ards
Ġbal ance
ĠBEC AUSE
8 8
H elp
K indly
n ight
r it
in ing
or gan
Ġp at
Ġp ing
Ġr lly
ĠM ar
Ġpl ain
Ġgreat est
ĠF riend
Ġun known
Ġthem es
Ġper haps
Ġsupp orts
Ġrep orting
back hand
ĠTr ans
gggg gggg
Ġemotic ons
Ġdiction ary
M Y
a j
s or
t f
Ġa st
Ġb on
Ġb esides
ĠB arry
Äł r
ĠThe ir
Ġsy mbol
Ġdec re
ĠWH EN
Ġdr ain
Ġentire ly
Ġdiscount s
oooooooo oooooooo
plic ity
Ġvirt ual
Ġhus band
D id
G o
f s
o ds
Ã ¤
ĠT E
au ght
lf riend
ustr ating
min s
Ġreach ed
Ġoper ate
Ġcir c
Ġcomple x
Ġempt y
honey bee
S er
n ers
r ain
Ġa ck
Ġb and
Ġo t
gh ting
ĠM ay
Ġsa ke
Ëľ âĢł
pt ed
Ġinform ed
IS T
Ġreset ting
Ġsit ting
ĠCon nect
Ġindivid ually
Ġintrodu ce
Ġsaf ety
Ġrebo ot
Ġemerg ency
S E
le g
ĠT ry
Äł con
ĠF ar
ĠH OW
Ġte en
ĠU X
Ëľ âĢĿ
ey e
Ġrem ot
pect ed
to gether
Ġind ic
Un fortunately
ĠDELET E
ĠWHAT S
Ġfal se
Ġunav ailable
_ _
Ġs ight
Ġh ar
Ġapp eared
ĠS U
Ġv an
Ġli f
ill ion
Äł de
Äł ex
ĠM iss
Ëľ âĢ¦
Ġle aves
ab ase
Ġres our
Ġ8 0
Ġver ified
ĠAny one
ĠMo de
ĠHope fully
Ġcent re
Ex cellent
fl ushed
w o
y p
ad a
Ġfr ame
ĠN ext
ĠC ANT
Ġpre d
Ġwatch es
Ġreason able
Ġluck y
Ġexc ited
hhhh hhhh
Ġdisappoint ment
pur ple
H ad
P ls
i en
in ting
Ġp m
Ġd ream
as k
Ġfor ces
Ġso ld
Ġde p
ĠF inally
Ġgot ta
Ġho st
igh ts
Ġ9 8
Ġ9 9
Â¥ âĤ¬
RI BLE
Ġinit ial
F UL
P er
Ã ¨
Ġt ed
Ġb less
Ġst ri
id ence
ĠP a
Ġnow adays
so ci
ang ed
Ġpl ug
Ëľ Â¤
gr ams
AT ION
Ġcre ep
xx xx
ĠInst ead
augh ing
Ġbeg in
pr int
Ġbre aking
Ġbright ness
Ġrese arch
y c
at in
ĠS low
ĠS omething
Ġeven ing
Ġun locked
Ġ2 1
ĠR ep
Ġcomm ercial
ĠK ey
install ing
Ġsystem s
Ġsign ing
Ġshe ets
Ġmom ents
Un able
Ġmod els
ĠMo bile
Ġadmin istr
EL P
ĠÃ®ÅĴ Âµ
Ġanaly tics
Y our
h ill
i et
i pping
Ġ ~
ĠA ustralia
ĠP erson
Ġany ways
un ction
ĠM ORE
ĠO FF
Ġadd ictive
ĠR ight
Ġinst ance
ÂĿ Â´
ult i
Wh ich
Ġclo ser
Ãĳ ÅĴ
Ġsol id
Ġcare s
Ġspeak ers
Ġpick ed
Ġadv ance
Ġrecogn ise
OP LE
ond on
Ġcompet it
Ġauthent icator
M ore
Ġw omen
Ġm al
ce mber
ĠB ig
Ġk illed
face pal
Ġexperi ences
Ġown er
Ġcar rier
ĠSe cond
ĠCle ar
G G
e k
re et
ĠI ve
Ġy ellow
Ġin no
OS T
Ġcomp ar
Ġsim plicity
ire ct
Ġgu ide
Ġins ert
Ġspec ifically
Ġmark ed
ĠGet ting
ĠJan uary
ĠPE OPLE
W on
a ven
f loor
u able
Ġre v
Ġst eal
Ġme h
Ġli king
ĠM in
ĠH D
ĠV iber
Ġar my
Ġsy mbols
Ġown ed
Ġdeliver ing
Ġend less
Ġprov ider
Ġmist akes
Ġgir lfriend
Ġregister ed
ĠBas ically
facepal ming
l aughing
Ġw ow
Ġde activ
Ġma k
ĠM ILLION
Ġat least
Ġsupp orting
Ġworld wide
sh ru
Â§ Âį
ĠBe ing
ĠNew s
Ġrequest ed
Ġrel ation
Ġhold ing
ĠSer vice
Ġvir us
Ġboy friend
Ġvouch er
acc urate
ĠDOWN LOAD
Ġtroubles ho
Ġvehic le
C annot
M e
b ooks
Ġt ons
Ġd read
en ly
Ġe ct
Ġre li
ĠA P
ĠN orm
Äł v
ĠC ar
ven ue
Ġsa le
Ġwhere ver
Ġcustom ize
Ġref uses
OU R
Ġpassword s
Ġign oring
ĠGI F
ĠBy e
Ġrot ate
Ġpap er
shru gging
at t
Ġto m
Ġcan ce
ag er
ĠD ont
Åĵ Ãł
ON G
wh en
Âı Â»
ĠWor ld
Ġsuper v
Ġinv al
ĠCom m
ĠMess enger
Ġintern al
Ġinf uri
Ġcolleag ues
A BLE
b ar
i ate
s qu
ĠP od
ĠM AN
Ġcall er
ab ilities
ĠLove ly
Â¤ Â¯
ĠCh at
Ġcons istent
Ġprov iding
Ġedit or
Ġpoor ly
Ġsor ts
Ġpar cel
Ġminim al
Ġdu o
Ġconsum ing
Ġcoll abor
Ġmaint ain
Ġdem and
Ġsnoo ze
Ġremot ely
Y Y
g b
Ġa ctions
Ġm ath
Ġc ity
Ġp un
is hing
ch ron
ĠG REAT
Ġv iber
am a
ĠC ons
ĠF ull
ĠH E
ĠH ard
Ġsc r
Ġcr y
Ġtri p
Ġbring ing
Ġdevelop ed
Ġrefund ed
ĠPro blem
Ġval id
ĠDis appointed
ÃĤ Ä
yy yy
ĠAR MY
d ays
ĠS w
ĠW ind
Ġti ps
am ent
Ġde b
Ġpro grams
ĠB U
ĠM on
Ġun st
Ġ... .
Ġspe cially
Â¦ Â°
ĠTHE M
Ġupgr ading
ĠTo day
ĠPro bably
TH ER
Ġpurp oses
Be fore
Ġredu ced
Ġc rop
Ġf at
Ġapp oint
ĠT ake
Ġst ated
ĠTh ink
Ġcom fortable
Ġex ists
ĠE D
Ġdis abling
Â¤ Â¸
ĠRe al
?? ??
Ġdev s
wear y
2 3
F ree
T T
g reen
i ved
Ġs light
Ġfor um
ĠS ad
Ġas soci
ĠÃ ħ
Ġfr ank
rou d
Ġpay ments
ra ised
AN D
ĠWe b
Ġchrome cast
Ġactiv ate
ĠAut h
ĠInd ia
Ġsuit able
ĠHang outs
U sing
l a
at ware
Ġc am
Ġc ases
Ġg ain
Ġti k
Ġpro p
Äł sh
Ġneed ing
Ġsend er
Ġle ads
ft en
Ġwo ke
ĠDe cember
Ġfollow ers
You Tube
Ġind eed
Ġrel ax
ĠWith out
Äłd is
HeyHeyHeyHeyHeyHeyHeyHey HeyHeyHeyHeyHeyHeyHeyHey
Ġscann ing
An other
Ġafford able
Ġkick ing
Ġrecip ient
y n
Ġth us
Ġw ired
ad y
Ġj oy
Äł N
Ġex ten
ĠF ind
Ġplay store
Â¤ âĢĶ
Ġgu id
Ġbas e
Al ways
Ġprocess ing
Ġfigure d
Ġpresent ation
Ġopp os
Ġgir ls
Ġpand emic
A CK
L I
b ly
Ġ ]
Ġt ing
Ġw el
at ory
Ġc ro
Ġc ul
Ġh indi
Ġbe l
qu est
os en
ĠR est
Ġwhere as
Ġfil m
Wh ere
HeyHey Hey
velo p
Ġdet ail
Ġoffer ing
Ġpartic ip
Ġsuccess ful
Ġcrit ic
Ġmaxim um
2 8
E CT
M ake
Q u
d i
Ġf und
Ġp et
an ing
Ġo w
Ġre n
se ed
Ġsh it
Ġint ended
ĠApp lication
Ġcustom ise
Ġfo l
Ġrem ains
Ġfunction ing
Ġgr id
Ġinstall s
Ġstore s
Ġ201 7
Ġpush ed
ĠHey HeyHeyHeyHeyHeyHeyHeyHeyHeyHeyHeyHeyHeyHeyHeyHey
Ġpract ical
Ġsile nt
5 1
F A
H i
K K
le y
Ġre play
Ġ! !
ĠT alk
ĠA V
Ġde ep
ang er
Ġk icked
Ġam pl
ĠF B
ain y
00 00
Ġphoto graph
ĠDe leting
ĠDe cent
Ġtest ed
ĠDELET ING
Ġsyn ced
Ġconfirm ation
Ġutter ly
Ġintr usive
S ame
s hing
Ġp roud
Ġd ot
it ions
ut s
Ġst ates
Ġnot ch
Ġex ternal
Å¸ Ãł
ĠL ondon
Ġfil led
Ġgu arant
Ġcur sor
Ġedit ed
Ġadvert ised
Ġadv anced
rup t
ĠÃĥ Ä
ĠFe b
Ġdat abase
Ġtutorial s
Ġclutter ed
Ġretrie ve
Ġgenuine ly
Ġrew ind
ĠHeyHeyHeyHeyHeyHeyHeyHeyHeyHeyHeyHeyHeyHeyHeyHeyHey HeyHeyHey
l u
Ġ ll
Ġf lex
or row
Ġn est
Ġp ending
Ġd ates
Ġh ill
Ġu i
Ġin box
Ġin accurate
ĠW OULD
ant age
Ġyour s
Äł e
Ġgreat ly
ĠD ON
ĠO ld
Ġass ume
Ġrefre shing
Ġenter ed
Ġfit ness
Ġfail ing
by e
Ġconcer n
Ġimplement ed
N D
c r
g in
s n
Ġm other
Ġn er
Ġp ound
Ġd ots
en ed
Ġfor th
ĠT rying
id ers
ĠG l
Ġas o
ĠÃ Ń
ĠO ff
ĠH AS
ĠH ELP
ĠU ntil
Ġact ing
AS T
Al though
Ġincre ased
Ġrespons ive
Ġspl it
C r
C on
N OW
P S
i os
Ġth reat
Ġs at
Ġb ul
Ġal together
Ġde fe
ĠY et
ĠE xtremely
Ġchoo sing
ĠRE C
Ġorgan ize
Ġbox es
Ġintegr ate
dit ions
Ġpol ice
ĠWind ows
M O
h ile
p ensive
Ġn ative
an a
Ġch osen
ĠL ist
op s
ĠR idiculous
Ġseem ed
Ġrecord s
ĠUS B
ĠBA D
Ġflaw lessly
Hope fully
ipp able
ĠPH ONE
Ġexch ange
e pend
l atin
y a
Ġm ile
Ġb tw
Ġto wn
Ġha ir
ent ially
ĠP r
Ġk m
Ġmo ves
Ġinst a
ĠAl most
ire s
Ġrep air
ĠAN NO
Ġpass code
Ġbo ys
Ġ8 88
Ġorigin ally
Ġrout ine
Ġpub lish
ĠHelp s
Ġsour ces
Ġscreensh ots
ĠPhot o
go ing
Ġscann ed
Ġassign ments
Ġbuild ing
Ġment al
Ã¢Ä¢ Ä
Ġtempor arily
g ers
Ġre nder
Ġre order
et h
ĠY ellow
Ġr ich
ĠP ing
ĠL ive
Ġ2 2
Ġpic ks
ĠK ids
Ġrece ption
ĠIn c
Ġunderstand ing
ĠWor ked
ĠDO ES
Ġoper ating
Ġtest ing
Ġign ored
........ ........
Ġcharac ter
Su per
Ġidi ot
Ġenh ance
ĠAG AIN
u f
Ġd ated
Ġapp eal
se nd
ch ed
ĠL ET
Ġcont ract
ĠU R
ĠR es
Ġplay ers
Ġar g
Ġtrack s
Ġfin al
Ġins ane
Ġcap ital
Ġaccur acy
but ton
Ġdel ays
Ġlar ger
Every time
Ġmeasure ment
Ġtrend s
Ġprotect ion
Ġglo be
Ġvio l
Ġmater ial
Ġbon us
C om
p ass
Ġm il
Ġb read
Ġc amer
ch o
Ġcont roll
Ġdown hill
Ġ5 00
Ġaw hile
sh e
Ġlisten ed
Ġedit s
ĠiPad s
Ġshop s
arr ow
ĠAny way
part ying
Ġtem per
Sim ple
ĠComplet ely
Aw esome
Ġbomb ard
ĠWHATS APP
C P
f ire
Ġm ir
Ġc ous
Ġc art
Ġf ul
Ġre venue
ĠS ony
Ġcon ditions
ack s
and o
Ġsu ffer
Ġpass ed
Ġbar s
ĠSu pport
Ġpleas ure
eeee eeee
for ward
Ġund o
etting s
Ġphys ical
Ġris k
Ġinfuri ating
f ing
u h
Ġd inner
Ġh ence
ve l
Ġy o
Ġre ality
ĠS P
ĠS ee
Ġas h
ive ly
Ġpo cket
Ġfe es
Ġdis h
ĠR u
ff icient
Ġconnect ions
Ġfil ms
Ġallow ance
Â§ âĢ¡
Ġgr ainy
Ġcomplain ed
Ġcontin ually
ĠQu ite
ĠSN AKE
Ġfing ers
Ġrob ot
Ġlab el
che ck
Ġstrugg ling
Ġoppos ite
. ,
Ġw at
Ġb ri
Ġd ram
Ġu k
ĠC ON
let e
Â¤ Â¤
Ġcredit s
ĠTe le
Ġorgan ised
Ġring ing
Ġrepe ating
Ġleve ls
Ġmembers hip
Ġpe ace
pro ve
Ġtrend ing
Ġhur t
Ġduplic ate
agr aph
G B
Ġt all
Ġa y
Ġs incerely
Ġapp lied
om i
ĠL ost
Ġset s
Ġhigh li
ee e
ÂĲ âĢ¢
Ġcount ing
Ġconsider ation
Ġcut ting
Ġring tone
Ġspo ken
Ġplann ing
b d
Ġi T
on ed
Ġha v
Ġst e
ap t
lo x
Ġgo ver
Ġex per
ĠL ook
ĠL ol
ĠH ere
ĠH ATS
Ġcl ue
Â¤ Â¦
Ġautom ated
cess arily
Ġorgan ized
Ġpack age
ĠEn joy
ĠId k
f ric
h rs
i ar
Ã §
Ġc able
ar p
ct ure
ĠB ug
ĠP ower
ĠM ESS
ĠO b
Ġun ex
app ointing
Ġloo sing
ord in
ak ed
Ġend ing
ĠWor k
avig ation
Ġfl ag
ĠOne Plus
Âª Ã°
Ġinterest s
put es
gust ed
Ġdisconnect s
Ġtrave lling
ĠDelet e
Ġauthent ication
Ġdemon et
Ġgest ure
Ġhomes creen
h d
t es
Ġf lo
le ading
Ġwh om
Ġha i
se ts
ĠT OO
th y
Ġcon d
ĠD ata
ĠO ur
ĠE as
ĠU t
ĠR ob
Ġ3 000
ĠSt ories
Ġhome page
Ġter min
Ġdec ides
Ġrespon ses
Â¥ Â°
Âµ Ãł
Ġbackground s
Ġmeas uring
Ġident ify
Ġeduc ation
Ġbenef its
Sh ould
Ġsimpl er
FFFFFFFFFFFFFFFF FFFFFFFFFFFFFFFF
Ġinvol ved
Ġencounter ed
A GE
L o
M any
w r
z y
Ġw en
Ġn ic
Ġg ps
Ġre ward
ack ed
Ġad mit
Ġal oud
Ġr ang
ĠD I
Ġun com
Ġread s
Ġref lect
Ġpri mary
Ġaud ience
Ġpa uses
20 20
Ġcou nter
Ġrefund s
Ġcop ied
Ġpar agraph
Ġstud io
ho ea
Ġpower ful
Ġidi ots
Ġoutf it
ĠAuth ent
W AYS
g lowing
m g
ĭ Ä
re g
re sent
ou l
Ġb are
ll ll
Ġg d
it ude
ĠA CC
Äł ch
Ġcont r
Ġim m
Ġcr ing
Ġinc omp
Ġkey word
Ġaccept ed
Ġestim ated
Ġenvironment al
Inst ead
Rec ently
Ġfrank ly
z es
ĠI phone
Ġre fer
ap an
if ies
Äł O
ĠM ade
Ġat ion
up date
Ġgl are
Ġfa ults
Ġbo ld
Ġdr aining
Ġreco very
arr hoea
Ġcopy right
ho ds
Ġrequire ments
atisf ied
** **
Äłt r
ĠAL WAYS
Keep s
Ġscrew ed
Ġpromot ion
udd enly
eliev able
ĠNorm ally
T r
i or
i ri
l ook
u ct
Ġb oo
Ġu m
ĠW icked
el f
Ġad ult
ĠM ac
Ġex er
ĠH indi
ĠE ach
ough ly
Ġbl ame
ĠTH ERE
ĠK EE
ie ld
ĠNo kia
Ġupload s
aw ay
ĠWH O
Ġmet hods
Ġrestric t
Ġflaw s
ĠCont act
Ġscann er
Ġconcer ned
IG HT
Ġdiss ap
squ inting
B ring
g oogle
p op
ĠC ONT
Ġcont ain
Ġcont rolling
Ëľ âĢ°
Ġpr oof
Â¦ Â¨
ĠX x
ÂĿâĢľ Â®
Ġtable ts
ĠEVERY THING
Ġsuccess fully
Ġbi ased
Ġencry ption
ĠHu awei
ĠAv oid
ĠDi arrhoea
Ġtom orrow
' .
C R
p ace
Ã ©
Ġw arm
ĠA ir
ĠS ORT
ul ting
Ġma ch
Ġtr ick
ĠD ay
Ġout put
Ġser vers
gr aded
Ġhe ck
ia omi
Ġho le
Ġyout uber
rol led
Ġind epend
Ġpurch asing
Ġself ies
Ġprior ity
Am azing
ĠANNO YING
ĠSNAKE U
2 5
P hone
T errible
c all
Ġs ix
ĠI ss
le ng
Ġl isting
et ime
ro ken
ĠP ol
ur ring
ĠL ooking
ĠR eli
Ġspe ll
ĠTHE N
Ġoccur red
Ġsoooo o
Ġbroad cast
Ġrect ify
ĠOM G
Ġack now
L ast
T ING
c ation
Ġ Âģ
Ġth r
Ġs weet
in ter
Ġp oo
Ġp atter
Ġd ash
Ġre app
ĠM essage
ĠL L
Ġun it
ĠU r
Ġ4 8
ĠK NOW
Ġcreat ive
Ġfl at
Ġhang ing
Ġoper ator
Ġut il
Ġincon venience
Ġunst able
Ġcamer as
A H
F rom
U s
e ven
i ans
k a
Ġne at
ess ion
Ġde mo
Ġop t
Ġrec order
ĠV er
Ġbad ge
Ġtri gg
Ġsp otify
we at
Ġcustom ization
Ġinc or
Ġaccess ing
ol a
Â¦ Â¬
AR E
Ġaddress es
Ġstatus es
Ġcommunication s
Ġrel atives
Ġlearn ed
Ġexc use
Ġspo ke
Ġplan et
Ġant i
Ġgraph ics
Ġnetwor king
Ġbehavi our
Ġgover n
B ad
N N
S amsung
h ugging
o or
Ġt ag
Ġf b
Ġd im
an ish
Ġg board
Ġe le
ĠS ER
Ġch ips
Ġcon venience
ĠF av
Ġqu iet
ĠR et
Ġbu d
ĠSt ars
Ġweek ly
Ġreply ing
Ġorgan isation
Ġdraw ing
ĠCont acts
Ġmar ks
Ġproject s
Ġjourn ey
Ġcompens ation
Ġcreep y
C le
H aving
M akes
i w
er ed
Ġc ri
ĠA udio
Ġse lling
ĠÃ ³
Ġwe ight
ĠB uy
ur y
Ġmo b
Ġout standing
ĠL uv
Ġbet a
ĠSnapchat s
urn s
up s
Ġsub s
ĠThank you
Ġgr ab
Ġworth less
Ġear ned
Ġexpect ing
ĠAd min
air s
Ġflaw less
Ġcompet ition
1 8
M o
c orrect
h r
p oints
at ically
Ġp le
Ġp ure
ar ter
ĠA ccess
ĠS ettings
Ġpo ll
Ġacc om
Ġcont ribut
Ġun sk
Ġsu ck
Ġco vers
Ġen ables
ĠSt upid
AT CH
Ġbit s
Ġtrans action
Ġsection s
ric s
Ġfac ed
Wor st
Ġroad s
uu uu
Ġsens itive
Ġseam less
Ġtroublesho oting
E specially
f c
g a
j e
Ġs om
ĠI nt
Ġy all
ĠW ant
ĠW ats
Ġus ability
Ġwork out
Ġr are
ĠP RO
Ġoff ensive
Ëľ âĢŀ
art ed
Ġpr ay
du ct
Ġprom ised
Ġinclud es
ĠFR I
Ġoper ation
Ġaltern atives
Ġcover age
Ġdrop s
Ġforgot ten
Ġleg it
Ġglo bal
Ġbur ger
lar na
ĠÃ°Å¸ÅĴ Å¸
Ġhorri fic
Ġinno v
a ld
u ro
Ġi v
Ġd om
Ġh at
Ġre cc
ĠT W
ack ing
ĠP R
Ġback ing
ĠE d
and y
Ġyear ly
Ġdes ired
Ġdef in
Ġswitch es
Ġgener ous
Ġfail ure
Ġkill ing
Ġpract ically
ĠFr iday
Use less
ubscri be
Ġfli p
Ġheav y
ĠSign al
ĠKey board
Ġdread ful
Ġdefe ats
c re
d is
d ouble
s pe
Ġs ides
Ġg ud
Ġapp arent
ar ies
Ġre ject
Ġse ason
ĠS l
Ġch ill
Ġde ath
Ġtr aining
ĠF il
elp ful
Ëľ Ëľ
Â¤ Â©
Ġpr a
ip ed
Ġret ry
Ġdec l
Ġcreat es
Ġreal ize
to k
Ġfl ow
Ġremo val
Ġbusiness es
Ġcap abilities
ĠUS A
Ġrespond ed
Ġorgan ise
Ch at
Ġpie ces
Ġanim ation
Ġattach ed
Ġbi as
ĠTele gram
B ook
F r
R ubbish
d ream
Ã Į
Ġth x
Ġc asting
Ġp atch
Ġh y
Ġh ated
Ġha vent
ac ity
ĠW AY
Ġpro b
ĠB L
Ġr ap
un am
Ġpl ans
Ġgo ld
ĠL E
ĠE v
ir ty
Ġcont ains
Ġsc ared
ash ed
ÃĲ ÂºÃĲ
Ġown ers
Ġfrustr ation
Â¦ âĢ¢
Ġgr owing
ĠDe c
âĢĻ Â©
Ġenter ing
Ġsepar ately
ĠEVERY ONE
Ġposs ibility
-- --
ĠDes pite
Ġfu zz
ĠAcc ount
Ġton ight
Ġnetwor ks
ĠCOM P
Ġdesper ately
ĠPerson ally
ĠMAN Y
R Y
U pd
V iew
Y S
n ite
Ã ļ
Ġm es
Ġb s
es th
Ġis t
Ġe ating
ĠA I
ad d
Ġdo se
ess ages
Ġad ults
ple ading
lo ve
Äł se
ĠD ID
ĠO ct
and a
Ëľ Â¥
we ets
ĠK FC
AT ING
ra ft
Ġkeyboard s
Ġkind s
ĠDis c
Be en
Ġincon s
Ġbeaut y
Ġassign ed
Ġmarket ing
Ġsqu are
Ġdestro yed
Ġchal leng
Ġinvest ig
Ġfamil ies
Ġens ure
Ġrac ist
organ ised
Ġted ious
4 5
C o
L et
g ood
or a
Ġg ap
Ġl ite
it o
Ġwor ried
Ġcon ference
Ġj e
Ġab use
ĠE ats
Ġcl icks
Ġco vid
IN E
Ġaccess ories
Ġgr ad
IS H
Ġaddress ed
Ġprefer ences
cl own
Ġ201 6
Ġfore ign
ÂĿâĢľ Â¸
ho ld
Ġdescri be
ĠFab ulous
Ġcele bs
Ġindividual s
Ġexc iting
ĠInd ian
Ġsyn chron
Ġalgorith ms
UP D
Ġswear ing
Ġpan el
Ġassoci ated
ĠReli able
G H
o ber
Ä ´
Ġi on
Ġm at
Ġd ual
Ġg y
ĠA fric
ĠW ord
Äł a
ang ry
Ġab and
Ġrecommend ing
Ġrecommend ation
Ġmon et
ĠSt reet
Ġent ry
Âģ âĢĵ
Ġdisc uss
Ġ8 6
ition al
Ġver t
Ġsmart phones
ĠUS ER
ĠMe et
Ġperman ent
Ġrestar ts
OOOO OOOO
Ġloyal ty
Ġdistur b
Ġlaw s
Ġsignific antly
ĠFriend s
Ġunex pected
P N
U U
Ã ı
Ġb le
Ġf ool
ic y
Ġe cho
Ġ! !!
id ays
ess ed
ĠW ATCH
ĠM i
Ġab s
ig r
Ġinstall ation
Ġadvert ise
ËĨ Ã«
ĠÃĺ Âª
Ġprom ote
IT E
Ġparent al
Ġmen us
Ġvis ually
Ġstraight forward
Ġjoin ed
Ġcompat ibility
Ġmail s
len ge
To day
ĠChe ers
Ġsile nce
ĠPL AY
Ġunt ill
ĠAct ually
Ġcul ture
G S
P LEASE
S omething
U M
v ies
y in
z any
ing ly
Ġh ook
pp pp
ĠA p
ĠS ick
ĠS ound
ĠS OME
Ġv ice
Ġsh arp
ul ate
ĠN est
ĠM ulti
Ġgreat er
Ġam az
ĠD M
ĠD if
ĠH APP
Ġstre ams
Ġloc ated
Ġbit mojis
AS H
ĠDe vice
Ġpick ing
Wor ked
ĠDis gusting
Ġep ic
ĠGP M
Ġlab els
Ġdial er
Ab solutely
Ġcompetit ors
unam used
! ?
A C
V ID
h al
Ġw in
Ġn atur
Ġse es
th at
ĠW aste
ĠB us
ĠP ar
Äł I
un ning
ĠE N
gr owing
Ġed ge
Ġrep resent
Ġcol um
wh y
ild ren
Ġmed ium
ĠNOT HING
Ġplac ing
Ġsync s
Ġchrome book
Ġactiv ated
Ġla id
Ġtransfer red
Ġunre spon
Ġben e
Ġhum ans
Ġinterrup ted
Ġdepend ing
Ġinval id
ĠRu ined
G et
j j
Ġh ub
it les
Ġas ide
ĠP O
ĠM a
ep ie
Ġsc en
umb ers
Ġres ume
Ġunder st
pect ive
Ġthank you
Ġremo ves
Ġstay ed
nc y
Ġap olog
Ġconsider ed
Ġcop ying
Äłc om
ĠDis putes
Ġadv antage
Ġcor porate
Ġri p
Ġeffective ly
ugg ed
Ġsubject s
Ġpor tion
ĠGu ys
Ġstrong ly
mar ks
Ġann ou
Ġdistr acting
Ġded icated
ĠiT unes
Ġbud get
T ry
U RE
b u
e el
i ven
j i
o on
p oint
re st
ic ing
om iting
ver se
ad o
ĠS ending
th inking
Ġlo ses
ur ve
Äł th
ĠE T
Ġdis gusted
Ġcr appy
ud es
Ġthough ts
ĠDo cs
Ġexp os
Ġcount less
Ġgener ic
Ġinv ite
Ġmanag ing
Ch e
Ġinf lu
Ġbill s
Ġoccur s
Ã£ ÆĴ
Ġunh elpful
!!!!!!!! !!!!!!!!
Ġjum ps
ĠTrans l
Ġunrespon sive
G ive
R R
V I
e me
o logy
u x
u nder
v omiting
Ġth ro
ing o
it le
Ġy r
Ġre nt
se qu
ĠA gain
Ġpro bs
if ier
Äł k
ĠC urrently
Ġk ing
au d
ĠO P
ĠO mg
Ġrec ieve
ĠU AV
Ġpre v
em ent
Ġint ention
con f
Â¤ Â¿
iz able
Â¦ Â¯
Ġcontent s
ah a
ĠÃł Âª
âĢļ Â¬
Ġcontrol led
OO K
Ġfre aking
Ġmove ment
Ġtransl ating
âĢ¹ Â¤
ath i
Ġanswer ing
Ġoccas ional
ĠCom p
Ġwidget s
Ġri ghts
Ġcover ed
Ġfinger print
Ġaffect ed
Ġcrit ical
EEEEEEEE EEEEEEEE
Ġprep ared
Ġcompar ison
Ġexten s
ĠAuthent icator
Ġmach ine
S uch
U D
X L
Ġh rs
is ions
ate ll
ĠA A
Ġli es
Ġj us
Ġr ings
ĠM ine
ir t
Ġun su
Ġag end
ĠÃ¢ Åĵ
act ory
Ġle n
ĠNo body
Ġter ri
ĠX s
Â¥ Â¤
Ã¡ ÆĴ
Ġro ck
!!!! !
Ġcomput ers
St ore
Ġbann ing
Ġminim ise
ĠCl ass
Se cond
ĠDownload ed
Ġvirt ually
Ġsubt asks
ĠFo ssil
Ġdistur bing
Ġseam lessly
ĠÃĻËĨ Ãĺ
C ont
R em
V ICE
f all
m ers
p re
Ġt s
Ġw it
Ġc ore
Ġha ha
id ge
ble d
ĠN E
Ġmess es
Äł j
un ic
Ġwill ing
age ment
Ëľ ÂĲ
Ġcl ar
Ġnice ly
Ġaccess ed
AT ED
LE D
sc ore
ĠTHE IR
Å¡ Ãł
Ġblo atware
Ġfl ick
Ġprof iles
Ġreturn ing
20 21
Ġtrave ling
Ġmis leading
Ġsurpr ise
Ġschedu led
Ġconfig uration
ĠSm art
Ġimpress ive
di epie
A IL
W W
a fe
s weat
Ġa esth
Ġf fs
Ġp ew
it ation
ĠT ER
ĠT ook
ĠA F
ĠS ub
Ġsh if
ĠB ET
ĠC al
Ġpo kemon
ĠU l
Ġ3 00
Ġhapp ily
form ation
Ġtouch ing
ra id
Ġtrans actions
Ġsocial ise
rr or
Ġspec ified
Ġcent er
ĠWho ever
kiss ing
vol ving
Ġassist ance
Ġcirc les
ĠMiss ing
Ġappoint ments
UPD ATE
G UI
L UT
P ixel
a ited
p ic
r age
z ing
Ġs un
Ġs au
Ġh arm
Ġin ch
ch ing
ke nd
ĠT ik
ĠT wo
ĠG ud
Ġsh ip
Ġr am
ĠP h
ĠP ER
ĠF ive
ort ed
pl ace
Ëľ Â¢
Ġwho se
ÂĿ âĢĿ
Â¤ Â·
Ġ10 80
Â§ âĤ¬
sk ull
Ġsch eme
Ġnavig ating
Ġgen ius
hh h
Ġimportant ly
Ġgener ate
ath etic
âĢĵ Â´
Ġstud y
Ġredu nd
Ġlaunch ed
ĠAr t
Ġcelebr ity
Ġattempt ed
Ġhack ers
Ġfro ze
HH HH
ĠAW FUL
Ġvouch ers
press ion
Ġclient s
Ġchal lenge
ĠÃ¢Ä¢ Ä
Ġfoot ball
Ġexe cut
Ġwel come
Ġcritic ism
ĠAdmin istr
Ġrecc omend
W H
p a
er ies
se e
th ere
Ġor ient
il s
Ġgood s
Ġsome what
Ġ2 3
Ġover r
Ġcr ying
IN K
Ġrest ored
ĠTH ING
igh b
Ġtop ic
Ġbrilliant ly
Ġrecord ings
Ġ9 5
Ġpixel ated
ĠCon f
Ġpol ite
ĠHelp ful
Ġcens oring
Ġconcer ns
Ġcolle ge
Ġmag ic
ĠChe ck
Ġphys ically
hor ns
Ġtx ts
ĠMot o
apan ese
C ant
C ome
c raft
i ation
j a
k i
ri l
ri ous
Ġv o
ag ree
Ġde g
ĠO THER
Ëľ âĢĺ
Ġfind s
Ġ3 5
Ġinter action
ĠK indly
ĠK larna
wh ile
Ġer ase
Ġappear ance
Ġdifficult y
Ġhead ache
ĠÃĻ Åł
ĠLO T
Ġentertain ed
Ġclean ing
pro f
Ġscore s
Ġhur ry
ĠAdver t
fair y
Ġvibr ate
Ġclip board
ĠPri v
ĠVIDE O
Cr ashes
D ef
S c
Ġa mend
Ġi ce
Ġw tf
re volving
Ġm ood
Ġb um
or ola
Ġg ro
is p
Ġbe ll
Ġbe ep
Ġbe gging
ut ions
ut ral
Ġin e
Ġst ats
me m
el ines
Ġwe aring
Äł V
ĠF E
im ent
ĠL ink
ĠH OR
ĠE ither
Ġun pl
Ġ2 8
Ġle d
ff ers
int uitive
up side
ĠJ une
ĠWor king
star s
Ġhor iz
Ġprof it
ĠSh ocking
Ġspeed y
Ġwal ked
ĠBr it
bl ue
Ġmer ge
Ġurg ent
Ġcond ition
ĠLL C
N OT
f ix
i Ãĥ
l ines
Ġw ings
Ġf light
Ġp ig
pp er
Ġg e
as ion
Ġup to
Ġup coming
ĠA lex
ad ow
Ġat ed
ĠC ard
Ġtr ad
ĠL ong
Ġbu zz
mo on
âĢĺ Âı
Ġes c
ru ary
Ġprov iders
Ġear s
Ġsit u
Ġsched ul
cont in
Ġrelation ship
Ġbel ong
Ġfol ks
Ġner ves
Ġnic er
Ġuncom fortable
B etter
Y outube
a lent
j f
m illion
y nc
Ġs le
Ġd ict
is c
Ġre ar
Ġst ating
Ġnot ifying
ĠS ays
ĠS ave
ĠTh x
ĠTh ough
ill s
ĠC S
Ġgo al
Ġtr ail
Ġsc ri
Â¤ âĢļ
ak er
Ġret weet
wh ite
Â¦ Â¦
Â¦ Â¿
Ġrecei pt
fic ial
Â¥ âĢ¹
Ġpa used
Ġfeed s
br ow
Ġsmart watch
Un installed
Ġdisconnect ing
Ġupset ting
Ġpolit ics
Ġclaim s
Ġvibr ation
Ġsubt itles
Ġtik tok
Ġcontroll er
Ġdash board
ĠUSER N
atell ite
F inally
L atest
S earch
j s
v o
Ġs ir
Ġd iv
Ġg ar
Ġbe es
Ġst ation
th ank
ult ane
ĠJ o
ra w
ell ig
ie ce
LE SS
Ġrep et
Ġtrans port
Ġsw ap
rop hy
ĠST UP
ĠRE MO
Ġval uable
Ġstick er
ĠIN ST
Ġev il
Ġred irect
Ġsens or
Ġsho cked
Ġaf raid
Ġgri pe
tttttttttttttttt tttttttttttttttt
Ġencour age
Free Co
velop ers
ĠFRI END
ĠSTUP ID
FreeCo co
G ot
H ello
h ood
v ideo
re aming
Ġis ol
ver t
Ġe c
Ġyour selves
Äł Ãĥ
ĠC ens
ĠF ine
Ġsc ient
Ġsu peri
Ã°Å¸ Å½
Ġpay ed
ĠSt ay
Ġwee kend
Â® âĢ¢
ĠAll ows
Ġbar gain
IT Y
Ġrout ines
ĠDis appointing
Äłp ro
Ġpin s
Ġsleep ing
Ġfan cy
Ġattem pting
Ġdraw back
ĠWOR ST
ĠAD VER
Ġmonit oring
ĠSH OULD
ĠRem ove
iiii iiii
Ġgovern ment
b ot
b ow
Ġa ce
Ġs li
er al
on a
Ġn ick
Ġn arr
all pap
ĠN or
un no
ts app
ĠV PN
Ëľ âĢ¡
Ġen abling
con s
ab lish
Ġsp y
Ġdef o
Ġtrans ition
Ġcons ent
Ġexp ired
Â¯ Âį
Ġcar s
ric t
Ġridiculous ly
Ġpain ful
Ġpreview s
Ġdraw er
15 28
Ġconver t
ĠAmeric a
ĠAmeric an
Ġdisgrace ful
Ser iously
ĠPod casts
ĠACC OU
ĠBus iness
Ġredund ant
Ġsuperi or
6 9
F ORE
m et
n ame
r ong
x l
Ġs i
Ġs is
ar ound
st op
ĠT AKE
all ow
al i
ĠS EE
ĠS OM
Ġsh ape
Ġal ign
Ġma le
ĠM ark
Ġat ro
Ġex cel
ĠL ife
ĠO ften
Th ese
ĠE at
Ġcould nt
ature s
Ġstor ing
ĠiP ods
Ġdeli vers
Ġmin us
ĠRe ad
Wh o
Ġ6 12
Ġter m
Ġreg ion
Ġgr own
Ġcons erv
Ġtrack er
Ġcost ing
Ġaccur ately
ĠRec ent
ĠAD S
Ġconfir med
Ġcontinu ous
Ġident ity
Ġinterrup ting
Ġappro ve
Ġhur ts
Ġleg al
Ġul tim
ĠVIDE OS
Ġdeactiv ate
Ġpun ct
23 51
Ġunsk ippable
ĠOct ober
Ġ86 1528
Ġ861528 2351
= =
P oor
X T
h g
Ã ĭÄ
Ġf uss
Ġn u
as c
st it
ĠS urely
ĠG oo
Ġv ast
ĠB O
ĠB EEN
ĠN one
Ġma inst
Äł K
ĠF ire
ĠF iles
ĠE m
ast y
Ġag ent
Ġman ip
Ġpre cise
OS E
Ġvers a
ach a
Ġstre ngth
ĠST OR
Ã« Åł
Ġstr ang
ĠBE FORE
ĠYour s
cle ar
ĠCr ap
Ġmassive ly
ĠDELET ED
Ġrespons ibility
Ġequ ip
ĠCO VID
SO LUT
Ġresour ce
Ġarg um
ĠOb viously
Ġbene ficial
0 1
A ut
O h
R est
X X
d ers
f a
h an
y le
Ġm aster
Ġd uration
ld er
Ġal ter
ĠM US
im ate
ĠH ARD
Ġrec urring
ind s
Ġag re
Ġamazing ly
Ġsm h
Ġless ons
Ġpress ure
Ġdifficult ies
ex us
Ġarri val
Ġauto correct
ĠST RE
ĠChrome book
ĠSome one
Ġhit ting
ĠRecommend ed
eye brow
Ġguid elines
Ġexpos ure
Ġmainst ream
B y
D ER
F E
d og
i pped
l ated
p ot
Ġth ick
Ġw ild
Ġm b
Ġc ooking
Ġl ic
ĠT ab
Ġst ability
ĠS ay
gh ter
Ġj ack
Ġj ud
Ġde ar
un ication
Ġbl ah
ud s
ĠRe view
ie ved
Ġref ine
Ġfeel ings
Ġtrans p
Â¦ Â¸
Ġext reme
Ã¡ Å¸
Ġsec ret
Ġtransl ated
Ġclass ic
ĠPro f
Ġpar a
ĠLo ads
Ġjoin ing
Ġtrust ed
Ġhol idays
Ġul tra
Ġamong st
Ġfamil iar
Ġdoll ars
Ġtast y
Ġcance lling
ament al
I I
T E
f ood
v in
Ġw ard
Ġw itch
re ate
Ġb ubb
Ġn uts
Ġp ed
an i
an cing
Ġst one
ĠS af
Ġpro ve
ĠB Y
Ġr ide
Äł o
Äł be
Ġdown fall
Ëľ âĢ¢
vers ity
umb er
ĠApp arently
Ġtim ing
Ġhe ight
Ġsim ultane
Ġcustom izable
ĠSt aff
Ġhigh est
Ġcreat ion
Ġhalf way
Ġdesign er
Ġexpect ations
ĠUn installed
Ġgener ated
Ġtransfer ring
ĠSp anish
Ch rome
ĠTr ash
ĠGen erally
Ġcomb ined
erm es
Ġencry pted
Ġcy cle
Ġom g
Ġinvent ed
Ġobs essed
ĠFeb ruary
Ġpound s
uro pe
umbers ome
ĠBET TER
ĠUl tra
F I
f aces
Ġf its
Ġo o
Ġon going
ĠT weet
ĠA CT
Ġne ighb
Ġse x
Ġv ile
ĠÃ Ĺ
ĠÃ ļ
ur sing
Äł im
Ġwould nt
ĠD ue
Ġcont ext
ÂĿ âĦ¢
mo bile
Ġact s
Ġtake away
ull y
Ġsp orts
ĠIn stant
iv o
.... ...
Ġsubscri ber
Ġsk y
lie ved
ĠUn install
Ġrestric tion
Ġgre ed
Pl z
Ġ:- (
Ġstru cture
Ġappro x
Ġdro pping
Ġshortcut s
Ġobject s
Ġbull ying
ĠShe ets
ÃĻÆĴ ÃĻ
Ġpercent age
ĠList en
Ġpatter n
Ġhoriz ont
Ġsitu ations
Ġscient ific
- )
P oint
l us
n ew
r id
x i
Ġt apped
in ts
Ġw icked
Ġb urn
Ġb ound
Ġb order
Ġf ear
Ġn ah
Ġp u
Ġe lect
et er
Ġst alk
Ġv s
Ġv ed
est ing
ul ations
Ġma nd
ĠM edia
ĠF re
ĠD a
ĠL ens
ĠH ermes
Ġdis put
Ġhapp ier
Ġspe lling
Ġgroup ing
Ġsl ick
be ing
be ating
Ġfo ssil
ak y
Ġvoice mail
dd dd
Ġfact or
Ġbrows ers
Ġprefer ence
cl oud
Ġfilter ing
Âº Ã¯
Ġpresent ed
Ġefficient ly
lev ision
Ġfoc used
Ġconsum er
Ġoutf its
Ã°Å¸ÅĴ Å¸
ÃĳÆĴ ÃĲ
ĠSTAR S
Ġretail er
Ġurg ently
Ġexcl usive
Ġcommercial s
ÃĤÄ ¿
ĠSad ly
uf act
Rubbish Rubbish
Ġrap id
Ġequip ment
ĠMUS IC
C ON
b roken
e g
g les
l am
n ause
Ġm u
Ġm igr
Ġb all
Ġc ents
Ġp itch
Ġl unch
th anks
ĠÃ İ
Ġat m
ĠC or
im in
Ġfe ll
ick ing
Ġover l
Ġ- -
Ġcr u
Ġimp act
Ġtalk ed
Ġmem es
Ġcorrect ed
Ġdet ailed
ĠPro gram
ĠFirst ly
Ġest ablish
Ġanim ations
Ġconfig ure
ĠCo vid
Ġconv o
Ġalphabet ical
Ġmak ers
Ġprop ag
Ġindepend ent
Ġmat ters
ĠTER RIBLE
! )
M L
S top
h ey
l ink
m es
m en
t c
Ġi es
in ary
Ġb ang
or k
or age
or oughly
Ġd er
Ġh iding
se c
ch ool
ag ue
ĠW R
Ġcon stru
am il
ĠP art
ĠD r
Ġrec omend
Ġfe male
iz on
IN T
Ġsp ons
ip ts
ĠCh ar
ĠÃĤ Ä
Ġproduct ivity
mit t
ah oo
Ġpa using
ED IT
Ġcap tions
Ġpain ting
ho b
ĠSe c
ĠMo vies
Ġtit les
Ġrese ts
ĠUpd ates
Ġrespons ible
ĠNEED S
AK ING
Ġtele phone
ĠSa ved
Ġaspect s
ĠReg ards
ĠMin i
Ġcous in
ĠAfric a
Ġagend a
nause ated
1 7
6 5
B as
H igh
I ES
I nc
S orry
U E
h am
y ellow
Ġ 00
Ġa h
Ġa ting
Ġa im
Ġw oman
re h
Ġc as
Ġf t
Ġo ops
Ġis h
ĠT im
ĠT itle
ad v
Ġli m
Ġcon cl
ĠB IG
ur al
ĠN ight
ĠM ap
ĠM arch
ĠC ol
ĠE S
Ġdis aster
Ġ2 7
de em
ĠApp Store
Ġper mit
ton es
Ġche ers
Ġstre ets
Ġcle ver
ĠCh ina
Ġavail ability
Ġslow s
Ġprodu ce
Ġlay ers
Ġclear er
AN G
Ġenjoy ment
Ġfast est
âĢĻ Â¸
ĠAb out
Ġro le
Ġhead phone
Ġprom o
aa a
Ġadv ised
aut iful
Ġroom s
ĠYT M
ÃĻËĨ ÃĻ
Ġpract ice
Ġappro ach
kk kk
Ġdetect ion
Ġhack er
nn nn
Ġunb elievable
Ġinteract ive
Ġarr ange
ĠOp en
ĠGIF s
Ġparticip ants
sn ake
Ġexer cise
Ġreapp ear
ĠSOM ET
C onnect
P L
R OU
U p
r t
s av
Ġt aste
Ġf ather
Ġn t
Ġp p
Ġp ink
Ġd ied
an cy
pp a
Ġg eo
Ġl ying
Ġbe ar
ĠT ell
ĠS iri
th s
Ġme als
Ġwor rying
ĠW A
ap es
Ġde part
Ġwe ak
ĠB ang
ĠP UT
Äł J
ĠF l
ĠE rror
ast ically
Ġman ufact
ĠV ers
Ġco ordin
Ġtext ed
IN D
Ġsl iced
Ġpr on
plet e
Ġbas ics
Ġx ox
Ġsoon er
Ġac ce
Ġcount s
Ġdet er
Ġrepl acing
Ġtransl ations
Ġrel ig
Ġbother ing
ĠGo ing
rup ted
Ġtem pl
ĠSnap Chat
Ġsus p
Ġpolic ies
Ġexplain ed
Ġdig it
Ġrebo oting
ĠAcc ording
Ġpiss ing
Ġreconnect ing
PT ION
Ġash amed
Ġbubb les
C urrently
D D
E ver
L ooks
O B
S ad
V ING
b lack
f ast
g ely
h t
m al
o gn
x ic
Å Ĥ
Ġs atellite
Ġw er
Ġf ot
Ġg ut
Ġg ig
Ġapp Ã°Å¸
Ġre deem
ĠT able
ĠT asks
Ġdo sent
ĠS W
ĠS ept
Ġv i
ĠÃ ¥
Ġad apt
ation ally
ur s
ĠM B
Ġab it
ĠH AD
Ġrec yc
Ġsc ans
Ġta lent
load ed
ĠR ID
Ġle ading
ff o
Ãł Âª
Ġsent ences
Ġx s
Ġdec isions
AS S
ĠFace Book
Ġz one
Ġfl u
ĠDe v
ative ly
Ġatt end
Ġatt ract
Ġlear nt
EN S
ising ly
Ġclass room
Ġfault y
Ġdeal ing
Ġrefresh ed
Ġmod ify
Ġthous and
ye es
Ġhar ass
Ġtemper ature
ĠKEE P
ĠFav our
Ġincons istent
hal o
Ġnatur al
Ġrepet itive
Ġatro cious
Ġrecyc led
A W
T ot
p ay
Ġ ou
Ġto k
ĠI v
Ġy rs
et ch
al king
ĠS witch
Ġch inese
ul ation
ĠB o
ĠN ove
Ġk orean
Ġmo on
um er
Ġsc ale
ist ed
Ġqu arant
Ġman ner
ĠR U
Ëľ Â©
Ġint ellig
Ġhe ld
Ġar m
Ġcustom isation
AT ES
ĠCh annel
Â§ Âģ
ens ion
âĦ¢ âĤ¬
Ġproper ty
Ġdisc ord
Ġsur v
Ġfl ies
Ġsk in
Ġprom pts
mm m
ĠSnap seed
len ce
Ġactive ly
Ġinterrup tions
Ġcollect ed
Ok ay
Use ful
Ġstress ful
ugg y
ĠPL S
ahah ahah
Ġthread s
Ġq r
ĠAB SOLUT
Ġresour ces
Ġcollabor ation
ĠED IT
ĠTalk Back
Ġguarant eed
Ġmob iles
Ġextens ion
ĠACCOU NT
9 5
B UT
C l
I A
L ots
a fter
a ired
d r
Ġb es
Ġf uming
Ġn amed
Ġd ying
en omen
Ġg iant
Ġl es
ic ate
Ġre ference
ĠT weets
ĠTh ree
Ġso ci
ĠW aze
ĠW aited
Ġph r
lo sed
ĠC ALL
Ġex cess
ĠO ption
ĠE nd
Ġdis li
Ġfree ly
Ġworks pace
Ġtheir s
gr av
Ġcomm it
Ġpr iced
Ġreview ed
Ġconf usion
Ġfa ith
Ġru le
wh el
Ġpri me
velo per
OO D
Åł Ã¡
Ġear phones
Å½ Ã°
Ġap k
Ġsk ype
ĠSu ggest
Äłs p
ĠAd am
Ġbeh alf
Ġut ube
ĠPo kemon
ĠIP ad
ĠCont in
Ġinit ially
res pect
Ġaffect ing
Ġmot ion
Ġemplo y
Ġemplo yees
Ġflo ating
ĠPRO BLE
Ġpra ise
Ġje ans
Ġpew diepie
Ġtrad itional
C I
C amera
H ard
I d
O ver
P al
b re
n ced
u k
Ġi ron
Ġth ie
at o
Ġc ale
Ġn av
en g
Ġl ou
Ġapp l
st ep
ri ve
ĠW aiting
Ġas leep
Ġsh ift
Ġgood bye
ĠY EAR
ĠP e
ĠF U
Th ough
ĠE M
Ġte levision
Ġ3 1
fer ent
ÂĿ âĢŀ
Ġsnap score
iant ly
Ġrece ipts
Ġseem ingly
Ġel imin
Â° âĤ¬
âĢ¢ Ëľ
Ġboth ers
âĢĻ âĢ¢
ĠWH ERE
Ġrequest ing
Ġtransl ator
OM M
Ġforward ing
Ġ201 3
Ġcal ories
Äłs u
ĠIN G
zz zz
ĠSe lect
Ġsn apping
Ġopp osed
Ġdescri bed
Ġprotect ed
Ġrebo oted
With out
Ġpers pective
Ġpan or
Ġtele gram
Ġtend s
Ġsubmit ted
Ġsignific ant
ĠPa ul
Ġhook ed
Def initely
Ġdisput e
ĠNove mber
A ct
G u
P hot
U ntil
f in
h undred
u ous
Ġs ons
er gy
Ġto r
Ġd irty
is able
Ġl ady
Ġdo d
Ġse per
ĠS ing
ĠS ubscribe
ĠB oth
ur ger
ĠN avigation
Äł St
ĠM UST
ang es
Ġex am
ĠL i
Ġdis agree
op h
Ġaw some
Ġcomp rom
Ġinc om
Ġlay er
Â¦ Â®
âĢ¡ Â§
Ġgr ade
oooo o
ĠX iaomi
Ġsol utions
âĢĻ Â¯
Ġamount s
ĠTe ch
Ġpleas ant
ĠZ oom
Ġbill ion
ÃĺÂª ÃĻ
Ġconsum ers
ĠANY THING
miss ion
Ġestim ate
IF I
Ġvan ished
Per fect
Ġforum s
Ġflex ible
ĠInc red
Ġsau ce
ĠHOR RIBLE
Ġpunct uation
A CE
D es
D ownload
I ve
S ION
Y et
b a
b f
i as
u i
Ġt iles
Ġa k
Ġs d
er es
Ġw ether
Ġw iped
on ing
at ile
re lieved
Ġc umbersome
or er
Ġp al
as ive
ot t
ut es
ĠT ex
Ġv log
ul ated
Ġpro ceed
ur d
ĠN exus
ĠM r
ĠM AD
Ġpl ugged
ĠC E
Ġout rage
ĠH alf
Ġfe llow
are st
op ing
Ġpre cious
Ëľ Â¬
ĠSo cial
Ġclo s
Â® âĢ¡
Ġrequ iring
Ġsec s
CK S
Ã¬ Å¡
mon key
Ġpleas ing
Ġxxx x
Ġspread she
Ġgest ures
Ġil leg
Ġbehavi or
yn am
ĠAF TER
Ġpropag anda
sav oring
A CH
I E
M iss
P E
S p
h f
t ired
w aving
Ġs s
Ġs ne
Ġs ession
Ġf loor
Ġn ag
Ġp urely
Ġd ump
Ġre arr
Ġbe ats
Ġan xi
ri m
ĠG U
ĠB AR
Ġk i
um es
ĠH ear
Ġag grav
Ġpre t
pl icated
no on
ĠJ apanese
Ġsl ider
Ġpart ies
Ġer ased
Ġhand set
ru ly
âĢ¢ âĢŀ
ĠSh are
PP A
Ġanswer ed
Ġorgan ization
Ġformat ting
Ġred mi
Ġgif ts
urther more
Ġperio ds
Ġequ al
aaaa aaaa
Ġduplic ates
ĠAB OUT
AG ES
hhhhhhhh hhhhhhhh
gin al
Con stant
Ġbombard ed
fing er
Ġbri ef
ĠUt ter
Ġaccom pl
Ġchalleng es
Ġprev ents
ĠREMO VE
ĠSaf ari
Ġquarant ine
Ġanxi ety
F S
L ooking
V oice
W ow
f r
h igh
n ail
n eed
Ġt il
Ġi z
Ġs izing
Ġp s
Ġg ay
Ġin ability
Ġwh eel
ch ildren
ĠA u
ad ata
ĠS uddenly
if f
Äł sc
ĠL IST
ĠL OOK
Ġun c
ist ics
Ġqu al
Ġover lay
Ġbu nd
Ġhelp full
Ġav iation
Ġgu est
Ġsuggest s
âĢĿ Â¥
Ġreal ized
ĠX xx
Ġaud it
Ġcur re
Ġ0 1
Ġfac etime
Ġprom oted
In ter
Ġvis ion
Å¾ Ãĳ
Ġimmedi ate
ĠÃ¬ Å¾
** *
Ġintern ationally
Ġcateg or
Ġreleas es
Ġcontinu ed
Ġkill s
ĠChe ap
ugg ish
ĠPrem ier
amb les
Ġdress es
quest ion
Ġpray er
Ġunderst ood
OMM END
1 4
1 00
A B
A CT
C ool
F e
O L
T akes
a ver
n es
t imes
v est
Ġm alf
Ġb a
Ġc aught
Ġto xic
or ship
le ctions
Ġp ity
en o
as ure
Ġme ets
ĠY out
Ġr ain
ĠM I
ĠM aking
ĠD av
ĠD uring
ĠO VER
ind a
op y
Ġover s
ĠK ing
Ġche ese
bs ite
Ġes p
oooo oo
Al most
wor thy
Ġbo om
Ġbo ss
ĠSh ow
ider ing
ĠPlay list
Ġsit s
Ġnear by
Ġspec ify
Ġring tones
ĠIm prove
Ġrequire ment
Ġappro ved
Ġimplement ation
ĠFr ustrating
ĠWear OS
ĠFo llow
Ġtempor ary
Ġannoy ance
Ġachieve ments
Did n
ĠConnect ion
Ġadministr ator
Ġscr atch
Ġappeal ing
Us ually
Ġamaz ed
Ġclar ity
Ġlim iting
5 5
R es
S pe
U MB
V ideo
b uds
m usic
r is
t rophy
Ġt ags
Ġa plic
Ġth rew
Ġs id
on ly
at ible
Ġm as
Ġb un
Ġc ake
ĠI de
or ge
Ġh es
se y
se lect
ĠT er
ĠT om
ent er
ĠG lo
Ġli ber
ĠP athetic
Äł al
Äł app
ĠM al
Ġk fc
ain t
ĠD ES
âĤ¬ Â¸
Ġafter wards
ification s
Ġbr ush
IN ST
Ġsp ort
Ãĺ Âµ
Ġmiss ion
ĠEx cel
Â§ ÂĲ
ular ly
Ġrespon ds
Ġsur face
Ġform ats
ĠPro duct
ĠFI L
Ġdel icious
Ġmet adata
Ġpin yin
Ġcalcul ations
UR N
ĠPay Pal
ĠAL SO
Ġoptim ised
Ġemot ions
ĠGO ING
Dis appointed
ĠPri me
ĠMot orola
Ġhighli ghts
Ġboo st
Fr ustrating
Ġcolum n
prof essional
ĠRU IN
D ont
P eople
b ur
f ers
h s
h ave
p ressed
w oman
in ical
re m
Ġm p
Ġb iz
Ġf ish
Ġu ber
Ġg un
ar a
Ġbe gan
et c
Ġst ead
ĠA ble
ĠA ce
Ġdo s
ĠTh umbs
ĠG d
Ġli ghting
Ġgood ness
Ġr ou
ĠP AY
Äł cl
ĠC OULD
Ġam d
ĠF ile
im edia
Ġte ens
Ġun organised
Ġqu ery
Ëľ âĦ¢
Ġbu ffers
Ġdeli ber
ÂĿ Ëľ
Ġdes k
Ġcontact less
Ġsub stit
Ġgl ance
Ġwish ed
Ġent ries
AS ON
Ġless on
Ġbo ards
ition ally
âĢĻ âĢĵ
Ġdet erm
ËĨ Ã°Å¸
ËĨ Ãł
Ġfin an
te xt
Ġprom ise
Ġcap acity
Ġfrequ ency
IC ATION
use um
part y
Ġfort nite
ĠIM P
Ġinterrup t
ev il
ĠWAS P
ĠDIS G
Ġincreasing ly
Ġheav ily
Ġsmile ys
Ġcorre ction
ĠPriv acy
ĠBrit ish
ĠFRIEND S
High ly
ĠABSOLUT ELY
Ġdeterm ine
H ere
H onestly
H orrible
I VE
K ey
M uch
M ENT
T C
h ours
n ey
o be
v able
w alk
Ġt f
Ġi phones
Ġs oul
Ġm outh
Ġd ies
Ġd ull
Ġh ides
id y
ro be
Ġso le
ĠG UI
ĠG erm
Ġch ain
Ġad ore
ĠY e
ĠB S
Äł U
ĠH OUR
Ġsu ite
Ġser ve
av a
Ġinter mitt
ER A
opp er
ip es
Ġreview ing
Ġkey pad
Ġjo bs
Ġgr am
Ġthank ful
Ġpop up
Â¥ Âģ
ĠBe autiful
Ġhor rid
ĠDe velopers
Ġzoom ing
Ġpar am
Ġprogram ming
Ġblackberry s
Ġblur red
ĠTr ump
Ġsaf ely
Ġuns ure
Ġsto le
ĠAW ES
AA AA
Ġrect ified
Ġfill ing
ĠCO PPA
mmmm mmmm
Ġgri p
ĠSC R
Ġdecre ase
ĠGl itch
ĠREC OMMEND
Ġvert ical
Ġdeg ree
Ġstrang ers
Ġmanufact ur
6 7
B l
C all
E xtremely
R ight
b ring
f ts
m aps
p ol
Ġi g
Ġi am
Ġth oroughly
Ġu b
Ġre ve
ĠS outh
ĠG OT
ag ers
ag ine
Ġsh adow
ĠÃ ī
ĠB ooks
ĠP s
ĠN a
Ġnew ly
if ully
Äł ad
end s
ĠD one
Å¸ Ã°Å¸
Ġun watch
Ġqu ote
Ġqu eries
op lay
Ġsu fficient
pl atform
oth ers
os ystem
Ġ3 2
ĠJ oh
ĠRe f
Ġwhats App
Ġgl asses
Ġdri ves
Ġdec line
Ġunderstand able
Ġear ning
Ġexp lo
Ġsk ipping
ĠUS ED
Âº Ã°Å¸
ĠRE ASON
Ġguess ing
Ġfigure s
sp ace
Ġess entially
og ue
Ġanim als
Ġdepend s
Ġattach ments
Ġpers ists
Ġconv in
ma o
Ġdiss atisfied
Ġdoll ar
Ġexception al
ĠSecond ly
Ġreli ably
ĠComm unication
ĠRob lox
Ġacknow led
Ġward robe
Ġbes ide
enomen al
G etting
T V
c ution
j oin
o ll
r as
v i
y ears
Ġc ow
Ġc ater
Ġn ights
Ġd ow
Ġd are
an el
Ġg ross
Ġl asts
it er
Ġy ay
Ġha bit
ĠT w
Ġst amp
Ġst rict
al ien
Ġse lections
ĠS L
Ġli ved
Ġsh ots
Ġde bit
ĠB re
Ġr at
ur ch
ĠN FC
ĠM or
Ġwhat app
Ġgo als
ĠF ound
Ġmo des
ĠD AY
ĠO PTION
ĠH andy
Ġpo pped
Ġdis respect
Ġun us
pl ane
ĠR IP
Ġcr ack
Ġafter noon
Ġday dream
Ġ4 00
Ġtri ps
Ġsp in
tt t
Ġimpro ves
Ġref using
ĠEx peri
OR D
Ġext ended
Ġsocial ising
Ġpass ion
Ġsur round
Ġeff orts
ne utral
Ġsever ely
RE M
Ġweb page
Ġ201 5
Ġrever ted
Ġoper ations
Ġprior it
ĠDes ktop
Ġbull ied
Ġhighlight ed
ÃĻÆĴ Ãĺ
Pro blem
Ġreli ability
Ġcring e
Ġincor porate
ĠTransl ate
Ġlen ses
ĠAdministr ators
ĠAlex a
Ġec osystem
Ġnarr ative
ĠVers ion
Ġcale nder
' ,
: (
A cc
H aven
S he
T F
T O
e ve
f ly
j ong
Ġa pl
Ġth in
Ġm Ãĥ
Ġb ike
Ġc c
Ġf andom
Ġn asty
le ts
Ġp ul
Ġh ating
Ġo l
id get
ĠS A
th en
Ġv ary
Ġ? ?
Ġsh ambles
Ġal ive
Ġwas tes
Äł pr
ĠWh atever
ĠWh ilst
ĠM oney
Ġtr uck
Ġam b
ĠD P
ĠL ess
Ġsa fer
ĠE urope
Ġstar red
Ġim essage
load ing
act ive
ab ic
ĠSo l
ann y
Ġsp are
Ġsl ot
Ġsl uggish
Ġres ulting
ak en
Ġgr ay
Ġmult imedia
âĦ¢ Â¡
ĠAll ow
Ġchild ish
Ġear buds
Ġdesign ers
rr r
Âª Ã°Å¸
ËĨ Ã¬
Ġform ul
CK ING
Ġsk ills
Ġfac ilities
ĠWH I
Ġprom oting
Ġmom o
Ġdr ink
Ġstick ing
Ġord inary
Å¾ Ã°Å¸
Ġreach ing
Äłp re
Ġms n
ĠAut om
Ġpopular ity
Ġunne cessarily
Ġdam aged
Ġdaugh ters
EL F
SS SS
Ġpull ing
graph y
ĠTot al
vol ution
Ġauthor ized
ĠÃį Å¸
Ġfli pping
Ġcook ed
Ġinsp ir
ĠAP I
ĠContact ed
ĠFil ters
Ġdecl ined
ĠÃĺÂª Ãĺ
ĠÃĻÅł Ãĺ
Ġsimultane ously
d a
e en
h ib
n x
u z
Ġt ough
er ia
Ġm ac
Ġb t
Ġb out
Ġp ix
Ġu gh
Ġg ather
Ġis e
ĠT urn
Ġst age
Ġan s
ĠS und
Ġv ital
Ġsh ake
am n
ĠY ES
ĠB u
ĠB ought
ĠP S
Ġfi red
ear able
Äł i
Äł gr
Äł Re
ĠC reat
end er
ĠL ately
Ġun fortun
omet ime
os p
Ġbest friend
Ġbl ood
Ġcomp reh
ach es
Åĵ Ã¬
Ġstre t
itch en
Ġlog ical
Ġpart ners
Ġ7 5
âĢ¡ Â±
ÅĴ Ã¯
Ġgen re
Ġexp ire
Ġap ology
ĠAPP S
ĠUn less
Âº Ã¡
ĠPre fer
ĠLo cation
Ġsepar ated
ĠCH AT
Ġsmo other
Ġsn ake
Ġsn apped
ĠFree zes
Ġavoid ing
Ġcens ored
Ġassign ment
Ġuns afe
Ġclaim ed
Ġunb earable
ĠAW AY
pport ed
ĠPicture s
Ġjourn al
ĠPa id
Ġsuperv is
Ġguarant ee
ĠWats app
ĠOP EN
Ġorient ation
ĠADVER T
+ .
2 2
O p
O ld
j r
k Ãĥ
m iddle
t ies
Ġt une
Ġw ed
Ġm erg
Ġb ree
Ġp als
Ġd unno
Ġh om
Ġh el
Ġapp alled
ot es
ar n
ar re
Ġy u
Ġre aly
ac cess
ĠS M
ĠS END
ĠTh ings
ĠW allpap
Ġde af
ĠB T
ĠB lo
Ġr n
ĠP ew
ting u
ĠM ass
Ġk o
Ġex ceed
Å¸ Ã°
ĠL ag
ĠE R
ĠE l
ĠE nter
ir us
âĤ¬ Â¯
Ġmake up
em ber
ĠR IGHT
Ëľ âĢĵ
Ġbu dd
gg y
ann er
ĠJ uly
ĠTH INK
ÃĲ Âº
Ġrem aining
Ġdef inite
iv alent
Ġdec iding
Ġrecei ver
ah jong
Ġsuggest ing
ĠDe fo
ĠAb ility
fo x
ĠPro v
Äłc omp
Ġremind s
ilar ious
Ġsupposed ly
AM ES
Be ing
Ġfing ert
ĠMost ly
Ġlaunch er
Ġcell ular
Ġappro val
Ġinit i
Ġrob lox
amp ed
Ġbur gers
ww ww
Ġfly ing
Ġexe cution
ĠMon day
Lo ved
Ġincomp et
ĠVer izon
ĠFE AT
Ġconserv ative
Ġcurre ncy
ĠFIL TER
ĠAWES OME
ĠÃī Å¾Ãĳ
Ġunwatch able
) )
l t
p ric
Ä ¤
Ġw ach
Ġm icrosoft
Ġm useum
Ġb ab
nd s
Ġn ature
Ġp eep
Ġit y
Ġh v
it ate
Ġre action
ch an
ĠT yp
Ġse qu
ĠG ames
ĠW ent
ĠW IFI
Ġsh ipping
ĠN ursing
Äł y
ĠF eed
Ġdis tingu
ĠU G
Ġpre c
Ġproblem atic
Ġcr ow
li p
gg ed
Ġsl ingo
ĠRe ason
ĠAl arm
Ġtouch es
Ġstart up
ress ion
ĠCh ats
ĠEx pl
Ġchar m
Ġdesign s
Ġtrack ed
Ġform er
Ġarri ving
Ġbook marks
Ġcor ners
Ġclean er
Ġut ility
ĠMess aging
ONE Y
Ġwar ned
Ġinstru ction
Ġcolle ctions
Ġsho oting
ĠSH OW
Ġpers istent
ĠUs ers
ĠCall s
ĠMan agement
ĠHD R
Ġrender ing
Ġmir ror
ĠDif ficult
ĠPar ler
Ġthro at
conf used
Ġterri bly
ÂĿâĢĿ Âģ
Ġunpl ug
Ġhorizont al
ĠDav id
ĠSCR EEN
5 9
G l
T rying
a ult
d on
h ed
s leep
u ing
Ġh on
Ġu re
Ġapp lic
st r
Ġnot ifies
ri ginal
ĠG allery
ĠG OD
Ġall y
est ed
ĠM A
ĠF CP
Ġout look
ĠH U
Ġfe et
Ġdis contin
ss ip
Ġby pass
Ġover whel
Ġen for
ans l
Ġbr idge
iz ations
ĠSt at
fe ed
ra ising
ber g
ĠCh anged
ĠEx cept
ient s
Ġro aming
Ġhead s
ex pression
ĠAn aly
ari an
Ġval ues
ĠPer haps
yy y
Ġdeser ved
Ġunre al
Ġredu cing
Ġdam age
Ġcell phone
Ġexist ence
ĠVER SION
ĠDri ver
Ġtick et
Ġcatch ing
Ġmid night
Ġmot or
ĠWORK ING
Ġcat walk
bb on
Ġcorre spon
gggggggg gggggggg
Ġsteal ing
Ġcro pped
Ġphotograph y
Ġful f
bd bd
FFFFFFFFFFFFFFFFFFFFFFFFFFFFFFFF FFFFFFFFFFFFFFFFFFFFFFFFFFFFFFFF
Ġthr ows
Ġinnov ative
Ġscri pt
Ġdepart ment
ĠFavour ite
Ġilleg al
ĠAu gust
1 6
4 9
L it
M an
W ay
a ved
k m
x ious
Ġ rolling
Ġc k
Ġit al
Ġo d
Ġg ard
Ġl as
Ġin bu
et ers
ro ke
Ġse g
ĠS AY
ĠTh ought
ĠG ets
ust ry
ĠW CS
Ġli l
Ġsh out
Ġcon c
Ġare nt
Ġpro s
ĠB oy
Ġfr action
ĠN e
ĠM c
ĠC lock
ĠF air
ĠD own
ĠL ONG
um ar
con ds
Ġvers atile
ud ing
Ġdes p
Ġsp inning
Åĵ Ã°Å¸
Ġfir m
plet ely
Ġloc ally
Ġconf idence
Ġdef iantly
Ġhand ed
ĠWe bsite
Ġshare s
Ġpa ired
Ġpriv ile
nc ing
Ġupgr ades
Ġsecond ary
Ġob sc
Ġexpl oring
Ġdefa ults
Ġshut ter
ĠPre viously
Ġev idence
Ġbackup s
Ġwal let
ĠMem bers
Ġadjust ments
Ġbeaut ifully
To k
ĠLI FE
Ġcompet e
ĠAr my
Ġcross ed
IG H
Ġattach ment
Ġrese nd
Ġhealth y
Sh ame
ĠWITH OUT
ĠRem ote
Ġcy cl
Ġfall s
Ġtarget ed
Ġjum bled
Ġsmile y
ĠEas ily
Upd ated
ĠTik Tok
ĠSOMET HING
Ġacce pting
Ġwer en
Ġsoci ety
Ġvlog s
Ġfingert ips
, "
3 5
D ear
W atch
Y T
o ly
p ossible
t ain
u ate
Ġ Ä
Ġ rolled
Ĩ Ä´
Ġt u
Ġt ack
Ġs in
Ġb at
es ter
Ġp ays
ll ows
Ġl inking
ic a
ot ect
Ġyou s
Ġup side
ĠS us
ĠS atur
th ey
th eless
ter fly
Ġlo s
ĠW at
Ġsh apes
ĠÃ Ħ
Ġr aw
ĠP ost
ĠN umber
un ci
ĠF i
ĠF TS
ard ed
Ġun professional
Ġag gress
Ġsend ers
Ġqu arter
Ġcl inical
Ġ- >
iz er
Ġlat ency
Ġrecent s
ĠRe ce
Ġconf ident
Ġ* *
ĠThere fore
ib ilities
wor ks
Ġform s
Ġschool s
âĢĶ ÂĲ
Ġcap tion
ĠLO L
ĠRE AD
IC T
Ġsn ow
Ġfavor ites
Ġhop es
Ġinit iate
Ġly rics
Ġcollect ing
Ġaffect s
Ġhack ing
Ġlocks creen
ĠSa fe
ÃĳÆĴ Ãĳ
Ġtx ting
rain bow
Ġguid ance
Ġfund s
ĠRet urns
ĠAccess ibility
Ġunexpected ly
Ġschedul ing
ĠCens orship
ĠSept ember
Tot ally
expression less
? "
E d
G OO
a led
g ar
g reat
h at
i y
o ard
r um
v y
Ġi a
er able
Ġw th
Ġn udes
Ġp ace
Ġp oop
Ġne cess
Ġne cessarily
ĠS ir
Ġv ul
ĠÃ Ľ
Ġti ght
Ġde ffo
ĠP in
Ġfi ght
ĠM ON
ĠM ONEY
ep lus
ĠL uck
ĠH app
ir king
Ġcont aining
Ġun m
Ġun intuitive
Ġdown s
Ġ2 9
Ġover ly
Ġdif f
Ġgroup ed
Ġsp aces
ĠSt opped
Ġdef ined
sm irking
Ġproduct ive
AN K
Ġer a
Ġsw ift
Ġmult it
Ġselect s
Ġcomplain s
Ġdevelop ing
ph ot
Ġocc up
Ġtap s
Ġtwe aks
Ġvis ited
Ġdeal t
Ġpin ch
Ġirrit ated
Ġcalcul ation
Ġteach ing
ĠPDF s
Ġmot o
Ġfu rious
Ġinvent ion
ĠFA Q
jd jd
Ġdesper ate
__ __
ĠMESS AGES
wr iting
Ġimm ense
Ġdissap ointed
Ġaband oned
Ġnu is
Ġattract ive
Ġfinan cial
pric ed
ĠFTS S
E M
E n
I BLE
b ones
b ait
f ist
h our
Ġc ities
or tion
Ġg acha
Ġe w
Ġre join
ut ed
ac iÃĥ
ĠT ruly
Ġst ring
Ġan g
ro g
al am
ĠS ent
ĠS UB
Ġv ac
Ġv ote
ct ive
Ġus b
ĠB ru
ĠB uggy
ĠP and
ĠP oint
Äł en
ĠM P
ĠF O
ĠF ed
ĠL IT
ĠH aven
ck ing
Ġun a
are n
Ġpre installed
Ġ... ..
ĠR ES
Ġco ff
Ġimp aired
Ġdes ire
ĠK ID
Ġour selves
ĠSt orage
ĠCh anel
ee z
Ġlayout s
Ġreal istic
IS S
Ġdisc ri
ĠX box
Ġpass es
Ġbo ot
arent s
ĠSh ows
ĠSh aring
rop h
ne ath
Â© Â´
Ġcap t
ĠÃĲ ÂºÃĲ
Ġ201 4
ner d
Ġbugg ed
ĠMe h
Ġcover ing
Ġsus pect
Ġmonit ored
Ġmar king
izz y
ĠEn ough
Ġsho ot
Ġmot iv
Ġsimpl ified
Ġcomple ting
Ġjump ing
Ġmer ch
Ġfield s
Ġflex ibility
Ġdram a
Ġaesth et
Ġoverr ide
ĠACT U
Ġconcl usion
Ġxox o
Ġgut ted
Ġflu id
Ġincom plete
GOO GLE
C omp
E ar
O ften
S C
S ound
c ale
o ons
Ġt un
Ġth rown
in o
re sh
Ġm m
Ġthe ory
nd nd
nd ing
Ġf asc
Ġp ark
Ġd itch
Ġd ance
en ance
Ġh ilarious
an c
is ible
Ġl ame
st ill
Ġre vers
Ġin ed
se min
al one
ĠS ure
ĠS aving
ĠG iving
Ġch ore
ct or
ct ed
out e
ĠW ifi
ĠW TF
Ġwork outs
ple as
Ġr ly
ĠP M
ĠP ort
Äł an
Äł over
ĠC amer
ĠF UN
ĠE xt
ind er
Ġun clear
Ġ2 6
op hob
ication s
Ġkn ock
Ġen ergy
ff ect
gg ers
Ġpr in
ĠRe qu
Wh ats
Ġmon op
Ġinc ome
Ġunder neath
Ġcome back
Ġperfect ion
io cre
Ġfull screen
Ġsign s
âĦ¢ Â¥
Ġsubscri bing
Å¡ Åĵ
Ġac qu
Ġaud ios
OO L
Ġcount ed
Ġcre am
Ġandroid s
Ġstat ic
ĠSu ite
Ġtap e
uck ing
Ġ15 0
ĠEng land
Ġremind ed
Ġprogram me
Ġve iw
ĠiM essages
eeee e
ÂĿâĢ¢ âĢĻ
Ġspam ming
Ġexist ed
Ġequ ivalent
Ġmag az
ĠLit tle
Ġmaint enance
Ġconv os
ĠPH OT
Ġredownload ed
ssss ssss
Ġobs erv
ĠRed mi
ĠComplet e
eliev ably
ĠTHANK S
ĠCar rier
Ġren ame
................ ................
Com pletely
Ġcart oon
Ġacknow ledge
Ġincor por
Mo bile
Ġfuzz y
ĠCal cul
ĠPROBLE M
Ġoutrage ous
Constant ly
Ġbree ze
Ġnuis ance
: -
C ons
D if
E Y
E ng
F antastic
P icture
S uddenly
Y OU
Z Z
g rim
o e
p oo
s un
u it
v als
w as
ou red
Ġb atter
Ġf one
Ġf ries
en er
Ġo re
oo ps
Ġin n
id ently
Ġcan cer
ĠS ync
ĠG iven
ĠW tf
ĠW rong
Ġuse able
Ġsh opped
Ġwork around
Ġr ough
ĠP ass
ĠP rom
lo ss
ĠN ando
Äł le
Äł pl
ĠD em
im ited
ĠO cc
ĠR ever
act ly
Ġdeli ght
Â¤ Ëľ
Â¤ âĢ¡
Ġpay load
Ġaut oplay
ĠK ept
Ġdifferent ly
Ġmiss es
Ġslow ed
Â¦ Â¤
Ġext ent
not e
Ġaud ible
Ġlimit ations
Ġstat istics
Ġhead sets
Ġsk ipped
EN TS
ren ch
ĠIS S
Ġstand ing
Ġprocess ed
Ġcal m
Ġshut down
Ġskip s
ĠAny thing
Ġmod ified
ĠAdd ing
Ġstream ed
Ġunlock ing
ĠCr ashing
Ġdi ag
ha ul
Ġsoooo oo
Ġanim al
Ġmatch ing
ĠEn joying
Ġdescription s
Ġrot ation
Ġsum mer
vv vv
ĠFun ction
ĠKind a
Ġran king
Ġstrugg les
Ġindic ate
Ġcro pping
Qu ite
Ġidiot ic
Ġhighli ghting
ĠIss ue
Ġhy per
Ġannou nce
Ġunsu ccess
mem bers
Ġsle ek
ÃĭÄ ¾
Ġrapid ly
Ġsusp icious
Ġmalf unction
Ġdeliber ately
Ġunfortun ate
Ġmerg ed
ĠUG LY
B O
B oth
C EL
M aps
g f
i que
l ands
p et
r ate
u le
Ġ |
Ġt el
Ġt our
at ulations
re ams
Ġf acts
Ġp ile
Ġp pt
Ġd ry
pp y
Ġl mao
ic i
ic o
st al
ke ep
ĠT URN
Ġst ere
Ġst ations
Ġnot ed
ro s
ĠS oo
Ġme chan
Ġcon gr
Ġcon sequ
ill ing
Ġad e
Ġwas hing
ĠY a
ĠY o
Ġpro ced
ĠB et
ĠP IN
ur pr
Ġcom fort
Äł wh
ĠM ight
ĠC reate
Ġam azon
ĠF ort
Ġsee k
ig ital
Ġdis semin
âĤ¬ âĢľ
Ëľ Â£
Ġover night
Ġover haul
Ġco ding
Ġiss ued
App le
ÂĿ ÂĲ
mo oth
Ġgroup chat
ĠÃ°Å¸ Å½
view s
we ight
be cause
Ġfo llows
ĠSt ud
Ġdifferent iate
Ġdef ensive
Ġemail ing
ee k
ption s
Ġind icator
Ġatt ack
ED S
Ġfac il
ĠUS ING
Ġcomment ing
Ġcal ibr
Ġinv asive
Ġinv isible
ĠPre vious
Ġhold s
Ġrefresh es
Ġev ol
Ġcalendar s
Ġrestric ting
Ġrepe ats
Ġbook mark
Ġcor por
Ġwal ks
ÂĿâĢ¢ âĢĵ
Ãħ Å¸
Ġreleas ing
Ġra ised
ĠDid n
UL T
Could n
Ġoffic ially
Ġhuman ity
Ġcomb ine
Ġthrow ing
Ġteen agers
Ġadministr ators
ĠClear ly
ĠBU Y
Ġren ew
ĠÃĥÄ ¥
Ġrender ed
Ġexper t
Ġcontr ast
Ġincomp atible
Ġpoll s
Ġreject ed
Ġdiscuss ion
Ġabs urd
ĠAp ril
ĠUSERN AME
Ġultim ately
ĠProf ile
ĠWR ONG
Miss ing
Ġunus ual
Ġinbu ilt
0 5
1 3
A d
N A
N one
R ead
a unch
b ally
d izzy
m il
Ġa ve
Ġw ipe
Ġf idd
Ġn ational
Ġh ous
Ġh osp
it ect
ic it
Ġe th
Ġwh it
ch a
ch ar
Ġdo zen
ri bbon
al so
ĠS ET
ĠS incerely
ĠTh ose
el led
Ġwas nt
Ġfr ames
Ġr ates
Ġr ows
Ġr ush
lo c
ur able
Äł me
Äł int
ĠM om
ĠC L
Ġk pop
ĠO pt
Ġte a
Ġsome ones
Ġta il
Ëľ âĢ¹
Ġfeature d
Ġdelet ion
Ġold s
Ġspe ct
Ġcomp ly
ann ed
Ġcustom isable
ĠSt arted
ol ume
Ġtrans mit
Ġdec ade
ĠCan ada
Ġac ct
OO O
Åł Ã°
Ã¡ Âµ
Ġscroll s
Ġind ustry
Ġfre inds
Ġhead ing
Ġins er
ĠBl oody
Ġorgan ising
Ġrever ting
Ġpresent ing
ĠInter face
Ġunre lated
Ġadvertis ers
Ġfoc using
Ġintrodu ction
Â« Âģ
Ġmix es
Ġhot el
Ġoccur ring
ĠAL OT
Ġoptim ising
Ġmag n
AK ES
Ġgrand children
Ġdestro ying
Ġvio lence
Ġplann ed
Ġden ied
oooooooooooooooo oooooooooooooooo
Ġcirc um
Ġteen ager
ĠCons idering
Ġrang es
Ġtrigg er
ĠDisc over
ĠHAPP EN
ĠConf using
Ġmand atory
ĠDa ily
Ġexcess ive
orge ous
ĠSund ay
Ġpeep s
ĠAnaly tics
ĠSatur day
grim acing
3 1
A re
F o
G ET
G HT
I CK
P ay
S H
T im
a ap
d ue
m ap
n ies
o ke
s is
y our
Ġw ood
re c
Ġb reat
Ġc us
Ġc amp
Ġf ant
Ġit e
en able
ic c
Ġre act
Ġre actions
ĠT ap
ĠT TS
ĠS k
Ġ? ??
am ps
ĠY t
ĠY ay
ĠY ear
ĠB ar
ĠN on
us er
Ġcom edy
Ġmess en
Ġma pping
Äł mo
ĠM O
ĠM ad
Ġk ar
ĠD ONE
Ġrec all
ong r
Ġdis p
Ġsc ience
os it
Ġco pe
av o
Ġint ent
Ġint ouch
Â¤ Â¡
Â¤ Â«
ord ers
Ġcomm a
ER O
ys mal
Ġunder line
ĠNo v
Âį Â°
Ġrep s
Ġ6 5
Â§ âĢ¹
EE E
Ġkid ding
Ġcur ve
Ġind ication
Ġhead lines
Ġshe er
Ġ; -)
Ġrel atively
Ġdist orted
uck er
Ġdr inks
Ġhu gely
ĠRE VI
Ġdirect ed
Ġspeed s
Ġing red
ĠCom ments
Ġhide ous
ĠPo kÃĥ
Ġhop ed
Ġspo il
download ed
Ġxxx xx
Ġbirth days
IG N
Ġdang er
Ġwarning s
Ġair plane
Ġprevent ing
Äłin ter
Ġbroad band
Ġconver ter
Ġcy ber
Ġredownload ing
Ġalphabet ically
ĠMar athi
Ġbless ing
Ġappoint ment
Ġcous ins
ĠPower Point
Ġdemo cr
ĠSER VICE
urve ys
Ġargum ents
Bas ically
Ġbiz arre
ĠDISG UST
ĠExperi ence
! "
0 9
3 3
A ss
F T
F ECT
G O
M ahjong
T urn
c losed
d om
e very
Ġ {
Ġa id
Ġa int
Ġi k
Ġth t
Ġs en
Ġw ich
Ġb ff
Ġb aked
or ange
Ġg f
Ġg as
Ġst utter
Ġse ven
ĠG A
ĠG ONE
ĠG arbage
Ġall ot
Äł Y
Äł cont
Äł ÃĥÄ
so lete
Ġno pe
ĠM ain
Ġat ions
Ġk s
Ġke en
Ġex iting
ĠL angu
ĠL ock
ard ash
Ġadd iction
Ġdis ables
app s
ist ory
Ġ2 50
âĤ¬ âĤ¬
ĠR un
Ġser ves
Ġbu ried
Ġcr own
Ġ3 65
bo y
Ġrecommend s
Ġsnap seed
ud os
Ġsp here
Ġsl iding
opp y
Ġwhats ap
ĠIn it
Ġrep ut
atter ed
âĢ¡ Â¬
Ġgr anted
Ġworth y
Ġmem os
Not e
Ġass um
OO M
Ġfl ashes
Âµ Ã°Å¸
Ġro ot
ex plo
ĠLO CK
enc ies
Ġsty lish
Ġintegr ates
ĠBE ING
Ġcor rupted
IM E
Ġtweet ing
Ġsatisf ying
Ġcent ral
go bl
Ġpe ak
ĠAr ch
Ġuni vers
An noying
ĠCAN NOT
Ġmag net
Any way
ĠCle an
Ġcomb ination
Ġprint ed
Ġye h
ĠTR ASH
ĠDIS APP
ĠÃĻËĨ ÃĻ
xxxx xxxx
unction al
Ġinval uable
ĠPod cast
ĠHE LL
Ġphotograph s
Ġvo ic
Ġtransp arent
ĠMAD E
ĠCamer on
Ġunsuccess ful
! .
7 7
H alf
I K
M ay
N e
c ard
c ery
f ear
i h
l ists
p aces
r ay
Ġt act
Ġa ug
Ġs oooooooo
Ġw ider
Ġb io
Ġf f
le ets
pp o
Ġl ad
it a
Ġy h
Ġre volution
Ġan ce
Ġan gle
Ġan ger
ad io
ri ers
ri od
Ġse a
ĠS elf
ĠW ont
Ġsh r
Ġsh el
el ine
el come
Äł Th
Äł em
Äł te
Ġno kia
Ġat es
ep s
Ġout s
ĠL A
ĠO WN
ĠE ss
ast ed
and er
Ġthing y
ick y
pl s
os ing
Ġcl ub
Ġover priced
Ġinter fer
Ġinter faces
Â¤ âĢ¦
Ġcomp ose
Ġhe at
ound ed
ĠJ e
Ġtouch ed
Ġinc ase
ĠSt raight
Ġ20 10
Ġrid d
âĢŀ âĢ¦
Ġext end
ĠSh opping
Ġexp ense
Ġchoo ses
Ġcou rier
Ġcost umer
ĠUn b
Ġins ist
Ġob solete
Ġorgan izing
Ġstud ying
Ġhang out
Un less
Ġred o
UB B
Ġminim ize
ĠCHAN G
Ġsecure d
Ġsurpr isingly
Ġdig its
Ġdog s
Ġic al
,, ,
Ġprompt ly
Ġye a
ĠSD T
ĠBas ic
Ġpat ience
Ġdep th
Per haps
YY YY
Ġampl ifier
Ġkeyword s
ĠIss ues
Ġinch es
FI X
Ġpanor ama
Gu ess
Ġdod gy
ĠGU YS
ĠLIST EN
ĠGlo bal
ĠRUIN ED
ĠJoh n
Ġvul ner
Ġingred ients
explo ding
gobl in
) (
B R
B ig
C D
G mail
L ately
c m
l ash
o ying
t urn
Ġs an
Ġs igh
Ġw iv
re qu
Ġc one
Ġn ut
Ġn Ãĥ
Ġl ing
ve ll
ver ing
Ġin fer
ĠT re
ĠT aking
all s
Ġst ressed
Ġst airs
ĠA c
ĠA sk
ĠS on
ĠTh ats
ĠG M
ĠG re
am med
ĠB ts
Ġfr actions
Ġr y
Äł ne
ĠL ight
Ġsa nd
ĠE pic
Ġrec ieved
Ġchang er
Ġdis adv
Ġsc are
Ġun f
ss s
Ġsu e
pl us
ĠR o
ĠR um
ĠR UBB
Ëľ âĢľ
Ġser v
Ġcr ush
ĠGood bye
Ġold est
ÂĿ âĢĵ
Ġtim est
Â¤ Â¶
Ġav o
Ġclick bait
Ġplace ment
Ġglitch ed
ÅĴ Ã¬
Ġgen res
Ġpass ing
Ġfl ower
Ġlimit ation
ĠKeep ing
Ġweb view
Ġdr astically
Ġhist or
ĠSp ain
Ġpin ned
Ġgre yed
Ġtem pted
Ġinf inite
Ġri val
ĠWatch ing
Ġsatisf action
?! ?
ĠÃĳ ÆĴ
CE PT
ĠFe el
Ġconfig ured
ception al
ĠFun ny
ĠMS N
ĠFit bit
ÃĽÅĴ Ãĺ
ĠLe ft
Ġann ual
Ġrac ism
Ġpres ents
ĠHOW EVER
Ġvan ish
Ġmak er
Ġcance ll
ĠHard ly
Ġfol k
KK KK
ĠUR L
Ġdish es
Ġtrick y
ĠUr du
Ġele ments
Ġdom in
ĠSl ides
Ġgy m
Che ck
Ġshif ting
Ġnick name
Ġcru cial
ĠTable t
Ġappl ies
Act ually
Ġspreadshe et
Ġaggrav ating
ĠHOUR S
ĠStat us
roph ies
ĠCalcul ator
Eng lish
0 2
B T
F ind
F IN
H u
R ep
T P
T ON
b its
e asy
g ive
n el
p and
t ap
t ree
y g
z ens
Ġt roll
Ġt unes
Ġs il
Ġs na
Ġm ount
Ġb atch
Ġto ler
Ġn ud
Ġd ynam
Ġre k
ly ing
et ing
ĠT v
ent y
Ġch ase
Ġch oppy
Ġad op
ĠB attery
ĠB IT
ĠB urger
ĠN ear
ĠN yc
Äł qu
Äł per
Äł li
Äł to
ĠM AKING
Ġback space
ĠC lo
ĠC ount
Ġgo ggle
Ġex its
ĠF urthermore
im al
Ġneed ful
um my
Ġsa vv
let ed
ind ers
ist ently
Ġkn o
ĠV E
ĠR AM
ment ed
Ġwell being
Ġworks paces
Ġbl owing
ann ing
ĠJ ack
Ġlast ed
ĠNot es
Ġres ort
ĠAl right
Åĵ Ã«
Ġuseful ness
ĠSt and
ĠSt ick
OU ND
sm ile
ens able
ĠEvery body
Ġfrustr ates
Ġext ras
Ġcons ume
Ġpost age
Å¡ Ã°Å¸
âĢļ Ëľ
âĢ¢ Â´
play er
Ġhor ror
Åł Ãł
Ġconvers ion
ĠAw some
ĠQ U
!!!! !!
Ġcop ies
ĠLO AD
ÂĿâĢľ Â·
Ġtab les
Å¾ Ã°
Ġlow est
Ġincre ases
ĠDE LI
Ġhim self
Ġbann ers
Äłre c
Ġsched ules
ĠTr ust
ĠSnap s
oc us
ĠWOR LD
Ġadmin s
Ġcent ury
Ġgod send
Ġdi verse
Ġpot entially
Ġanim ated
Ġdetect ed
Ġbag s
Ġarch ived
Ġclaim ing
Ġcrit eria
Ġsimpl istic
ĠRem o
ĠTIM ES
ĠTR Y
ĠEX P
ÃĽÅĴ ÃĻ
Ġimpress ion
eth eless
Ġarg ue
Ġcart oons
ĠKEE PS
ĠMulti Mahjong
ĠPER FECT
asion ally
Ġsis ters
Ġagre ed
Ġconstru ction
ĠSec urity
Ġrou ter
Ġdisrespect ful
Ġhosp ital
ĠRUBB ISH
Ġsavv y
2 6
B E
E ither
I OUS
N avigation
O f
O ff
T ap
W aste
b ase
c a
j c
k ids
l ined
l ades
w ood
Ġi ck
er ve
at ar
Ġm ask
Ġb ing
nd ers
Ġc ord
Ġf alling
ĠI CP
or ter
Ġd m
Ġd ys
Ġh ots
Ġu pper
ll a
Ġg b
is ations
Ġl one
Ġre watch
Ġre members
Ġwh ack
ĠA BLE
Ġdo zens
ro se
ĠG E
ĠG e
Ġv oc
Ġor ange
Ġcon fer
Ġph enomenal
ul er
Ġpro ven
Ġfr aud
ĠP ERS
ur b
Äł br
Ġk itchen
ĠF ew
ĠF AV
ĠL iddle
ĠO oh
ĠH is
ĠE L
Ġag g
âĤ¬ Â¦
ĠR ather
Ġcall ers
ab al
Ġbl at
Ġtri ple
ĠAS K
ĠK now
ĠSt r
ĠSt udio
ell y
LE NT
Ġdef ine
Ġchar ts
Ġfl ags
Ġgame pad
Ġatt itude
fo ot
ph ere
Ġdist ant
Ġstand alone
Ġpersonal ised
pr ise
pend ing
Äłc r
Ġmor ons
ĠSp ent
ĠUPD ATES
Ġpain t
IC ES
Ġrecogn ised
ĠIm agine
Ġpoin ter
Ġcor rupt
Ġpresent ations
ĠZ ERO
OD Y
Ġposs ibilities
Ġmar athi
ĠBR ILL
Ġrob ust
Ġbur nt
Su ggest
ĠGu ess
Ġscam mers
IF ICATION
Ġcook ies
Ġretail ers
Ġcompetit or
Ġmal icious
Ġdeactiv ated
Ġrelax ing
ĠGl ad
Ġpublish ed
ĠWHO LE
ĠPol icy
AH AH
ĠMa jor
ĠPh il
Ġalign ment
Aut o
Phot os
Ġrearr ange
ĠFEAT URE
Ġdesp ise
Ġcoff ee
Ġdiscri min
Ear lier
? )
G en
N ECT
O THER
R ESS
S low
j k
m p
t i
w ry
Ġa ka
Ġi o
Ġi ons
Ġw re
Ġw are
at i
Ġb orders
Ġd in
en a
Ġg am
is ely
Ġl ads
ve y
ar ning
Ġha cks
Ġha bits
se arch
ac le
al es
ĠS Y
ĠG ame
ap se
Ġsh ock
Ġwork ers
ĠP OS
ĠN ic
ĠM ich
ĠC alled
Ġmo aning
ĠD ist
ĠE AS
ong s
Ġacc ent
ĠV al
Ġen jo
li est
Ġhapp end
ĠApp alling
Ãł Âµ
Ġspe aks
Ġbr own
Ġcomm s
ĠBut ton
Ġstop ed
Ġreason ably
ĠOn line
Ġche cks
Ġquick est
sh ips
Ġlog ic
Ġtop s
Ġunderstand s
Ġhear ts
ĠPl aced
ĠX D
Â¥ âĢļ
ĠDoes nt
ĠQ EDS
RE AD
ĠUS ERS
ĠÃĻ ÆĴ
Ġexpl orer
Re g
ÂĿâĢľ Â±
but terfly
Ġplz z
Ġpoin ting
Ġaltern ate
Ġign or
sy stem
AL LED
Äłb l
ÂĿâĢ¢ Â¥
Ġnor th
oc ol
Ġkill er
ĠDri vers
Ġtrend y
Ġglad ly
Ã¢Åĵ ÅĴÃ¯
ĠInd ic
Ġmatch es
Ġdepend able
Ġsens ors
ĠBit mojis
ony m
Ġtechn ically
Ġdrag ging
ĠSa id
gl ass
Ġexcl ude
Ġmal ware
Ġdeep ly
ĠOff ice
Ġsuffer ing
dis appointed
---- ----
ĠCOMP LET
ĠDif ferent
Ġinflu enc
Ġunsu pported
unic orn
Ġaesth etic
pa id
Ġgro cery
ĠSTRE AM
Ġtempl ates
Ġclos est
Ġsid ew
Ġparam eters
pol ish
ĠDP D
Ġined ible
Ġhous es
ĠOpt im
ĠDELI VER
" ?
2 00
A gain
A rt
G IN
I LD
M A
O INT
S creen
T ext
Y eah
a e
c us
k rit
m art
n ie
t ube
t age
y es
y ear
Ġ 000
Ġt rophies
Ġs lo
Ġs ized
in ct
Ġb f
Ġb ump
ĠI con
Ġp unch
Ġd ru
ll ision
Ġg ear
Ġg orgeous
is a
Ġe books
Ġbe ef
ad get
Ġne arest
ĠS ING
ĠS ooo
ag am
Ġcon cent
ub es
ur ance
Äł u
Äł op
Äł Ch
so le
Ġno des
ĠM OST
ew are
Ġk it
im o
Ġab ysmal
ĠL ot
ĠO w
Th ink
ĠE st
Ġun ist
Ġun its
Ġun pleas
âĤ¬ âĢļ
Ġqu ir
ĠR CS
ĠR AW
Ġser ved
av y
av irus
Ġtim ed
Ġannoying ly
Ġwhere by
ach ed
Ġres ent
Ġpr icing
Ġfew er
Ġmon st
ie ving
io d
Ġwish es
Ġ6 00
Ġjo kes
ÂĲ Ëľ
Ġcreat ivity
Ġdark er
Ġselect ive
most at
âĢĻ âĢĶ
Ġcare er
ren ce
âĢĶ âĢ¢
Ġdist ract
Ġprocess or
put er
Â· Â¸
Äłs ub
ĠDis grace
ĠCon venient
Ġsn app
ÄłS h
ĠMo ving
Ġredu ces
Äłf l
Ġwar n
Ġspo iled
ĠSc ot
Ġexist ent
Ġpen nies
ĠSystem s
og re
Ġtreat ed
ĠOR DER
Ġquit ting
Ġdestro y
Ġpromot ions
Ġstruggle d
Ġcapture d
ĠHu ge
Ġpres ence
Ġpred iction
ĠProblem s
Ġdeb ate
Ġexten sive
Ġviol ated
Ġdram atically
Ġcri min
Ġaccom mo
isp ensable
ĠSTOR IES
Ġestablish ed
ogn ito
Ġthie f
ĠYEAR S
Ġseper ate
ĠIde al
bring back
ĠWHI CH
ĠMass ive
Ġdistingu ish
Ġapplic able
Ġtack y
Ġaggress ive
ĠMON TH
ucker berg
vell ous
Ġinfer ior
Ġavo ided
7 5
H ate
M ust
N ING
S witch
S how
d one
h elp
k d
k j
Ġt ur
Ġs me
er ved
re aks
Ġb orn
Ġc t
Ġc ert
or able
Ġn ie
le af
Ġp it
Ġh d
Ġu e
Ġu st
ed it
Ġg im
Ġre inst
id ents
al ing
Ġme lo
Ġv ill
ĠW ONT
Ġli ghter
Ġall oc
ant ity
ĠIt ems
ĠP i
ur ry
ĠN ah
un ities
ĠC D
ĠC AM
ĠC OME
Ġ1 20
ĠD ub
Ġout let
ĠH ead
ĠH IGH
ĠE s
Ġadd itions
Ġdis rupt
Ġdown graded
âĤ¬ Â±
âĤ¬ âĢ¹
âĤ¬ Â¿
Ġsu c
Ëľ Âı
Ġstor ys
mo de
up d
Ġbefore hand
Ġbr uh
Ġsomething s
Ġbad ges
Ġmin u
Ġsl ots
Ġem bed
Ġar d
ĠRe member
ĠRe quest
with out
Ġinc ognito
Ġtw enty
âĢĺ Â¿
Ġent r
Ġpri m
Ġrecei ves
Å¡ Ã°
Ġass uming
Ġedit ion
andom ly
ĠSh ort
Ġexp ires
Ġcare fully
nc es
Ġind ia
Ġro cks
ĠAs ide
cl ick
Ġhonest y
Ġsever e
Ġprocess es
Ġ201 2
Ġhu nt
ĠPre s
Ġbeg ins
mon th
ĠSome how
Ġmine craft
Ġvari ed
TH IS
co gn
Ġcalcul ate
ĠFIX ED
hot o
ĠBUT TON
Ġadjust ment
Ġri pped
UST OM
ĠBB C
eal th
Ex ample
ĠCont rol
open ed
Ġbi omet
Ġtreat ment
Ġrot ating
UL OUS
Ġunb lock
Ã¦ Åĵ
Ġanaly sis
Ġarr ows
Ġpair ing
ĠOut standing
Rec ommend
Aw ful
amb ling
Ġded uct
Ġinsp ired
Ġslight est
Ġfund amental
Ġdemonet ised
ĠEas ier
Ġexer c
Ġdefin ition
Ġinvestig ate
WH Y
ĠFire fox
Ġelect ron
Ġintellig ent
Ġliber al
INST ALL
Ġmanufactur er
Ġwed ding
Ġincompet ent
ĠPoint less
Ġprin ci
Ġstere o
Ġdissemin ate
Ġenjo ys
ĠScot land
B ER
B erry
F un
I Z
I nt
O ID
V ICES
g z
i qu
i ased
o cle
p n
p ile
t in
z a
Ġa ry
in ations
Ġm udd
Ġb ans
Ġc oo
Ġf ri
ĠI r
en i
Ġy ahoo
Ġe e
Ġe ight
Ġha h
ch ange
et ary
Ġne x
Ġse as
ess ions
th ink
Ġch ap
Ġv en
ag ic
ag ger
Ġupd ation
Ġsh ips
Ġti le
ĠY h
ĠB oring
Ġr um
ĠM en
ĠM int
Ġback s
ĠC A
ĠC urrent
ks ks
Ġtr ace
ĠF L
im ately
Ġab ilities
Ġout line
ir l
Ġdis organised
Ġsc rolled
Ġsc attered
Ġta x
eli ver
ĠGreat est
ĠR arely
Ġco h
con om
Ġinter acting
ans krit
Ġbr others
Ġcomp on
Ġrest oring
ĠIn s
Ġtal ks
Â¸ âĤ¬
âĢ¡ Â°
âĢ¡ Â¯
Ġhand ling
Ġtalk back
Ġproper ties
Ġdisc re
Ġro oted
There fore
Ġid eo
Ġver ifying
Ġcredit ed
IT CH
Ġzoom s
Ġmind ed
ĠDO ING
Ġactiv ation
ĠCH E
Äłs pe
mon ocle
ĠUPD ATED
Äłp o
Ġrever ts
Every one
Ġmut ing
zz z
Ġclean ed
Ġredu ction
ĠZ ero
ĠVI P
Ġcele b
ĠPay ment
Ġpos it
Ġeat en
Ġbill ions
Ġfinish es
ĠCl ick
Ġcontinu ing
ĠLI K
Ġident ified
Ġconsum es
izz a
Ġoptim ized
Ġban ter
Ġvibr ates
Ġprompt ed
Add ing
ĠCOM M
Ġrecip es
Ġgoo g
Ã¤ Âº
Ġhar sh
ĠSU CKS
Ġlif es
Won derful
ĠSw ift
ĠBU G
ĠRest aurant
AST IC
Ġtemper amental
Ġtermin al
Ġutil ize
Cle ar
Ġhat red
ĠTW O
ĠINST ALL
tttttttttttttttttttttttttttttttt tttttttttttttttttttttttttttttttt
ĠSTRE AK
Ã°Å¸ÅĴÅ¸ Ã°Å¸ÅĴÅ¸
CON D
Ġspons ored
ĠTim er
Ġpermit ted
Ġpron ou
Ġcomprom ised
music al
Ġsubstit ute
Ġpul led
ĠHU GE
ĠKID S
Ġaesthet ically
Ġmonop oly
ĠDISGUST ING
ĠPERS ON
Ġsidew ays
0 6
2 4
2 7
2 9
B ODY
K inda
M M
M usic
R EE
S ee
T e
b es
b lock
c lock
l if
m at
p in
y r
y t
Ã Ĭ
Ġ ere
Ġ ous
Ġa z
Ġw ud
on avirus
re land
Ġb ou
ing er
ĠI VE
Ġp ants
Ġd nt
Ġh ung
an ch
an gle
Ġg adget
as king
ot a
Ġre lie
se conds
Ġst ands
Ġst icks
ate ment
ri g
ĠS chool
Ġch art
Ġv ing
Ġv es
Ġli ed
ĠÃ ¦
ce lent
Ġad ap
Ġad vent
ĠB esides
ĠP ics
Äł ab
Äł RE
ĠM ove
Ġat s
Ġgo ssip
ĠF rench
ĠD ouble
Ġout going
ĠL ear
um sy
Ġcont ro
Ġun im
Ġun friendly
Ġman ages
Ġim o
Ġbu lly
Ġen lar
Ġaw aiting
gg g
gg les
Ġbr ains
ĠSo on
ull abal
Ġsupp ress
ĠK ill
be h
her es
ĠSt ates
Ġreview ers
ĠIn formation
Ġwa king
Ġconf lic
Â¸ Â°
Ġend lessly
ON ES
Ġpoint ed
AN S
Ġinform ing
ĠAN OTHER
Al arm
Ġpur ple
Ġcur ry
Ġtyp ical
Ã¡ ËĨ
Ġsol ving
pap er
ĠQ ue
ĠUn like
Ġins an
Ġrel uct
Ġexpl aining
Ġ12 3
Ġshort ly
Un installing
ug u
Ġformat ted
co z
ĠDE VICE
Ġmeasure s
Ġalong side
Ġtrust worthy
Ġintrodu cing
ST ANT
Ex cept
Ġdev ast
Ġdepend ent
Ġstate ment
Ġoptim ise
ĠBlack Berry
ĠANY ONE
ĠDes ign
Ġunb elievably
Ġsum mary
Ġpiss ed
Ġpizz as
ĠOut look
ĠEX T
Ġunt r
Ġretrie val
Ġden y
Ġdecre ased
ĠBug s
ĠUt ube
ĠMulti ple
ĠDM s
ĠMine craft
ĠUSERN AMES
Ġnah i
Ġdeter min
ĠTex ting
Ġsne aky
ĠYout ubers
Ġinspir ation
Ġsequ ence
Ġcrow ded
Ġinfluenc ers
Ġunpleas ant
B esides
F U
L ook
L ost
O b
T ake
T wo
c as
c ion
m ates
n i
v s
Ġt idy
Ġa a
Ġs ou
Ġs am
Ġw ot
at able
Ġm int
Ġm uy
Ġthe ft
ĠI B
ĠI reland
Ġn g
Ġn ig
Ġn ine
Ġd ick
Ġh its
Ġg all
Ġg ained
is y
om in
Ġon s
Ġe h
Ġbe ast
Ġin ex
Ġan oying
ĠA li
ĠA verage
ri v
ri or
Ġne ck
ĠS et
ĠG ave
ĠG ives
ĠW ERE
gh ost
il ies
Ġj ar
ĠP op
ĠP AR
ĠP RE
Äł Un
ĠM et
ĠC USTOM
Ġk y
Ġgo in
Ġtr icks
ĠF IN
ĠF ANT
ĠD el
ĠD igital
ĠL OST
um an
ĠE mail
ĠE mojis
rou s
ir y
Ġrec ons
Ġacc es
Ġcont em
Ġun opened
ss ibly
ĠU gh
Ġsu ic
em ed
Ġ5 5
ĠR L
ĠR am
Ġcr isp
Ġint ro
ab il
Ġsnap maps
Ġres ize
ĠAl ready
Ġinc ent
Ġav id
ĠSt uck
AT A
Ġwon ders
Ġ20 00
Ġworld s
Ġ6 4
OU GH
Ġpart ial
ĠEx ceptional
ier d
Ġtrans form
ĠTHE SE
AS HING
Ġpost code
Ãĳ Å½
oooo ooo
Å¡ Å½Ã°
not es
Ġaud acity
Ġz ip
Ã¡ Âº
rop hoto
Ġap s
ED I
Ġ0 8
ĠST U
Ġinv asion
St upid
Ġadv is
Ġstr anger
Ġtest s
ĠMe ans
Äłre s
ict im
Ġdra ft
Ġdra fts
Ġflaw ed
Ġluck ily
ĠVI EW
Ġlaunch ing
Ġcell s
ĠIM O
Ġhum ble
Ġtweet ed
Ġforget ting
CT ION
Ġdi versity
ract ical
Ġpolit ically
?! ?!
Ġuns ubscri
ĠFe ature
ĠFe els
Ġexpress ion
Ġcomple tion
Ġtele met
Ġdemon it
Ġlength y
Inst alled
Ġemotic on
ĠLe ave
ĠCR ASHING
Ġdistr action
Ġgoo od
Ġhorri bly
Go ing
Ġindic ating
ĠSU PP
Ġlif est
Ġsuperv ision
ĠComm unity
fing ers
Ġrobot ic
ĠDI E
ĠBL ACK
ĠHAPP Y
EEEEEEEEEEEEEEEE EEEEEEEEEEEEEEEE
Ġbelong s
ĠIncred ibly
Des pite
ĠCE O
Ġaccompl ish
Ġovers ight
Ġrat io
Ġnecess ity
ĠPand ora
ĠACTU ALLY
Dif ficult
Ġcircum st
Ġreput ation
Ġunivers al
ĠSING LE
ullabal oo
Ġtelemet ry
C L
H e
H ONE
I ANT
M ight
M ORE
b i
b ased
c ore
d os
j h
l esome
m ind
o le
p iece
s omething
w aiting
Ã ī
Ġt ad
Ġa ids
Ġth a
Ġs essions
in i
re liable
Ġm ature
Ġb ands
Ġb ird
Ġb ait
Ġc ess
or ad
Ġd ar
Ġd ude
en e
Ġh icc
Ġg g
Ġl d
Ġapp p
Ġe gg
Ġyou re
Ġha l
ĠS mooth
Ġme at
ĠG R
ĠG if
ĠG ROU
Ġch a
Ġcon duct
ĠÃ ĭÄ
ple nd
Ġal way
Ġde plo
Ġde pression
ul ating
ĠY ahoo
Ġr oughly
ĠP leas
ĠP izza
lo ved
ĠN ame
Ġhas ht
Äł ar
Äł aut
Äł Ex
Äł ha
Ġk a
ĠF orm
qu ate
ĠL ater
ĠO ppo
ĠH ence
ĠH istory
ĠH ullabaloo
ĠE vent
atch ed
Ġfriends hip
Ġhad n
ĠU nder
Ġpre set
em ents
ĠV O
ĠV olume
os ition
ment al
Ġcl own
Ġover view
Ġinst ances
App s
av our
Ġaw ake
Ġlong est
Ġar ts
Ġour s
ĠSt eve
LE AR
Ġ7 2
Ġ7 20
Ġret ain
Ġx r
Ġmed iocre
ĠAN G
Å¡ ÅłÃ°
Ġprof its
ĠDe veloper
?? ???
Ġcorrect ing
Ġcar ried
ĠNOT IFICATION
min utes
!!!! !!!
Ġhu h
Ġmind s
ĠRE P
ĠLo gan
ĠIm possible
Ġwid th
Ġmass ages
Ġinput s
ĠCHAN N
Ġbrand ed
Ġbill ing
Ġspam med
Ġmonit ors
res pon
Ġoptim ization
uss ian
UP ER
ĠEar lier
ĠSE COND
Ġarr ang
Ġapply ing
Ġaccording ly
ok u
ĠCR AP
Pro bably
Ġreload ing
Ġstri p
Ġpet ition
Ġbul k
ĠCON STANT
ĠDay dream
ĠInt egr
Ġapolog ise
Second ly
Ġargum ent
ÃĤÄ¿ Ã¢Ä¢Ä
Ġmigr ate
Ġsurv ive
ĠBAR RY
Ġgram mar
Ġsupervis ors
access ible
Ġgard en
Ġcycl ing
ĠSus an
SC RI
ici ency
Ġproced ure
Ġhistor ical
Ġsna kes
Ġmelo dy
Ġprim arily
ĠFANT ASTIC
ĠRL CS
: )
A part
B ug
D P
D ark
E ach
F iles
G alaxy
G arbage
H ang
H oping
L oc
L INE
O KE
a ft
b ie
f unctional
h ouse
k u
l ast
l ong
m oney
w ill
y d
Ã Ī
Ä ¦
Å Ģ
Ġt ree
Ġi re
Ġs ac
in formation
er a
re es
Ġm r
Ġm ur
Ġn gl
Ġit Ã°Å¸
Ġo c
Ġre nders
Ġan not
ro b
ĠS UCH
ĠS ubscri
ĠS ometime
Ġme ga
ĠG one
Ġv pn
ant ages
Ġj u
Ġj ail
Ġph oning
ĠB ri
ĠB tw
lo cks
Ġhas nt
Äł we
Äł In
ĠM ex
Ġevery ones
Ġpl ot
ĠC CR
ĠF al
ĠD ND
Ġab usive
ĠO CD
ĠE r
ĠE moji
Ġdis ap
Ġag ed
âĤ¬ ÂŃ
Ġta k
pl z
de lete
ĠR O
ĠR ATING
Ëľ Â«
Ġco inc
App arently
ab el
gr ap
Â¤ âĦ¢
Â¤ ÂŃ
Ġwr ist
Ġbl a
ach ing
ĠÃ°Å¸ Å¡
Ġdisapp oints
Ġwhats up
Ã¢ Ä¤
Ġche e
Ġsm ilies
sc reaming
.... .....
dd d
Ġreg re
ĠAm pl
Âı âĢŀ
ĠPl atform
Ġdisc us
ĠWe ird
Ġfl ashing
ubb y
Ġear phone
Ġsing ing
Ġschool work
Ġcar ing
ĠUn i
ĠUn installing
Ġdist ances
Ġexpl icit
ĠIN TO
ĠAny ways
ÄłS T
Ġopp o
cer ies
Ġperform ing
eeee ee
Ġmix ing
Ġsatisf actory
Ġforget s
Ġbreak er
Ġresult ed
ĠCont ent
ĠLI VE
Ġident ification
Ġconsum ption
Ġfashion ed
Ġbuild ings
LO CK
Ġdetect s
Ġtechno log
Ġpack ed
ĠFe atures
fl ag
vol tage
port ant
Ġjump ed
ĠGen uine
Ġfill s
ĠUSE LESS
ĠCR ASH
Sim ply
Ġcorre ctions
Ġtroublesho ot
ĠAV OID
0000 000
Ġthreat s
NN NN
Ġele ment
Ġcontribut ors
Ġgro ceries
Ġsli me
RubbishRubbish RubbishRubbish
Ġpainting s
Id k
Ġlou der
Ġelimin ate
Ġexam ples
ĠDES ER
Key board
ĠBre ak
Ġbat tle
ophob ic
ĠRever t
Ġmessen gers
Ġdisadv antage
ĠRum or
Ġhots pot
Ġlone ly
Ġagg reg
ĠCAM ERA
Ġcircumst ances
A I
H ome
I nd
I ss
L ol
M P
S ave
V ES
a id
b ri
b loss
c ake
f y
f act
h v
o lo
p o
v a
v ie
Ġa pt
Ġi b
Ġb om
Ġb ust
Ġb aff
Ġc ables
Ġf et
Ġp our
Ġu h
ic ip
Ġre activ
ay out
al le
ĠS OOOO
ĠS AME
ĠTh eres
Ġso ggy
Ġme me
Ġv Ãĥ
Ġv ictim
ĠW AN
Ġor s
ĠÃ ¤
Ġal t
ĠB ook
Ġr er
Ġr ural
ĠP ers
Äł ag
ĠC ent
au nt
Ġam ate
ĠL a
ĠL ets
ĠH ot
Th ose
Ġpo lish
our se
Ġoff ended
per ia
ĠR ew
ĠR ating
ever al
ci ent
gr ading
Ġcomp aring
ĠThan x
Ġlat ter
Ġar bit
Ġar gu
ER ALLY
Ġpr ide
ix by
Ġconf uses
Ġpart ially
ol ic
Ġ* **
Â¦ âĢł
Ġgr an
Ġgr ant
Ġchar ger
OR Y
Ġsw iped
ĠCan cel
Ġless er
Ġtyp os
ĠFor ce
Ġexp osed
Ġimport ed
ĠNew est
AR Y
Ġsecond ly
Ġforward s
Ġ201 1
augh ter
Ġhu awei
Ġvis iting
Ġinv ited
Ġenter prise
Ġdirect ory
ĠCH ILD
ĠSp ot
IC ULOUS
Ġpixel s
Ġremind ing
Ġshame ful
Ġremember ed
TH ANK
Ġlight weight
Ġpush es
Ġsaving s
ĠÃ« ËĨ
Ġminim ised
ĠSNAP S
AL F
ĠWOR SE
Ġspo ils
ĠYes terday
Some one
Ġmis under
Ġfashion able
ĠFr ance
ĠFr ank
Ġpack aging
Im prove
ĠANY MORE
graph ic
Ġembarrass ed
cross bones
Most ly
Ġtroub lesome
press ing
ĠEX CEL
Dis appointing
ĠSpe cial
rrrr rrrr
ĠMan ager
ĠFA CE
Ġvehic les
ĠView s
ĠTE XT
ĠSOME ONE
Ġscen e
iven ess
!!!!!!!!!!!!!!!! !!!!!!!!!!!!!!!!
ĠAdvert ising
ĠCard board
Ġschedul er
Ġisol ated
Ġmanip ulate
Ġagre es
Ġexclusive ly
ĠBang lades
Sad ly
Ġphr ase
Ġemploy ee
ĠSL OW
ĠFeed back
Lit erally
Ġital ic
Ġfirm ware
ĠPHOT OS
ĠFort nite
itect ure
Ġinser ting
Ass istant
ĠLangu age
Ġaug mented
Ġcancell ation
onym ous
leaf y
ĠDub ai
Ġsuc ceed
Ġminu ets
Ġrecons ider
rophoto graphy
ĠCHANN EL
% .
) :
0 3
4 4
C ol
D AY
E at
E as
E ats
F it
F OR
I O
I W
M essages
O ut
S can
T yp
U V
U ser
a el
a ign
a Ãĥ
b by
c al
g t
i ver
l aptop
m aybe
n ames
p ause
p ir
t aining
Ġt aught
Ġa ke
Ġi i
Ġs ample
Ġw ierd
Ġb ac
Ġb ite
Ġc ab
ĠI am
Ġn it
Ġd ia
Ġg ate
Ġg ust
it ar
it iz
Ġis ed
ic watch
ic ularly
ar io
Ġe lder
ay alam
ac ular
ĠT ur
Ġst unning
Ġst alking
id o
Ġnot icing
al a
Ġme l
ĠG CS
Ġlo ver
ĠW ide
ĠW ave
ĠW idget
Ġsh ove
.. !
ore s
Ġcon sole
ĠÃ ı
Ġj an
Ġti ed
Ġph oned
Ġwas hed
ul s
ul ator
ĠB ed
ĠB lock
ĠB eware
ĠP lenty
Äł so
Ġno de
ĠM us
ĠM AP
ĠC y
ks h
ĠF ore
ĠF IND
ĠD ATA
Ġout lets
ĠH TC
ĠE P
ĠE ND
ĠE tc
Ġman s
Ġ( :
ĠR ate
Ġco ppa
Ġcr amped
Â¤ Â§
Â¤ Âı
Ġcomm ute
Ġcustom ised
Ġcustom ized
Åĵ Ãª
fe ature
ak a
sh ot
ĠEx c
iv al
Ġtrans cri
Â® Â¿
AN Y
Ġbo ots
ĠFor get
Ġaudio books
Ġimport ance
Ġsing in
Ġstupid ly
AR CH
ÆĴ Ãł
ATE LY
Ġwonder fully
Ġ0 2
ĠUn ited
Ġconsider ably
Ã¬ Å¾
Re cent
St opped
ĠOr ders
Äłc o
âĢĵ âĢ¢
Wor king
Ġstud ies
ĠAd just
Ġrecogn izing
Ġwid ely
Ġmass age
Ġve nd
ĠAdd itionally
Ġperform ed
Äłf r
UR ES
Ġpurpose ly
Ġdocument ation
download ing
Ġcompan ion
Ġident ical
Ġinterrup ts
Ġinterrup tion
Ãª Âª
ĠAr abic
Ġauthent ic
Ġimag ery
ĠDon ald
Ġleg end
Ġlaugh ing
Ġther mostat
Ġment ions
Ġsell s
Su cks
Ġopport unities
Ġgraph s
ĠWORK ED
Ġpiss es
Ġconver ting
UN D
Ġpromot ional
Ġtast es
Äłcon s
Ġdep ressed
ĠRep ort
Ġparcel s
yyyy y
ĠSER IOUS
ĠEd ge
Ġgy ro
OOOOOOOO OOOOOOOO
Ġfool s
ĠET A
Ġexecut ed
Ġesc ape
ÃĭÄ ¨
Ġlic ense
Ġcoordin ates
Ġpron unci
ĠIncred ible
ĠUtter ly
REM ELY
Ġbudd ies
ĠFILTER S
ĠBru h
ĠLIT ERALLY
Ġrevers ed
Ġdelight ed
ĠEss ential
ĠUnb elievable
Ġrek lam
ĠBRILL IANT
ĠCOMPLET ELY
bloss om
ĠEXCEL LENT
. (
4 8
B r
C ore
R idiculous
T ook
T ell
b est
c ould
c ur
d oes
e es
g lo
g mail
g ement
h ough
l ig
m ails
o cc
p ed
t u
t able
u ase
w er
Ġi ght
Ġs es
Ġs ke
Ġs outh
in ux
Ġm us
Ġb er
Ġc ult
Ġf etch
es tern
Ġn ess
Ġn hi
Ġp as
Ġd p
Ġg ambling
is is
Ġapp les
ar ting
Ġre ass
Ġre lied
Ġbe ac
ut ters
se vering
ĠT el
Ġst raw
ĠA g
ent al
ĠS ling
ĠTh ing
ĠTh umb
Ġme g
Ġch ances
Ġch ina
ag on
ĠW ed
ĠW al
ĠW OW
Ġsh elf
ub lic
ĠB aby
ĠP LEAS
Ġtime ly
ear ing
Äł out
Äł inc
Äł acc
un ately
ĠM IN
Ġtr ump
Ġmo an
ĠD an
ĠD ead
im ents
ĠL imited
ĠH or
ĠH ALF
Ġdis reg
ist an
âĤ¬ Âģ
omet er
Ġsu its
Ġ... ...
oth s
ĠR FS
ous y
Ëľ Â±
Ġcl umsy
Ġover he
Ġle ct
orm al
Ġint end
gg ling
Ġper o
Ġvers us
Â¤ âĢĺ
Â¤ âĢľ
Â¤ âĢº
Ġsnap code
Ġsp ir
Ġsp ots
Ġsp ins
ĠK y
Ġav atar
Ġfirst ly
Ġhour ly
Ġsub stant
Ġsub sequ
Ġfood s
Ġown s
Ġdri ft
Ġphoto grap
ÂĲ âĢŀ
ĠNO R
Ġsw apping
âĦ¢ Âģ
Ġreal me
âĢ¢ ÃĹ
Ġeff iciency
Ġ8 00
arm in
Ġkind le
Ġnet flix
EN CE
cl uding
No pe
reci ate
ĠInst alled
St arted
ĠFix ed
Ġfit ting
ĠAd ds
ĠIN TER
Un install
Ġpower ed
Ġprogram med
Ġhouse hold
Ġlar gest
co ld
Ġcor ona
AM N
Ġest e
Ġlaptop s
ĠInter esting
OK EN
ĠZ uckerberg
Ġcu rious
Ġinf in
Äłb u
Äłm an
Ġvir uses
Ġtre mend
ik i
Don ald
ĠIP AD
ĠIP OD
Ġmar vel
Ġpolit ic
ĠGET TING
ĠDelet es
Ġuns ubscribe
Ġdetect ing
ENT LY
Ġpull s
Ġglo bally
Ġconfig urable
ĠBr ows
Ġrad ius
Ġbroad casts
Ġscrew ing
Ġcat al
Ġexplan atory
Ġengine ers
Pro v
ĠSpe ak
ĠSpe ech
ĠRed und
Ġgrow th
Ġpat ient
ĠFriend ly
ĠTE LL
Ġband w
ĠRep lay
Ġcollabor ate
ĠFind ing
Ġpet ite
Ġampl ify
Ġthreat ening
MO J
ĠDOES N
ĠCON NECT
Ã§ Å¡
Ġcontr acts
Ġpatter ns
Cle an
Ġdom ain
ĠLE AST
ĠDisc ord
Ġaband on
Ġcolum ns
ĠNE XT
Ġbum mer
ĠNor th
Ġspy ware
Ġultim ate
== ==
ĠRID ICULOUS
Ġphr ases
ĠFU LL
ĠTom my
Ġstead y
Ġintermitt ently
Ġstret ch
Ġoverwhel ming
Ġcapt uring
Ġveiw s
Ġconsequ ences
Ġassum ed
ĠDISAPP OINT
Ġvoic en
ĠDisgrace ful
Ġaccommo date
Ġembed ded
Ġlifes aver
plend id
ĠBreak fast
. ?
0 7
A r
C ustom
F ull
G ets
H S
J OR
L e
L ens
R AM
S ML
T B
W ent
W ant
W aiting
b ab
b ra
b ug
d en
d ata
f it
f il
m ake
p ower
v k
w oo
w el
y l
Ã ĨÄ´
Ġ ought
Ġa me
in ating
Ġw et
ou n
Ġto dd
Ġn ap
le ft
Ġp ow
Ġu d
Ġo g
Ġo od
Ġg al
Ġg Ãĥ
Ġg ender
Ġl az
it led
ic ting
Ġe ll
st one
Ġin active
ĠT G
Ġnot if
ĠA h
ĠS un
ĠS pend
ĠS UPER
ess enger
ust er
Ġsh ady
Ġsh orter
ant ic
ill a
ack er
am ber
Ġr ant
ĠP al
ĠP age
Äł am
Äł lo
Äł des
Ġno se
Ġno ises
ĠM er
ĠM il
ĠC ause
ĠC ongr
ĠL AY
ĠE NT
Ġeas t
Ġfe b
Ġfe at
Ġsc ream
âĤ¬ Â¬
Ġpre ser
Ġ5 1
per severing
ĠR oku
Ġscreen ing
Ġshow er
Ġen ce
ÂĿ âĤ¬
ÂĿ âĢĻ
ey ond
... "
... ?
Ġbr ick
wit ters
Â¤ ÂĿ
Â¤ Â¢
Â¤ âĢĵ
ĠJ ob
Ġsp ying
Ġdiffer ences
Ã¢ ËĨ
ĠCh anging
EE T
Ġtrans itions
Ġhand ful
Ġhand led
Ġhand writing
Ġeach other
Ġcur ated
Ġass ess
Ġexp iring
ted ly
Ġpriv ately
Ġincl usive
âĢľ Â¤
Ġmove ments
Ġcar rying
Ġcame os
ĠSu pp
Ġins ult
Ġforward ed
ĠÃĲ Å¸
Ġpersonal ise
Ġpersonal ized
ĠRE AL
Wor k
ĠCH R
Ġrecogn ized
ĠIm age
ĠGo ld
ĠDE C
Ġoper ational
Ġest Ãĥ
lev ance
ĠCl othes
Se lect
Ġcompet itive
Ġmag ically
Ġpers u
Ġsimpl est
Ġcoll age
Ġach ieved
Ġgraph ic
De cent
Ġconv ince
ĠSE ARCH
ĠFo lder
Ġarr anged
ĠUN DER
Ġvisual s
Ġenh anced
Ġspl ash
Ġexception ally
Ġtrain ers
ulti ple
ÃĳÅĴ ÃĲ
Ġdeb ating
ĠPr otect
ĠDOES NT
eeeeeeee eeeeeeee
Ġexper iment
Ġinvestig ation
Ãı ÆĴ
Ġinflu ence
Ġshif ts
Ġharm ful
Ġtrail ers
iiiiiiii iiiiiiii
Ġbound aries
Ġcoordin ate
Ġtempl ate
oph iles
Ġnag ging
Ġsole ly
Ġintermitt ent
Ġspin ch
ĠAutom atically
Ġcompreh ensive
ĠMA JOR
Ġunm ute
Ġinn it
ĠOcc asionally
Ġtail ored
Ġshel ves
ĠPres ident
Ġexerc ises
Ġmudd led
ĠMen u
Ob viously
ĠSUPP ORT
Ġlifest yle
ĠAmpl ifier
Ġamate ur
Ġarbit r
ĠRedund ancy
( (
0 8
6 6
7 0
A F
D ata
D ie
D rive
M ade
P M
S ol
S ELF
T IME
Y I
e er
f ord
i let
n ity
r ated
t ry
v t
w ater
x it
er ation
at ly
Ġm ents
Ġf leets
Ġn y
Ġn iece
Ġd ating
Ġh ire
Ġl u
as p
it ary
Ġis land
Ġe conom
st ick
Ġwh ist
ĠT imes
ĠT ool
ĠT ues
ĠA ng
ri fic
al ked
ĠS n
ĠS AVE
Ġso re
th ought
ĠG g
Ġv ow
Ġv ent
ood le
ĠW est
ĠW ait
ap ore
Ġsh opper
Ġcon vent
Ġj er
Ġde fect
ul u
Ġwe al
ĠY ET
Ġr ail
ĠN az
Äł ac
Äł ind
Äł bo
Ġno isy
Ġpl ane
Ġback ward
ĠC oming
ays cale
Ġgo ds
Ġex ams
ĠF AR
ĠF alk
ĠF ocus
qu arter
Ġab rupt
ĠL ack
um ps
ĠH orrendous
ĠH ERE
ĠH ealth
Th ats
Th ings
ĠE fficient
Ġdis rup
Ġsc ams
Ġsc ope
and roid
Ġqu its
pl an
os aur
per ately
ĠR EST
az z
Ëľ ÂĿ
Ġser ving
no yed
Ġbu ys
Ġbu ds
Ġcr ammed
li ers
up dated
Ġwr ites
Ġcomp ass
Ġtry ed
Ġtry na
Ġsl im
Ġsupp liers
Wh atever
ĠSt y
ĠSt art
Ġrem ark
ĠEx actly
Ġ7 00
Â¦ âĢ¡
ĠWor se
âĢ¡ Â¸
Ġworth while
âĢŀ âĢł
Ġsw im
Ġsw ipes
Ãĳ ËĨ
Ġsound ed
âĢĿ .
Ġblo at
IS E
Ġcool est
Ġfl ood
Ġbar code
ĠTV s
AR T
Ġ11 8
aw ty
Ġrepl aces
Ġtwe ak
IT TER
IT ELY
sw ipe
Re al
ĠRE VER
mm a
ĠAd obe
Ġstr ate
Ġev ry
ĠDE FIN
OP E
ION S
Ġmod ification
Ġdouble d
Ġadjust ing
Ġppl s
ĠIM E
Ġbed room
Ġspo iling
Ġbored om
Ġmis erable
Ġmeaning less
ha i
ha ust
ev it
ĠBR OKEN
ĠTHAT S
Ġsens ible
Ġdial og
Ġsho e
ĠGr and
Ġfunctional ities
Ġmaint ained
ÂĿâĢĺ âĢĻ
Ġdad dy
Ġencry pt
Ġauthor ity
ĠUp graded
Ãİ Âµ
Ġdecre ases
Ġstri ke
Ġinno cent
Ġrelation ships
ĠARMY S
TT TT
Qu ality
Ġshit ty
Ġbul bs
Ġkm t
ĠDI Y
Ġparagraph s
Tr ansl
Ġgrab bing
Ġinnov ation
ĠDID NT
UU UU
Ġwit ness
Ġesc al
Ġredirect s
Ġjud ge
Ġsex y
ĠSuggest ion
hhhhhhhhhhhhhhhh hhhhhhhhhhhhhhhh
nes day
ĠGerm an
Ġconvin ced
ĠTw ice
Ġamb ient
Ġformul a
ĠWallpap ers
ĠLag gy
ĠMc Donald
Ġprivile ge
Ġmultit asking
ĠSUB SCRI
Ġmerch ant
Ġcamp aign
Ne ither
Ġlad ies
ĠFAV OUR
Gen erally
ĠOptim ization
Ġnex us
ĠLIK ES
Ġcontro vers
ĠEXT REMELY
Ġmur der
ĠGenuine ly
+ ,
, .
A v
D E
F amily
M ap
M icrosoft
M illion
N C
N ext
S w
T op
b ord
c ir
c ott
e le
e led
f ps
h ips
k b
s ometimes
v ation
y outube
Ä µ
Ġ \
Ġa i
Ġs we
er ror
Ġw arr
Ġw inner
re al
Ġc iv
Ġc ared
Ġc itiz
Ġto y
or g
or ient
Ġn arrow
Ġp on
Ġd ing
Ġd an
Ġh r
Ġu al
Ġo x
is it
as a
Ġon eplus
st ate
Ġre levance
Ġin accessible
Ġha m
ay a
al cul
ĠTh urs
ĠG h
Ġch air
Ġlo vers
Ġv oted
Ġv ivo
Ġli vest
Ġas set
Ġor t
Ġcon se
Ġj est
Ġj eal
Ġde pressing
Ġpro ved
ĠB less
Ġr oof
ĠP ush
ĠP icks
ĠN Y
Äł TH
ĠM ic
Ġpl astic
ĠC C
ĠC P
ĠC am
ĠC ost
ĠC opy
Ġk h
Ġgo dd
Ġbec uase
ĠH er
ĠH op
ĠH ell
ĠH oping
ir ts
ard ing
Ġacc idently
Ġun int
Ëľ Â¯
Ëľ âĢĶ
Ġover due
Ġsp orad
Ġar rog
ĠK aren
ĠK ardash
ft y
ĠSt ory
Ġreview er
Ġnothing s
ĠIn form
ĠCh icken
Ġwa ff
Ġconf use
sh sh
sh owing
Ġjo king
ĠJust Eat
ĠÃĤ Âº
Ġcol oured
ens ions
Ġret weets
Â® âĢĻ
âĢ¡ ÂŃ
Ġsign ature
Ġhand les
âĢŀ Â¤
Ġcons on
avig ate
Ġreal t
ĠX peria
Ġtyp ically
ĠSh it
ĠSh awty
Ġaudio book
âĢĻ âĢĿ
Ġind ispensable
PP PP
Ġ0 7
Ġfac ial
ĠUn s
ĠUn usable
Ġprom pting
ush i
Ġins pe
Ġfilter ed
Ġvis ibility
Ã« Å¾
ÂĿâĢľ Â«
ĠRE F
Ġcolour ful
Ġactiv ating
mon ths
Ġreach es
ty pe
Ġnon etheless
Ġprogram mes
Ġaff airs
ĠGo ggle
Does nt
Ġfail ures
mark et
Äłre t
Ch anging
AL K
Ġadjust ed
ÂĿâĢ¢ Â¤
Ġdu plicated
Ġexc uses
Ġspo ilt
he he
-- -
ĠUber Eats
Ġeffort less
Ġuni verse
ĠFr ont
Ġtick ets
Ġbi en
Ġuns atisfied
Ġoptim isation
Ġpack ages
Ġra ising
Ġregister ing
Ġsho ving
Pre viously
Ġrely ing
Any one
ĠWon der
ĠNet work
Ġincorrect ly
De lete
ÃĹ âĢ¢ÃĹ
Ġpair s
Ġconsist ency
Ġsubmit ting
Ġpres ident
Ġcompens ate
Ġbrain er
Ġlif etime
ĠPerson al
Ġminimal istic
Ġmath s
Ġpublish er
Ġviol ation
ĠMESS AGE
llll llll
Ġcring ey
ĠRet urn
ĠTW ITTER
Ġgold en
Upd ates
ĠComp any
Cont in
HHHH HHHH
Ġexecut e
ĠSay ing
Ġneighb or
ĠSW IP
Ġharass ing
Ġdisli kes
eno vo
ĠGerm any
ĠSol id
ĠBlo atware
Ġprec isely
Ġenfor ce
ortion ate
Fo llow
Ġbreat h
Ġstutter ing
ĠLOCK ED
ĠDELIVER OO
ĠSTREAK S
ĠANG RY
ĠDESER VE
woo zy
Die Pie
ĠDEFIN ITELY
" )
B ACK
D O
J an
O riginal
Q U
S ays
b et
b ag
c ar
f h
f lex
h oo
h ope
i ere
i ance
j w
n f
p u
p icture
s im
u j
y cle
y rs
z er
Ġ 0000
Ġs nd
Ġs ust
Ġc m
Ġf est
Ġf ucking
Ġto do
ĠI G
ĠI z
es h
Ġp t
Ġp ee
Ġp ian
Ġd uck
an ia
ed ay
Ġg el
ot ic
om m
om s
Ġy ing
Ġon wards
Ġe ts
Ġe book
st art
Ġre e
Ġin evit
Ġmy ster
ch erry
id th
ĠA C
ĠS ep
ĠS CH
ct ors
Ġwor s
ĠW agam
ere ats
ĠB oo
ĠB ir
ĠB ak
ĠB AS
ĠB arely
ĠB roken
Ġjust ify
ĠP ASS
ur a
ĠN ET
Äł as
Äł not
Äł min
Äł CH
ĠWh ether
ĠC ARE
ĠC LEAR
ĠF aster
ĠF ailed
Ġ1 99
ĠD rop
im g
Ġout come
ĠL ESS
um ent
ĠO z
ĠO ops
ĠO riginal
ĠH o
ĠH z
ĠE AR
Ġrec k
ck ets
Ġun p
Ġun used
Ġun send
âĤ¬ âĢº
Ġsu cked
pl aced
de f
Ġco ded
Ġen y
Ġcr af
Ġ3 6
Ġchat ted
Ġinter f
Ġwr ap
Ġcomp ression
Ġhe aven
Ġmin es
ĠTH OSE
Åĵ Ã¡
Ġtouch pad
Ġperson nel
ak ers
Ġprodu ced
Ġdri ven
Ġtrans fers
Ġx iaomi
Â¦ Âı
Ġsound ing
set ting
wor king
Ġbar ley
Ġcount down
Â± Âį
Ġ; (
Ġsk etch
Ġid ol
ric ted
ĠSu cks
Ġver ry
xx x
Ġrel ate
ific ent
ĠQu est
ÂĿâĢľ Â¯
Thank you
pr ints
Äłc ol
ĠFI R
Ġbre ach
Ġresol ving
ĠSp ace
Ġing s
Ġdiscover ing
ĠIm ages
Ġrestric ts
Ġred iculous
Ġsn ipp
Ġmeasure d
Ġest ate
Ġperform s
ane ous
Ġmention ing
ÂĿâĢ¢ ÂĿ
Ġround ed
Ġstru ct
Ġroll s
Ãħ Ä´
Ġsatisf y
Some how
Ġsurpr ising
Ġpract ices
Ġnotice able
ĠWE LL
Ġtreat ing
Ġequ ally
Ġdial ogue
Ġsho ved
Ġvibr ating
Su pport
Ġdem ands
AV ING
Ġreopen ing
Ġplann er
ÃĽÅĴ Ãļ
ĠSearch ing
ĠBack up
Ġreload s
old s
ĠView er
Help s
Ġast on
Ġpred ict
Ġpred ictive
Ġcry stal
Ġreplay ing
**** ****
Ġlisting s
Ġtrigg ers
Ġlegit imate
Ġchalleng ing
Ġthro ats
Ġintention ally
ĠClass room
Rem o
Ġfot os
Ġpret end
Ġpret ending
Ġgun na
Ġreve al
Ġsurround ing
Ġapl ik
ĠWallpap er
Ġiniti ated
Ġdiscontin ued
ĠLuck ily
ffect ive
ĠISS UE
Ġmalfunction ing
Ġsil ver
ĠNear ly
Ġdys lex
Ġconfer encing
Ġignor ant
Ġcoh ort
lif ting
ĠCONSTANT LY
Ġchee ky
bri k
ĠWed nesday
Ġphotograp her
Ġbandw idth
ĠDISAPPOINT ED
ĠTues day
Ġstrate gy
A E
B S
H appy
M a
M aking
M AL
P od
S et
S IBLE
T aking
T alk
a ways
b c
c ase
c odes
g roup
h in
i am
p opper
s ince
Ġt ers
Ġt ears
Ġi y
Ġs acked
Ġw is
at ie
re ally
Ġm icro
Ġc ud
Ġf er
Ġf us
Ġf ond
Ġto ys
Ġn an
Ġn aught
Ġp ool
Ġd Ãĥ
Ġd ms
Ġd ads
Ġh ype
Ġh yp
Ġh tc
pp p
Ġl g
Ġon g
ow l
oo se
Ġin qu
Ġha ll
ch rome
ĠT S
Ġst itch
ĠA nt
ĠA UT
ĠS am
ĠS AYS
ĠTh rough
ĠG acha
Ġwor ries
ĠW elcome
Ġli ft
Ġsh ade
Ġsh ud
Ġcon form
Ġwork er
Ġal s
Ġal ien
ĠIt al
nt ime
ĠY ears
ĠB ENS
Ġr ub
ĠP oo
lo l
Äł red
ĠM s
ĠM is
ĠM ate
ang erous
Ġpl ants
Ġback lash
end o
Ġex agger
Ġex haust
ĠF in
ĠD or
ĠD uck
ĠD AMN
ĠL iving
ĠL acks
ĠL enovo
ĠO thers
ĠH and
ĠH ON
ĠH arry
Ġrec on
ard less
Ġstar ters
Ġun ic
Ġun inter
Ġthan x
ick et
are ncy
Ġqu id
ĠU T
Ġsu p
Ġoff ence
Ġoff sh
em y
ĠÃ¢ Å¸
Ġ5 000
Ġinst al
Ġen orm
Ġle aning
Ġview able
Ġfun n
Ġfun eral
Ġimp ractical
The ir
Ġbl own
Ġread ers
ĠJ en
ĠJ im
pt ic
Ġpr inting
ĠK im
ĠK EY
Ġwhats aap
Ġinc ident
Ġche ated
ĠSt reaks
AT H
Ġty m
Ġed ges
Ġgu ard
Ġcommun ist
Ġhate ful
ĠDo c
ĠDo brik
ĠNo pe
Ġloc ating
ĠCh ildren
Ġter ror
Ġx l
Â¦ âĢĶ
ÂĲ âĢĵ
Ġgr ands
Ġcons pir
Ġblo g
Ġblo ated
Ġreal ising
ĠDeliver ed
Ġpass port
Ġchild s
Ġtyp o
ĠSh owing
ĠSh ield
âĢĻ âĦ¢
âĢĻ Â¢
ĠQ Ch
Ġaddress ing
Ġcar ries
vent ion
ex istent
Ġcred ential
Ġ0 9
Ġprom ises
ĠST O
Ġins ulting
Ġrel aunch
ĠInst a
Ġdr ained
Ġinv itation
Ġmark ers
Ġtool bar
Ġbeg un
Ġplz zz
Ġev al
aut hor
Ġirrit ates
Ġms ging
ii i
Ġaccident al
ĠCom ment
ĠMe an
ropri ately
Ġforce fully
Äłre g
Ġteach es
Äłf or
ĠTr ue
uff le
Ġbc z
Ġprior ities
ĠAr ri
Ġuni versity
Ġhur ting
Ġrebo ots
NT IL
Ġhi j
ĠDes perately
ĠPL Z
ÃŃ Åł
Ġpor tions
Ġrespect ive
Ġsqu ee
Add itionally
ĠMS G
Ġgrand ma
Ġexch anges
ĠSpe ed
ARD S
Ġencour ages
Ġencour aged
ĠStar ting
ĠAv ailable
ĠTE AM
Äłcon f
Ġcompar able
ĠMILLION S
ĠReal me
Ġviol ating
Ġrestrict ive
ĠCONT ACT
Ġcri pp
Ġcontribut e
spe ech
ĠEv ents
Ġgrad uate
Ġapolog ies
ĠET CS
ĠAdvert is
Ġtransport ation
video s
Ġapprox imately
Ġdeter ior
Ġtalent ed
ĠSing le
Spe ech
Ġbun ny
Ġhel pl
ĠPew DiePie
Ġmagaz ines
Ġcorpor ation
Tim ing
ĠMO VE
Ġtimest amp
Ġnud ge
ĠMich ael
READ Y
Ġdistract ed
Ġgim m
Ġvill age
ĠPi P
Ġcoo per
Ġrelie f
Ġreluct ant
ĠGROU P
ĠBanglades h
glo be
ĠLAY OUT
ĠThurs day
ĠBENS ON
Ġoffsh ore
ĠQCh S
' '
? .
A ds
A llow
C li
F L
M in
M om
O ur
P ods
U gh
_ (
b t
b ice
c ount
g on
j is
l ife
m essage
n ut
p g
p ool
s uch
s orry
t oo
v r
v is
Ġt ang
Ġa u
Ġa x
Ġa le
Ġa il
Ġi al
Ġs ack
in y
on coming
Ġb ingo
Ġc asts
Ġd s
Ġd reams
Ġh int
Ġh itch
ll ie
Ġo me
Ġl int
it ant
Ġis ing
ic le
ar ge
Ġbe loved
Ġyou ve
Ġ! !!!
ĠT a
ĠT UBE
Ġst ale
id ad
ĠA ge
al ways
ĠS up
ĠS ight
ĠTh ird
Ġme mo
ĠG L
Ġch o
ĠW TH
ĠW anted
Ġli p
ap le
el og
il a
ĠÃ §
Ġj k
Ġj ew
Ġwork place
am as
ĠY ep
ĠY AY
ĠY ork
Ġpro ves
ĠB ro
Ġr om
ĠP ot
ĠP OST
ĠP ICT
lo s
ĠN ig
ĠN uff
Äł ap
Äł inst
Äł ins
Äł ob
ĠM ed
ĠM ail
ĠM ute
ĠC V
ĠC AS
Ġk il
Ġtr ade
Ġtr ading
Ġex ited
ĠF CR
ĠD at
ĠD umb
ĠD AYS
ĠO an
ĠO oming
ĠH a
ĠH ub
ĠH OME
Th x
Th ought
ĠE nc
able d
our ce
Ġstar ving
Ġdis ple
Ġun fo
âĤ¬ âĢĺ
âĤ¬ âĢ¢
ĠU m
pl ain
Ġ5 2
ĠR ATE
no xious
Ġover come
Ġcr aft
av or
Ġset t
mo ai
Ġ) :
Ġ10 000
Ġbl and
form ance
Ġcomp uls
Ġ4 80
Ġread able
ĠJ ames
ĠJ oin
view er
Ġsy m
ĠAS P
Åĵ Ã°
Ġtouch screen
ds pe
her ent
Ġche ating
Ġgu ides
Ġgl ich
sc ope
Ġslow ing
ol ical
Ġcompl iment
wh ats
Â¦ Â¡
Â¦ âĢº
Ġprov ision
ÅĴ Ã«
Ġblo gs
to in
ĠX mas
Ġz a
ĠFor ced
Ġind ex
Ġatt ribut
Ġart work
Ġhead er
ock et
Ġhell a
Ġsk ippable
Ġher self
ĠPlay er
Ġver bal
âĢł âĢĻ
Ġprom toin
âĢĶ Â©
Ġins ight
Ġspend s
Ġdist ribut
uck y
ĠPro s
ĠLo ad
ĠLo cked
ĠLo ading
Ġadv oc
Ġstr ain
Un like
Ġprogram mers
co llision
Ġmut es
Ġcalcul ators
Ġsn oop
Ġtrash y
Ġve gan
Ġevent hough
ĠPo ssibly
Ġneg at
gest ure
ĠIP HONE
ĠID E
ibr ary
Ġident ifying
Ġoccur rence
Ġauthent icate
Ġresolut ions
kk k
Sh ows
Ġmum s
Ġic ally
Ġflash light
ĠCo ll
ĠCo ld
ĠCo de
cross ed
De leting
ĠUN INSTALL
Ġdemon str
Ġfal len
ĠGroup s
Ġcook ie
ĠSend s
Ġprep are
Ġprep aring
Ġmater nity
Ab solute
Ġtast ed
Ġdecre asing
Ġplug s
ĠNorm al
Ġsuperv ised
Ġrecipient s
yn chron
ĠPr ices
Ã¢Ä¢Ä »
Ġmil k
Ġwat ts
Ġexper ts
Ġtermin ated
Äłtr ans
Ġseason s
Ġgrad ually
Ġscen es
Ġunderst atement
Ġintention al
Rem ove
Ġbell s
ĠSTOR Y
Ġneighb our
Bas ic
Inc l
Inc red
Ġaim ed
ROU GH
ĠWA IT
Ġrelig iously
Ġvi able
Ġtor ture
ĠTech no
Ġaccompl ished
Ġbund le
Bl uetooth
Ġbestfriend s
Ġmuseum s
ĠExpl orer
sleep ing
Ġhon or
Ed ited
En joy
ĠPort ug
Ġannounce ment
Ġmechan ism
ĠBet a
Ġdemocr acy
ĠÃĳÆĴ ÃĲ
ĠDist urb
ĠLear n
Ġinsan ely
Ġsuic ide
Ġincent ive
ĠMex ico
ĠSling o
ĠFalk land
cir cle
Ġjeal ous
ĠSCH OOL
. ).
0 4
8 4
C ar
D M
E LL
L ist
L IC
M ot
P erson
S ir
S urely
b ul
c ow
c amera
c over
e ful
e lect
f ind
f ied
f low
h u
h z
h us
h op
j b
j an
k f
l or
p ages
p ret
p aste
r ite
r ise
r Ãĥ
w ing
w all
w ich
y an
Ġa ys
Ġi le
Ġi cloud
Ġw inning
re install
Ġm it
Ġb ath
Ġc ats
Ġto ilet
ĠI R
or ie
Ġn i
Ġp ued
Ġh ood
Ġo ts
Ġo we
Ġg aze
ve t
st airs
Ġre im
Ġin fect
Ġmy st
ĠT bh
ĠT ask
ĠT IK
Ġup wards
id a
Ġan onymous
ĠA tt
Ġdo ctor
ent ime
ĠS and
ĠS IN
ĠS ex
ĠS lightly
ĠS urpr
ĠS urveys
th an
ĠG AME
ct s
ap sed
il ty
Ġti ring
Ġal ike
ĠY ea
Ġpro ving
ĠB b
ĠB en
ĠB road
ĠB OT
Ġr ank
Ġr uler
lo cation
ĠN d
ĠN IGHT
Äł ass
Äł Al
Äł mon
Äł att
Ġno vel
ĠM ind
ĠC os
ĠC loud
ĠC AUSE
au du
end ers
Ġtr ay
Ġtr ap
ĠF ake
ĠD B
Ġab oard
ĠL u
ĠL and
ĠL ayout
ĠO per
ĠO sm
ĠH OPE
ĠE g
ĠE ACH
Ġte eth
ther n
Ġpo co
Ġim pl
ĠU NTIL
Ġpre gn
Ġ( "
em at
Ġ5 6
ĠR el
Ġcl ou
Ġcr isis
red it
Ġ3 3
mo vable
Ġ) .
Ġinter ference
Ġinter vals
Â¤ Âį
Ġbl aming
Ġcomp ress
Ġ4 2
Ġ4 4
ass ic
Ġread ily
Ġtri m
ĠTH ROUGH
we b
Ġsl ap
Ġsupp ly
Ġres erv
Ġche er
Ġfo x
ĠSt ep
ĠIn tern
ook ed
ell ing
Ġsm ashed
Ġgl ass
Ġgl aring
ĠWhat app
Ġwa ist
âĢĺ âĢ°
Ġel s
Ġlog out
Ġtrans it
Ġtrans mission
ĠEvery day
Ġcompl ications
Ġreg ional
Ġsw apped
Ġext ortionate
ah i
Ġreal time
Ġsur faces
ĠBe ats
ĠDe vices
Ã¡ Å½
Ġclose ly
Ġdesign ing
Ġind icated
Ġro yal
Ġro cket
Ġbot tle
Ġhead line
Â¯ Âģ
Â¼ Â¼
Ġob tain
Ġrel ating
ÂĿâĢľ Â°
Ġpick y
enc il
Â¶ Â±
Ġorgan isations
Ġcharge back
Å¾ Ã¡
Äłs l
ĠSp am
Ġadv antages
ĠRec ord
Ġremember ing
Ġfab ric
aut o
Äłd o
Ġprice y
Ġmod ifications
atisf actory
Äłre f
ĠAut hy
Ch ange
Ġhop eless
99 99
ĠEVERY TIME
eal ing
Ġbreak fast
Ġmis placed
Ġmar vellous
Ġheal ing
ĠAL READY
Ġprogress ively
Ġperiod ically
Ġdead line
ĠWAS TE
Ġaware ness
Äłg u
aby tes
Pre vious
Ġunlike ly
Ġ> :(
Ġexpand ing
Ġbal anced
Ġpap ers
Ġexch anging
ĠSm all
Ġlead er
Ġfoot age
ĠLe g
ĠKind le
New s
Ġvisit ors
More over
Ġdemand ing
Ġparticip ant
Ġdemonet ising
Ġrefer ring
uuuu uuuu
ĠPR OP
Ġmes se
Ġsynchron ization
Ġnatur ally
ĠPO OR
Äłcom m
âĢ¹Â¤ .
ĠAdministr ator
ĠTHING S
Ġdict ator
Ġgar ments
Ġisol ation
ĠADVER TS
Ġtransp arency
ĠFre qu
ĠFre edom
ĠCol or
ĠDev s
Ġintellig ence
Cl ick
Ġdisli ked
ĠEM AIL
ĠSing apore
Sp otify
Ġhes itate
ÃĺÂµ ÃĻ
ĠGlitch y
Op en
Ġcorrespon d
Ġcorrespon ding
FFFFFFFFFFFFFFFFFFFFFFFFFFFFFFFFFFFFFFFFFFFFFFFFFFFFFFFFFFFFFFFF FFFFFFFFFFFFFFFFFFFFFFFFFFFFFFFFFFFFFFFFFFFFFFFFFFFFFFFFFFFFFFFF
phot o
Ġoccup ied
Ġobserv ations
Ġincorpor ated
ĠPass word
Ġgroupchat s
Ġfidd ly
ĠSET TING
Ġshr ink
Hu ge
Ġcrimin al
Switch ing
Ġreinst ate
Ġprinci ple
Int egr
Ġdevast ated
Ġjar ring
ĠSWIP E
flex ed
Ġsust ain
Ġnaught y
bice ps
Ġcompuls ory
ĠASP ERA
$ $
8 7
A udio
E P
F ew
F ast
F ine
F urthermore
H D
I LY
K S
S nap
T Y
T asks
U TS
V R
c asting
f ield
g ains
k in
r ast
v ision
w arning
y m
y or
Ġ }
Ġ Â¤
Ġ Â¥
Ġt ilt
Ġa king
Ġi ble
Ġs ane
in is
Ġm ush
Ġm uff
Ġb ol
Ġb ik
Ġb coz
Ġc el
Ġc and
Ġc aches
Ġn ail
Ġp lo
Ġd il
Ġd ail
en ess
Ġh ip
Ġh ubby
Ġand riod
Ġg er
Ġg amer
Ġl ane
Ġis o
Ġy s
Ġe ch
Ġe lev
Ġe leg
st ers
st aff
Ġre lent
Ġyou se
et ed
ac ion
Ġst ing
Ġst ubb
Ġbut t
Ġan ime
ĠS qu
ĠTh ai
Ġch asing
ag o
ag ging
ĠW in
eo s
ant a
Ġcon cise
ĠÃ Ĭ
Ġti res
Ġr anging
ĠP A
ĠP LE
ĠP OP
ĠP RI
ĠN AME
Ġcom o
Ġcom ics
Äł up
Äł ph
Äł he
ĠM ast
Ġwhat tsapp
Ġphone book
ĠC ap
ĠC ame
ĠC ertain
ĠC OR
ĠC alling
Ġk ik
Ġtr ous
ĠF ord
ĠD irect
ĠL ow
ĠL ite
ĠL ine
ĠH ands
ĠE U
Ġrec ycle
Ġadd ict
ite ment
ree k
âĤ¬ Â¶
ĠU ses
Ġpre sets
ĠR SS
vers ion
Ġen light
Ġle ague
Ġhapp iness
Ġinter actions
Ġ4 9
Ġfil ming
Ġgoogle d
Ġsp illed
Ġsp acing
Ġpr ic
Ġpr ison
AT TER
Ġrem ained
oy al
Ġcommun ities
Ġsm arter
LE S
ĠCh oice
Âį âĢŀ
Ġkey bord
Ġsupport ive
ustr ated
Â¸ Â¡
Ġprodu ces
ON S
sm art
Ġhigh way
Ġgr ayscale
Ġfact ual
Ġext rem
Å¡ Å½
Ġac ount
Ãĥ Âª
Ġass ure
Ġz ones
Ġedit ors
20 19
20 18
Ġdesign ated
Ġind ian
Ġfre ak
Ġcost ly
Ġrefund ing
te en
Ġins ights
ĠIS O
Ġdist inct
ĠBl ue
Ġmark er
Ġentertain s
ĠCould n
Ġmet rics
ĠDis ney
Ġbeh ave
ĠIm pressed
Ġlar gely
Äłd ist
Äłd em
ĠPer iod
Ġcheap est
cri ption
ser vice
Äłre p
OW N
Ġeng age
Ġeng agement
Ġunre ason
Ġcour t
Ch anged
Ġstream lined
ĠZ eal
Ġtrave ls
Äłm a
ĠOrder ing
ĠGP ay
Ġprot ocol
Ġdocument ary
Ġdocument aries
ĠWho le
uu u
Ġmar ried
com p
Ġpot ato
ĠUpd ating
Ġscreenshot ted
Äłg l
Ġair play
Ġ18 0
nn n
Ġcoll ages
Ġban king
Ġ200 9
ĠGr ate
bl ood
De veloper
De leted
ÂĿâĢĺ âĢĵ
Ġshuff ling
Ġconver ted
Ġtend ency
press ive
Ġdestro ys
Ġspread ing
UN G
ĠEX ACT
Ġalphab ets
tr l
ĠBack ground
Ġrac ists
Yes terday
Ġinsp ire
Ser ver
Ġteen age
Ġbegin ners
ĠCar Play
squ are
ĠWeb view
ĠREC ORD
ĠRes et
Ġflag ship
Ġreflect ed
pop ular
ĠAir Pods
Ġindepend ently
Ġtrigg ered
Ġunsk ip
ĠEd iting
ĠEv an
Ġfool ish
conf ounded
Ġine fficient
Ġdiv ision
cons istent
Ġpu zz
Ġcas ual
Ġrelig ious
ĠSwitch ing
ĠChannel s
ĠContin uous
ĠPe ace
Download ed
Ġspreadshe ets
Ġbrief ly
need ed
ĠProduct s
mmmmmmmm mmmmmmmm
ĠGlitch es
Ġformul as
ĠRece ived
phot os
Ġimmense ly
ĠExt ra
ĠRequ ire
Ġmagaz ine
Ġobserv ation
ĠHAPPEN ED
ĠREVI EWS
ĠSelf ie
ĠJe ff
Ġblat ant
ĠEAS Y
Ġextensive ly
ĠMONTH S
Ġdisrupt ive
Ġcompon ent
Ġposit ives
ĠIB M
Ġtransform ed
ÃĳÅ½ Ãĳ
Ġelder ly
Ġvend or
Ġgyro scope
Ġpronunci ation
ĠNOR MAL
ĠCongr atulations
Ġinspe ction
Ġsketch y
dspe aker
Ġstubb orn
ĠZeal and
) !
/ -
1 000
5 00
6 4
A MS
B it
C O
G ives
K ids
L ong
M E
M iddle
M OST
O thers
P rior
R unning
R andomly
T ED
b or
b an
b ound
d rop
e at
f ill
h ar
h et
h ol
i ÃĦ
l j
l iness
m ad
m ir
m ove
m ium
n ice
p ink
p od
p arents
s now
v m
w a
~ ~
Å ĥ
Ġt witch
Ġa ri
Ġi x
Ġi ly
Ġth ier
Ġth irty
Ġs inc
Ġs plendid
re k
re ce
re entime
Ġb h
Ġb anging
Ġb erry
Ġc ked
Ġto ll
or ation
es c
Ġp ill
Ġd ut
Ġh ing
Ġh id
Ġh ive
Ġu ally
ed ing
Ġg ang
Ġg aining
is ual
it ting
it ivity
Ġapp li
om o
Ġon screen
Ġre think
Ġbe ware
ĠT y
ĠT ype
ĠT urns
Ġst inks
Ġst roke
ĠA GE
Ġse m
ĠS oph
ĠS IGN
ĠS everal
ter y
ĠG T
ĠG onna
ag n
Ġsh ine
Ġsh orts
.. !!
ĠÃ ĨÄ´
Ġj am
am less
ĠY O
ĠB a
ĠB eng
ĠB eyond
Ġjust ice
Ġr ice
Ġr ace
Ġr age
Ġr ab
Ġr aging
Ġr hy
ĠP ure
ĠP ain
ĠP ak
ĠN ICE
ĠN UMB
Ġcom unic
Ġmess anger
Äł z
Äł fe
ĠM AY
Ġat ive
Ġam use
ĠD R
ĠD U
ĠD RI
Ġout age
ĠL aptop
um s
um ents
ĠO wn
ĠO RI
ĠH T
ĠH ER
Ġcont ained
Ġdis heart
Ġdis putes
Ġsc reaming
app store
Ġag ents
ĠU b
Ġsu ff
Ġsu ffers
eli very
ĠV o
ĠR andom
Ġco ins
Ġcr ushing
li o
App store
ci a
ci e
Ġchat ters
Ġads ads
Ġbr uv
Â¤ ÂĲ
Ġcomp act
ud ed
Ġlist ens
ER I
ĠRe installed
Ġho les
ĠK en
ĠK id
ĠK pop
ĠK umar
Ġlit ter
ĠSt ru
ell a
ĠDo ing
âĢĺ Â©
OU CH
ĠEx celent
Ġprodu ction
Ġcol ored
Ġstuff s
Ġx o
Â® âĢĿ
Â¦ âĢ¦
Ġmed itation
âĢ¡ Â©
med al
ÂĲ âĢ¡
ÂĲ âĢĿ
ÂĲ âĢ¦
ĠNO BODY
ĠFace Timing
oooo ood
âĢĿ Âģ
VE D
Ġthank fully
Al ready
Ġdisc our
ĠX XX
play ed
Ġcool er
Ġbar gains
Ġpast ed
Ġpress es
Ġur l
Ġur ge
Ġsol ves
20 17
âĢľ âĢł
Ġprem iere
Ġins ists
ĠAn noyed
Ġtransl ates
Ġside bar
Ġgener ations
Ġob noxious
Ġconsider able
Ġrel ative
Ġclass mates
Ġbelie f
Ġself ish
ĠLO G
Ġexpl ains
Ġdr unk
Â¶ âĢĿ
Ġorgan izations
Ġcancel s
âĢĵ Â¤
Ġsepar ating
ĠCH AR
ĠCH ATS
Ġextra ordin
Ġmet ro
ĠSp read
ĠIN T
Ġentire ty
Äłp rom
Ġintegr ity
Ġweird ly
ivid ual
Äłd i
ĠMe asure
Ġcor rup
EEEE E
Ġsignal s
Ġest a
ĠALL OW
Ġmanag ers
Ġeng aging
ĠAdd ed
ĠPay ing
Ġsecure ly
Ġvir al
Ġneg atives
Ġdi ab
Ġconfir ming
Ġcompet ing
og ical
Ġconcer ning
Ġimag ination
lex a
Ġshocking ly
Ġrob bed
Ġemot ion
ÄłD E
Ġarch itecture
rist mas
Ġsile nced
Any ways
istr ation
Ġembarrass ment
Ġspot light
Ġdro ve
Ġdoor step
Ġ200 8
ĠBr avo
aaaa a
Ġmaint aining
ww w
Ġrecover ing
Ġrecover ed
key board
Ġsum mar
ĠWORK S
Ġdem os
acc ount
ĠAcc urate
ĠGen ius
Ġignore s
RO ID
Ġauthor ities
ÆĴÃ°Å¸ Å½
ĠPut ting
unt ing
ĠReg ular
Ġencour aging
Ġinsp iring
Ġredesign ed
ĠMar x
ĠTrans fer
Ġindic ates
Ġlif eline
Äłex p
ien e
Ġcollabor ative
ĠFull y
ĠHE AD
ÃĤÄ £
ament e
velop ment
Qu ick
Ġmile age
ĠPhoto Scan
Ġenhance ment
Ġcontroll ers
ĠCON F
Ġdemonet isation
ĠEas iest
ĠÂģ Â§
Ġsom thing
Ġsom eday
Ġgrad uation
Ġvert ically
Ġble nd
Ġannou nced
urve y
ĠUAV s
Ġterri fic
AIL ABLE
pic able
ĠPER M
ĠPriv ate
Ġbuzz ing
ĠJo e
Ġnick names
Aut om
Ġjack et
Ġburn ed
Ġved io
ĠES P
nnnn nnnn
Ġreappear ing
ahahahah ahahahah
Ġthie ves
Phot o
Ġqual ities
Ġaplic aciÃĥ
Ġmanufactur ers
Ġsupervis or
ĠTyp ical
Ġobsc ure
ĠRES P
Ġfasc inating
Ġwhit el
Ġspect acular
Ġmagnet ic
Ġsan ity
ĠStand ard
Ġdin osaur
ĠEst im
Ġbiomet ric
Ġdeduct ed
Ġideo logy
Ġunim pressed
ĠSTU FF
Ġhicc ups
ĠNOTIFICATION S
Loc ation
Ġcoinc idence
Ġargu ing
ĠMus lim
Ġabrupt ly
Ġconse cut
ĠIz ogn
Ġpian o
ĠWagam ama
ĠFIR ST
ĠHON EST
Ġconspir acy
Ġcredential s
ĠSIN CE
audu lent
ĠIntern ational
ĠFrequ ently
ĠORI GIN
# #
B lo
B ought
D ue
F requ
G R
G r
G od
L ater
L acks
M ain
M ine
M ILLION
P athetic
R ather
S OME
S etting
V V
c am
c rown
f v
i j
i u
k r
k er
k ar
k now
l r
l in
l aim
m r
m ate
m ill
m icrophone
m atic
r ange
s ad
s ub
t ic
t el
u cks
w anted
x h
x y
z o
z ed
Ġt int
Ġt icked
Ġt ours
Ġa ver
Ġa th
Ġa ired
Ġi ze
in hood
Ġw ave
re y
Ġm ere
Ġthe e
Ġb k
Ġb Ãĥ
Ġc ached
ĠI C
ĠI pad
Ġp ence
Ġp ester
en en
Ġh oney
an es
ll l
it ially
Ġapp ropriately
ar ters
Ġe lection
Ġin ner
Ġha y
Ġha z
Ġha ptic
Ġfor give
et e
ke ys
ĠT en
ĠT RI
Ġst alls
ri f
Ġne gle
Ġne utral
Ġse lves
ĠS at
ĠS um
ĠS oooo
Ġso ph
th es
Ġme jor
ĠG ut
ĠG ab
ĠG ON
Ġch rom
Ġv ib
out ines
ĠW AR
Ġuse ing
Ġsh ell
Ġsh irt
Ġall l
il i
Ġj un
am ic
Ġget tin
Ġal i
Ġal le
Ġde ce
Ġde arest
ĠB an
ĠB ee
ĠB ixby
ĠP ast
ĠN EWS
us ers
Ġfi ghting
pe cc
Äł ro
Äł ent
Äł no
Äł sw
Äł go
ĠWh ite
Ġno ve
ĠM at
ĠM OM
ĠThe me
Ġwhat ch
Ġpl ague
ew s
ĠC K
ĠC ross
Ġk iss
Ġam using
ĠD unno
ĠD amn
ĠL Y
ĠL ate
ĠL ibrary
Ġsa vi
ĠH O
ĠE ast
ect ic
ig o
Ġun att
app er
Ġqu antity
Ġpre fers
ĠV erry
ĠR OB
ĠWhats up
Ġcr ushed
Ġle af
orm ally
Ġ3 4
Ġint ense
Ġaw fully
Ġset tle
ab s
ab ases
Ġbr ake
Â¤ âĢł
Ġbl ows
Ġmin is
Ġmusic al
Ġ4 3
Ġsp an
Ġsp ont
Ġsp ring
Ġar abic
Ġres c
Wh ether
Ġho bby
Ã¢ Å¡
be ll
ues e
Ġgu itar
Ġgl it
Ġwrong ly
Ġwish list
Ġref lection
Ġ6 8
Ġent s
ens es
Ġx D
Ġdec ently
Ġdec ades
Ġreg ions
Â¦ ÂŃ
Â¦ âĢĵ
Â¦ Â«
Ġblack s
Ġer asing
Ġpost er
Â° ÂĲ
Å¡ Å¾Ã°
âĢļ Â¤
Not ifications
Ġdisc ard
Ġass es
Ġsur pass
Ġbo g
Ġear liest
âĢľ Â±
Ġwall s
Ġart ific
ĠIs lam
ĠUn acceptable
ph as
Ġtwe aking
Ġprom ising
ĠST R
Ġins uff
âĢ¹ Â¨
Ġrel ay
In itially
Ġpersonal isation
Ã¬ Åł
Ġinv iting
Ġinv ites
Â· âĢĻ
Ġval ued
ĠFI VE
Ġmajor ly
ĠSim ilar
Ġapart ment
rrit ating
Ġpower point
Ġvari ation
Ġirrit ate
TH E
ĠCom puter
Ġsn appy
Äłre l
IM ES
Ġve get
ump y
We b
ĠAR T
ĠAR Core
Ġadjust able
Äłt i
Äłm is
Ãħ ÅĤ
Ġson y
Ġexc itement
for ce
Ġess ay
Ġland marks
ĠAL MOST
Ġuns aved
Ġ25 6
Ġsal t
Ġsal ad
Ġrob ots
ÄłD e
Ġdial ing
ĠSH O
Ġcommon ly
Ġstress ing
Ġic s
Ġant icip
Ġsimpl ify
ÄłA d
Ġunb iased
Ġestim ator
De c
ĠChrist ian
ĠRem inders
Ġprofessional s
Ġobject ive
Ġcomb ining
Ġbull ies
Ġmer ging
ĠMS M
ĠUp load
Ġnightmare s
ĠCO L
ball oon
tr ack
ĠÃ£ ÆĴ
rrrr r
ĠFA B
Ġinvol ve
Ġdismiss ed
Ġcolleag ue
Ġblind ing
Ab out
agr ams
aj i
Ġast rophotography
Ġbless ed
Ġinsert ed
Me h
ĠCons istently
ĠÃĥÄ »
Super b
Ġmir acle
ĠSP ACE
Ġbri ghter
Ġflag ged
wr ite
inter est
ession ally
Ġgovern ments
ĠSER VICES
ĠFav or
Ġpra wn
Ġdiscuss ions
ĠÃĺÂª ÃĻ
Ġrepresent ative
Ġextens ions
Ġflick ering
ĠBrit ain
Ġdict ation
isc ope
Ġweekend s
Ġconserv atives
Ġagent Mom
Ġhorizont ally
Ġoverl ap
Ġcru el
ĠPart icularly
ĠÃĤÄ ²
Ġarm ys
ĠFU CKING
Ġrain bow
ĠPrefer red
ĠTyp ing
Gl itch
sleep y
Ġdiscontin ue
ĠSAY ING
ĠPin yin
Ġdowns ides
Ġbatter ies
Ġdiag n
Ġmagn ificent
Ġintent ions
ĠREVI EW
ĠInit ial
Ġridd led
Ġvulner able
Ġtroll s
ĠClo se
ĠMultiMahjong Cli
ĠÃĻÆĴ Ãĺ
Ġsme ll
ĠHIGH LY
Ġgadget s
Ġadap ted
Ġdetermin ed
ĠMet ro
Ġunsubscri bed
Ġdiscus sing
ĠSERIOUS LY
Ġpolitic ians
Ġwarr ant
Ġarrog ant
Ġinterf ere
Ġaston ishing
Ġgrands on
Ġreim bur
Ġtrous ers
ĠBeng ali
" "
" ...
* .
B C
B ye
D uring
D uo
F ound
F light
G PS
H O
I AL
K udos
M ON
M EDI
N E
R ES
S ub
W ear
c ers
d aughter
f un
f ish
g ly
g irl
h en
k o
k ind
m l
n ic
n Ãĥ
n atur
p eople
p ods
p heres
r iting
s l
s ave
t asks
v as
Ġ `
Ġt uber
Ġa se
Ġi me
Ġth ou
Ġs ed
Ġs ar
Ġs inking
Ġw il
Ġw ine
Ġw ins
Ġw estern
re ak
Ġm erely
Ġb ak
Ġb isc
nd o
Ġc i
Ġc tion
Ġc mon
Ġc ba
Ġf uck
or ters
Ġn in
Ġn ation
Ġn ursing
Ġp asting
Ġd d
Ġg a
Ġl ousy
it arian
ic on
ic ial
ic tions
Ġre in
Ġre all
Ġre occ
Ġyou th
oo b
ĠT Y
ĠT OUCH
Ġst ood
Ġan al
Ġdo pp
al t
al ks
al bum
Ġse mi
ĠS ar
ĠS ur
ĠS weet
Ġch unk
Ġch amber
Ġv oting
ood les
Ġsh ar
.. ?
Ġall erg
Ġj i
ack ers
est ic
Ġpro bl
ĠB el
ĠB ill
Ġr ise
Ġr outing
ĠP ocket
ĠN am
pe ated
Äł sk
Äł aw
Äł under
ĠM u
ĠM AKES
Ġat ely
Ġpl ant
ĠC LI
Ġam p
ĠF CC
ĠD ynam
ĠD angerous
Ġout r
ĠL if
ĠL TE
ĠH Q
ĠH mm
ĠH AND
ĠH aha
ĠH ATES
Th an
ĠE E
ĠE SS
Ġrec ieving
Ġadd icting
Ġchang elog
ig s
Ġacc um
Ġacc idents
Ġstar ing
Ġun e
Ġun needed
app ear
and ed
Ġim ma
ĠU k
ĠU AE
Ġsu gg
Ġplease ee
Ġpre fect
ĠR ussian
Ġcl imate
Ġcl oths
Ġbest ie
Ġcr acking
Ġ3 7
Ġsay in
ough nut
Ġaw ard
ÂĿ Â£
ab e
ab out
Ġinter vention
ign ed
Ġbr ack
Ġbr anch
Ġcomp ressed
Ġhe ating
ĠSo ft
Ġmusic s
Ġdes elect
Ġdes picable
Ġlast est
Ãĺ Âº
ĠRe ading
Ġstop watch
ĠK n
Ã¢ Åł
be am
ire ctions
Ġinc ess
Ġche at
ĠSt ate
Ġgu ided
ra h
Ġgl ow
LE CT
Âį âĤ¬
Ġwa kes
âĢĺ ÂĲ
Ġcompl ic
sk ippable
Â® Â¤
ĠAm az
AN N
âĢ¡ Â¦
ÂĲ Â§
OR K
AS E
IS TS
ĠX X
Ġz e
Â¥ Â´
Ġfl aky
ĠBe at
ĠAmazing ly
Ġexp ans
Ġcount y
âĢĻ ÂĿ
Ġcorrect s
Å½ Ãł
Ġap o
ĠAs ia
ĠNeed ed
Â¯ \
VER Y
min ute
ĠTo k
ĠTo ld
Â´ Â¥
ĠUn reliable
ĠST ORE
âĢĶ Âı
âĢĶ âĢł
hand ed
Â¢ âĢ¹
Â¿ Â£
St ar
St aff
Ġdefa ulting
Ġstick y
âĢĵ âĢ¡
Å¾ Ãł
Äłs a
Äłs ur
ĠAd v
ĠUPD ATING
Ġfig uring
Ġintegr ations
Ġrecogn ising
Ġrecogn izes
ĠCon vers
ĠFOR EVER
ser ies
ĠMem ber
Äłre st
ĠÃ« Âª
Ġdelay ing
row ave
Äłf i
su ggest
Ġinf act
ÂĿâĢ¢ âĦ¢
Ġlaunch es
ĠME M
Ġcens ors
oc r
Ġfour th
Ġdest inations
Ġtweet er
Ġpublic ity
Ġdi y
Ġmeant ime
Ġpe ers
........ ...
Ġeduc ate
ĠFREE Z
Ġtreat s
Ġlab or
Ġalert ed
Ġsile ncing
Ġmid way
Ġment ally
Ġcoll ision
ÄłT r
Ġfu el
Ġenviron ments
Ġestim ates
Ġsqu ashed
ÂĿâĢĺ Â¡
Ġdat abases
Ġarr anging
mer ce
ĠTR YING
Ġvio lent
Ġinvest ment
ÂĿâĢĶ Â®
Ġwater mark
Ġgoo gles
Ġris ky
ÃĥÄ º
Ġachieve ment
Ġblind ed
Ġden ying
rit ten
Ġpat ron
ĠConnect s
ĠSU RE
ĠBig gest
GG EST
ĠGIF S
Ġscr ap
ÃĤÄ ²
Free zes
ĠWeb View
LI E
Ġsilent ly
ĠAV AILABLE
Ġbul let
Ġmil ksh
ĠSee ing
Ġlabel led
ĠTOO K
Tr ash
call s
Ġdim ensions
ĠFil ter
ĠBL OOD
ĠAfric an
Ġrepresent ation
Ġrent al
ĠÃ¢Ä¢Ä ¿
Ġbeep ing
ĠNor ris
ĠGoo g
ĠGoo od
Äłim p
sec ure
Ġcommit ted
fin ity
Ġequal izer
Ġbund led
Inter face
ĠFollow ing
ĠIMP ORT
ĠAutom atic
Ġmultit ask
Å¡Åĵ Ã°
ros ity
Ġcorpor ations
Ġinterfer ing
Ġsand wich
Ġdynam ic
ĠCount ry
ĠLOAD S
ĠRemo ved
Ġmonst rosity
Te am
Ġenlar ge
ĠCUSTOM ER
Ġclown s
rob at
ĠCent re
Ġgran ular
Eas ily
Ġbac on
ĠAdjust ment
Ġmarvel ous
ĠBrows er
Ġtodd ler
ĠInform ative
Ġconson ants
Ġneighbor hood
Ġcraf ts
Ġaplik ac
Ma jor
Ġenorm ous
ĠJen ner
ĠDat abase
Ġnegat ivity
Ġtires ome
ĠPRI V
Ġpric eless
Ġunskip able
ĠORIGIN AL
pecc able
1 50
9 0
E vent
E AD
G A
G iving
I LE
K ind
O s
O cc
P ut
P LE
P ost
S ort
S ched
S ync
S ometime
T urns
U C
U X
U ES
V e
b x
b ank
c z
c ifically
e ks
f g
g i
k ins
l ity
l aw
m t
m ay
m any
n ical
p ixel
s ap
t ake
u ntil
w ash
y o
Ġt es
Ġa cess
Ġa unt
Ġi cing
Ġs unk
Ġw est
Ġw iping
Ġw aze
at ivo
re l
Ġm ing
Ġm ens
Ġm ild
Ġb ow
Ġb one
Ġb ast
Ġc ust
Ġc up
Ġc Ãĥ
Ġf urn
Ġf ps
Ġto oth
Ġto ward
Ġn ing
Ġp i
Ġp ect
Ġp ip
Ġp ets
Ġd arn
Ġh ue
Ġh oops
an et
Ġu ll
Ġu ck
ll ip
Ġo st
it ations
Ġon t
Ġe ve
Ġe ther
Ġe co
Ġ, ,
Ġin j
ion ed
ac ias
ĠT est
Ġst alked
Ġnot ices
ad vert
Ġdo ors
Ġdo ctors
ro st
ri bly
me et
ĠS S
ĠS leep
ĠS OOO
ĠS anskrit
th day
th ora
Ġlo vin
ap able
el ift
ant e
Ġcon sol
Ġti er
am ous
Ġad ress
Ġad here
Ġal ph
Ġwas h
ĠY A
ĠB in
ĠB on
ĠB roke
Ġr ah
Ġr ushed
ĠP hones
ĠP IP
lo se
ur assic
ĠN HS
Ġop ted
Äł fo
Äł ho
Äł off
Ġno sey
ĠM um
ĠM rs
Ġthey re
ĠC T
ĠC ore
ĠC ity
ĠC enter
Ġtr au
ĠF INE
qu ality
ĠD C
Ġsee king
Ġab t
ĠL inux
um ably
ĠO H
ĠO TP
ĠH ar
ĠH ACK
ĠH CI
ĠE V
ĠE w
Ġpo ke
Ġrec ur
ig ible
âĤ¬ ÂĲ
ĠU pon
ile nt
ĠV ID
Ëľ Â°
Ëľ Â·
Ġcl im
Ġbu cket
Ġco d
Ġcr ome
Ġle nt
Ġint el
Ġper ks
Ġper iscope
Ġfun ky
Ġinter val
ign ment
Ġbl ow
Ġbl ink
ann ada
ass ing
Ġphotos pheres
ĠJ ake
ĠJ apan
we ek
Ġem phas
Ġpr one
ĠMy S
ĠK M
ĠK e
ĠK ong
Ġfo b
ĠSt uff
Ġrem edy
read ful
ĠIn f
ĠIn ternal
plet ed
Ġfav s
Ġent hus
Ġjo int
ĠEx press
Ġprodu cing
Ġprodu cers
Ġrid ing
ON D
Ġ7 7
get ting
Ġdec or
Ġdec imal
Â® Â°
Â¦ Â¶
AN CE
Ġgr ace
OR S
ank y
Ġautom ation
Ġext ract
Âģ âĢ°
LL LL
ib b
Ġpa ed
Ġremo vable
pd f
Ġconvers ions
Ġcre w
âĢľ Â°
Ġda ft
ĠAw es
ĠIs ra
Ġbot ton
ne cessary
Ġschool ing
Ġcar riers
over n
US ING
ĠAND ROID
Ġfeed ing
Ġwonder ed
aw l
UT E
Ġver ge
âĢĺÂį .
Ġgener ating
Ġob lig
AZ Y
Ã¬ Åĵ
ĠLO C
Ġcomment ed
ĠPro per
ĠNever theless
Ġ15 00
Âº Ã¢
Â· âĤ¬
Äłs n
medi ately
ÃĤ Âµ
ÃĤ Âª
Ġhang ed
Ġev a
ĠSO ON
Ġep ub
Ġoper ates
ĠCom b
Ġcor onavirus
zz y
Ġgre w
connect ing
ĠMo vie
ond a
Ġadvertis es
Ġip ods
Ġque ued
ÂĿâĢ¢ Â£
ÂĿâĢ¢ Â¦
Ġdu h
ĠCr ash
ST EM
Ġdraw ings
ĠIM MEDI
ÃĺÂª ÃĻËĨÃĺ
ĠGI VING
Ġhot els
ĠDef in
Ġdi etary
Ġmis beh
ins on
Ġnegative ly
Ġsens itivity
Ġoptim ize
ĠEn ables
Ġequ ation
Ġpers isted
Ġexpress ing
ĠNEED ED
vol uted
,, ,,
Äłin f
Ġnum er
Ġreopen ed
Ġauthor ization
Ġexpand ed
ĠSm h
gu ided
ĠAmeric ans
ĠCOM MENT
Ġobs erved
ĠPri or
Ġexport ed
ĠLG BT
Ġtast eless
Help ful
Ġstri kes
Ġadministr ative
GG ING
Ġcance led
Ġmath emat
Ġpun ish
Ġparticip ate
Ġpet ty
Ġow s
Con f
Ġtown s
Ġkm l
Ġviol ate
Ġbombard ment
Ġhav nt
Ġste als
Ġcopyright ed
ĠCONT IN
ĠAir Play
ĠPol it
Last ly
Ġcri me
Mo ving
Ġple thora
Ġdecl ining
Ġsynchron ize
pppp pppp
Cont act
Ġclar ify
WW WW
ril led
Sc rolling
Ġpig e
Ġpig s
Ġalter ed
Ġwild ly
Ġsecret ly
Ġsimultane ous
Chrome cast
Ġelect ric
dddd dddd
ork ers
Ġrecomend ed
ĠSec ure
Connect ion
Ġsusp ension
Ġvi be
ĠBo ss
ĠSuggest ions
ĠPROBLE MS
Ġlou dspeaker
Ġelimin ated
Ġsne ak
ĠHear t
Ġiz ed
Ġguest s
Ġdos nt
ĠYe et
Ġacknowled ged
Ġapl ication
ĠEurope an
Ġgray ed
Ġgather ing
ĠPew diepie
Gl ad
gggggggggggggggg gggggggggggggggg
Ġseg ment
Ġconc ert
ĠLONG ER
ĠWat tsapp
Ġsnow fl
ĠFO LD
ĠFunction ality
Ġcalibr ation
Ġfant astically
Ġsen ior
ĠInit ially
ĠArch ive
ĠAsk ed
Ġmount ain
ĠMultiMahjong Server
ĠPhil ipp
Ġgam ers
ĠSY STEM
Ġentr ance
ĠCHE CK
Ġgall eries
ĠFIN ALLY
ĠSECOND S
FOR M
ĠFore ver
ĠKy lie
Ġconvent ional
Ġciv il
bet ween
Ġmyster iously
Ġsquee ze
ĠIDE A
Ġmyst ery
ĠSETTING S
Ġeleg ant
natur al
ĠIMMEDI ATELY
! ?!
" !
) ?
+ )
3 60
A sk
B U
B Y
B ed
B uggy
L S
L i
M I
M R
N on
N ET
O ption
Q L
R et
R ATING
S ure
T OM
V er
W A
W allpap
W ORD
a ul
b ad
b ble
c ant
f ar
f irst
g iene
h as
i ences
j ar
l it
l ers
l ies
l ining
r ot
r action
t re
u a
v d
v g
v h
v oice
w d
w ould
y les
z ie
Ġt Ãĥ
Ġi watch
Ġth y
er ate
er ves
er ge
Ġw t
Ġw ipes
re lated
Ġb or
Ġb id
Ġb anks
Ġb hi
Ġc ine
Ġf are
Ġf ustrating
Ġn ich
Ġn ails
Ġp ale
Ġit Ã¢
Ġd ess
Ġd ancing
Ġh ectic
an xious
Ġu x
Ġu mm
Ġu ma
is k
is ters
is ms
as er
as ional
it ure
Ġe u
st on
Ġre ss
Ġin k
Ġof c
Ġ' '
ac o
ĠT B
Ġst are
Ġst utters
Ġan k
Ġan ten
Ġan cient
ĠA K
Ġdo pe
ĠS ENT
ĠS ICK
Ġso cially
ĠG ir
ĠG MB
ĠG pay
Ġch urch
Ġv y
ĠW EE
Ġus ar
Ġas f
Ġas wel
Ġas mr
Ġsh opp
el g
el o
Ġcon st
Ġcon voluted
ill ance
ce ll
Ġwork st
Ġad obe
Ġal g
Ġde graded
ĠIt aly
ĠB ur
ĠB ob
Ġfr audulent
Ġr Ãĥ
Ġr ape
ĠP ress
Ġmess s
Äł X
Äł ter
Äł est
Äł che
un s
ĠM ill
ĠM ULT
Ġpl ate
Ġmessag er
ĠC ou
ĠC as
ĠC ut
ĠC are
ĠC ell
ĠC ODE
ĠC REAT
Ġk han
Ġk umar
Ġam a
own ess
ĠF an
ĠF AM
ĠD J
ĠD u
ĠD ate
ĠD ial
cc er
Ġneed less
ĠL AT
ĠL EAR
um in
um ble
um ers
Ġsa v
ĠO T
ĠH ide
ĠH old
ĠH AVING
Th us
ĠE Y
Ġmore over
ir m
Ġpo ckets
ĠYouT ubes
Ġdown stairs
and os
Ġsu gar
Ġoff set
Ġwhich ever
de vice
ĠÃ¢ Ä¤
Ġ5 3
ĠR adio
ment e
Ġbu eno
Ġen qu
Ġ3 9
Ġper pet
Ġimp orting
Ġgot o
Ġinter view
gr ad
inst al
Ġsnap map
ound ing
Ġsp r
tt ed
Ġar k
ĠAl ot
ĠAS S
du le
ĠK ILL
be at
ĠIn fo
ak enly
Ġfar m
ĠCh anges
Ġel igible
sh ushing
Ġent ly
ĠEx e
ĠEx pect
od o
ol it
wh o
Ġreg istration
Â¦ âĢľ
Ġmed ical
FF ER
ĠPl ace
Ġhand sets
Ġgr at
Ġgr ave
Ġcons cious
oooo od
âĢļ Â´
Ġpop ups
ĠDeliver ies
Ġsur f
Ġprof essionally
ĠSh ut
âĢ¦ $
Ġur self
arm a
âĢĻ âĢľ
Ġsuper market
Ġstupid est
Ġstupid ity
Ġatt ending
Ġfre ew
PP ING
ĠAs ian
Ġfin ed
Ġfin ishing
te le
ĠPlay store
ĠPlay lists
Ġ0 6
Ġfac elift
Ġsurve illance
Ġins isted
Ġins urance
sw er
Ġbelie ves
Ġstand by
Ġdr astic
Ġvol unt
Ġvol umes
Ġcal orie
Thank fully
Ġchildren s
Ġpar king
ĠPre view
pr it
Â¸Âı .
Ġ24 0
Wor th
Äłs im
Ġsad d
Ġconvenient ly
Ġmet ers
ĠDis play
Ġbeh aves
use ful
Ġsmo ke
ĠSO L
ho le
Ġoper ated
ĠCom es
ĠCom mon
Ġfeedback s
ĠMe aning
ĠSe en
ĠSe amless
Ġmass es
ĠMem ory
ĠÃ¬ ËĨ
ĠAdd ictive
ĠZ en
su per
Ġcolor ful
Ġri ver
Ġri vals
ÂĿâĢ¢ Â¡
Äłt ri
Ġpdf s
Â« Âį
Ġroll back
Ġtre es
ĠCr ashed
Ġbc s
Ġhum id
ÃĺÂª ÃĻÅł
Ġoverse a
Ġquestion able
rs ly
Ġir respon
Ġpe ppa
ÄłP ro
Ġprotect ing
Ġattach ing
Ġrot ates
ĠChe cked
EVER Y
miss ions
Ġpers ist
Ġwrit er
Ġmot orola
Ġ200 6
ĠPL US
Ġrad ical
Ġsubt ask
cy cle
De velopers
ĠSE P
Ġgrand parents
Ġgrand daughter
Ġmi ui
ĠWANT ED
ĠEX CEPT
Ġinvest ed
ĠÃ¢Ä¢ ÅĢ
IF Y
Ġencounter ing
ÃĥÄ »
Ġcompens ated
Ã¨ ÆĴ
ĠARMY s
ĠBU GS
Äłdis c
Ġampl ified
Ġinbox es
Ġenhance ments
Ġbombard ing
Ġhy giene
Ġmonet ise
icy cle
Ġabs ence
Ġscen ario
ĠNE FU
Ġflick ers
Ġbeep s
Ġgar age
Ġvast ly
ĠTweet bot
Ġburn ing
Ġstalk ers
Ġconstru ctive
ĠNight mare
ĠSOMET IMES
Ġrelig ion
CI AL
Ġcomprom ise
aaaaaaaa aaaaaaaa
ÃĺÂµ Ãĺ
ĠIMP RO
Ġcow orkers
urch ased
ĠWHI LE
ĠBT W
Ġbudd y
Ġvac ation
Ġuna ware
Ġtun ing
Ġincorpor ating
BO ARD
Ġfidd ling
ĠRun s
Ġvanish es
Ġkno cked
ĠGE TS
ĠEL SE
ĠStr ange
Ġslo ppy
Ġdru gs
Ġsnapp ers
Ġalloc ated
upd ates
iqu es
Ġchap ter
ĠÃĭÄ ¨
Ġhasht ag
ĠEvent ually
ĠVO ICE
Ġarrang ement
ĠCRASH ES
ĠCancel led
ĠFrank ie
Ġcult ural
Ġdisreg ard
ĠPASS WORD
Ġwis dom
ĠGL ITCH
Ġjew ell
Ġdisple ased
cow boy
Ġclou ds
Middle ware
ĠSoph ie
ĠNUMB ER
Ġextraordin ary
Ġsavi our
) ..
4 00
? !!
A tt
C ertain
D own
E rror
G ave
L imited
M ultiple
N G
N et
P C
R ed
S M
S napchat
W ER
b ike
c ustom
c ific
c opy
d ep
d oc
d oughnut
f on
g ent
h ome
j g
j n
j ud
k ers
l inks
m h
m n
p en
p rodu
r adio
t est
t ouch
u er
u ce
Ã ĭ
Ġ âĢŀ
Ġt t
Ġt ub
Ġt rophy
Ġa ways
Ġi ds
Ġs ib
Ġs Ãĥ
Ġs atur
Ġs ushi
er r
Ġm am
Ġm ang
Ġb ah
Ġb illed
ing ers
Ġc es
Ġc ks
Ġc aps
Ġf ade
Ġf ath
Ġto pp
Ġto oo
ĠI k
Ġp iping
Ġp encil
Ġd y
Ġh ints
Ġu es
Ġu pped
Ġo v
Ġo y
Ġg c
Ġg s
Ġg t
Ġg ent
Ġl ang
Ġl Ãĥ
Ġl asting
Ġapp e
st o
Ġre dd
Ġre loc
Ġbe ach
ut ing
Ġin advert
Ġha irst
se cs
ch er
ĠT ic
ĠT AKING
ĠT alking
ĠT ALK
ĠA round
ĠA ug
ad ding
ad ded
Ġdo om
ri al
Ġse ams
ĠS pecially
ĠS ik
ĠTh inking
Ġch ad
Ġv ain
Ġv ague
Ġupd at
ap y
Ġsh ed
Ġsh eep
Ġsh ield
Ġor y
el a
el le
Ġall ergy
Ġ: '
Ġ: @
Ġj a
Ġti pped
Ġph on
Ġwork flow
Ġde emed
Ġgood Ã°Å¸
ul ary
ĠB ot
ĠB RE
ĠB OOM
ĠP ity
ĠN c
ĠN ike
ĠN ational
Ġcom ic
Äł Z
Äł ve
Äł wor
Äł ext
un install
ĠM and
ĠM other
ĠM ix
ĠM aster
ĠM OB
Ġpl ugging
ĠC CP
Ġk es
Ġtr an
Ġtr agic
Ġam eric
ĠF act
ĠF ave
ĠF ont
ĠF YI
ain ment
ĠD UMB
im a
Ġab d
Ġab ly
Ġab used
Ġout right
ĠL OSE
ĠO A
ĠH it
ĠH av
ĠH EAR
ĠH uman
ĠE qu
ĠE du
ĠE ST
ĠE MOJ
Ġpo ly
Ġpo ison
Ġacc ord
Ġstar ter
Ġdis gu
Ġsc ar
Ġsc um
Ġsc reentime
Ġun se
Ġun ch
Ġun popular
Ġag ing
atch ing
Ġfriends hips
ĠU i
Ġsu ited
Ġmuch o
Ġkn ees
ail le
ĠV e
ĠV r
ĠV od
de c
os h
ĠR om
ĠR ip
ĠR ED
ĠR OM
ĠR unning
ĠR oute
Ëľ Â¨
Ġ" .
Ġbu ck
Ġbu cks
Ġloo oo
Ġiss uing
Ġdownload able
ture s
ĠApp reciate
Ġfun cion
Ġinter pret
Ġnever theless
ĠAnd riod
ans fer
Ġ4 000
we ights
Ġsl owness
Ġar rest
ER ES
Ġres ist
Ġpr anks
ĠK ik
ĠK atie
Ġreason ing
Ġperson ality
Ġlit eral
ĠOn eplus
Ġhard est
Ġclo cks
Ġimpro v
Ġtell y
Ġref ined
sh ow
sh ort
Ġlog os
Â¸ Âį
Ġrid es
od ing
od dy
Ġreg ain
Ġreg ulations
Ġmed ias
Âı âĢł
Ġhear s
Ġgr ass
Ġfact ors
âĢŀ Â°
avig ating
AP T
ÅĴ Ã¥
Ġac ad
Ġleft ist
Ġ9 7
Ġchild hood
Ġ8 5
Ġhor se
ĠDe ffo
Ġpast el
ĠSh iv
Ġnews feed
ĠAb d
ĠTO T
Ġgame play
Âµ Ã°
Ġform al
Ġfin est
ĠON CE
Ġid le
Ġher o
ling s
ides ma
Â¬ Â¸
ĠST AY
Ġob t
Ġob stru
ĠInst all
Ġdist ress
Ġdr own
ĠPro ject
Re installed
ÂĿâĢľ Â»
Ġpar an
ĠLo cal
Ġoriginal s
mon ster
ĠDis gusted
Ġtransfer ed
ĠSp o
Ġhang ul
Äłp art
Ġev ident
Ġpin point
Ġrecogn ises
ĠFR UST
ĠIm pressive
Ġvari ations
Äłd et
ĠGo ssip
Ġspeech less
AD E
Ġoper ators
ĠFOR C
Ġcalcul ated
Ġcalcul ating
ĠLOVE D
Äłre m
Ġve z
Ġmist akenly
Ġdra wn
por ary
Ġlogin s
ian a
We ird
ane ously
Ġinput ting
Ġtem p
su ite
Ġip ads
Ġdescri bing
Ġdam aging
Ġdu per
Äłm ess
ĠCr acking
Ġ14 4
Ġ14 40
Ġhum our
Ġhands free
Ġcontinu um
Ġpe asy
Ġmar gin
Ġmic rowave
Ġpen g
Ġboy cott
Ġeduc ated
com ed
ĠEver note
Ġsoooo ooo
Ġdepend ant
Ġcollect s
ĠWE GET
af ety
Ġmini player
Ġuns ave
ĠGot ta
ism iss
Ġpack aged
Ġsal ty
ĠMore over
ĠEn able
Ġemot ional
Ġmag ical
Ġstress es
Pre fer
Ġach ieving
ÄłA m
Ġpan ic
Ġgraph ical
ĠAW SOME
Ġdrag on
Ġsqu ad
Am eric
IL ITY
bb ies
Ġwire lessly
Ġknowledge able
ÄłL o
ĠÃ¡ ËĨ
Ġposition ing
ĠUp grade
ĠUp loading
Ġgrand kids
Ġlength s
ĠId i
ok ay
Ġlead ers
ĠLe aving
Ġbeat en
ustral ian
Ġinvol ves
Ġloss es
ÃĥÄ ¥
ÃĥÄ ³
hi ked
ĠSign ed
ĠConnect ing
GG GG
ĠSw ipe
ĠSw ype
Ġcrop s
TT P
ĠOff line
ĠInc re
Ġcapital ize
ĠSP E
Ġwat tsapp
ĠiT ouch
ĠACC ESS
Ġdissap ointing
ĠCONT ENT
ĠÂģ Â¢
ĠÂģ Â¿
Ġtag ging
Ġdim ension
Ġhat ers
ĠCOMP ANY
View er
Ġculture s
AC TS
Ġbudget s
eel ing
Ġrock ing
Ġexecut ing
Ġbuzz feed
Ġdict ate
isc us
Ġdashboard s
Ġdiv ide
rong ly
Rest arted
Ġlic ence
Ġapprox imate
Point less
Ġoverl apping
link ed
Ġder ived
amil iar
ĠChar les
ĠTell s
Ġharass ment
bre aking
Ġiron ic
Ġclos ures
Ġdump ed
Ġcategor ise
Fe els
Fe atures
bur g
Ġdow ntime
Ġinspir ational
hib iscus
Ġcompreh end
Ġhom eless
ĠEl se
ĠEnter taining
Ġbab ies
Ġconfident ial
Ġmotiv ated
Ġtel ugu
ĠStud ent
char ge
Ġrevolution ary
ĠLA UV
ĠCHANG ING
BR ING
Ġcone ct
Ġscare s
CEPT ABLE
Off line
Ġvoc ab
Ġblat antly
foot prints
ĠSY NC
Ġconcent rate
Ġunist all
Ġelectron ics
eliver ed
Ġadvent ure
Ġadvis or
ĠGif s
Iss ue
ĠPers ian
ĠINTER NET
Ġcatal ogue
Ġlaz ar
Ġwhist les
ĠFAVOUR ITE
Ġcontrovers ial
Ġrealt or
def ined
ĠQuest ion
Ġsnipp ets
ĠArri ved
Ġhitch hiked
Ġunfo llow
ĠTechno logy
Person ally
ĠPROP ER
ĠCONF USING
Ġconsecut ive
Ġinsuff icient
ĠMultiMahjongCli ent
Ġbisc uit
Ġdopp elg
ĠCLI CK
ĠBLOOD Y
ĠIMPORT ANT
llip op
Ġinj ury
ĠPhilipp ines
Ġjewell ery
/ /
3 9
9 8
A X
A side
A fric
B I
D ay
D one
F O
F ar
F ace
G board
H ence
H ELP
I TS
L ear
L ight
N or
P s
R EN
S ER
S ystem
S ettings
S urveys
T R
W ord
W ont
W idget
Y t
b as
b ery
c ot
c ol
d h
d m
d ont
d ancing
f u
f one
f ew
f ig
f resh
i kes
j x
k id
k ip
l ot
l ation
m ade
n is
n am
n ever
n ormal
o ct
o ked
s nap
s napchat
t ter
t aken
w on
w ed
Ġt ether
Ġa lexa
Ġs anskrit
in ion
in cluding
er n
Ġw ir
Ġw ound
re o
re lla
Ġm ig
Ġm ort
Ġc s
Ġc ough
Ġf oo
Ġf ur
ĠI gn
ĠI CON
Ġp ag
Ġit eration
Ġd ive
Ġd um
Ġd int
Ġh h
Ġh ind
Ġo oo
Ġg on
is er
is an
Ġl v
Ġl in
Ġapp store
Ġis ts
ic an
ic ult
ic ited
Ġe vey
st ra
Ġwh os
et ly
et te
ac ock
Ġthis Ã°Å¸
ĠT I
ĠT amil
ĠT AB
ĠT witters
Ġst il
Ġst amps
Ġst aple
Ġup t
Ġbut ter
ĠA ustralian
ri an
al though
ĠS ect
th a
ĠG aming
ĠG armin
ĠG reek
ust worthy
Ġch erry
Ġlo v
ĠW ood
ĠW ISH
Ġsh am
Ġall ways
Ġ: :
Ġcon j
Ġcon ce
Ġj elly
Ġti pping
Ġph ase
am ond
Ġad orable
Ġwe chat
ĠB ing
ĠB old
ĠP ont
ĠP PT
ĠP ISS
ĠN eg
Ġfi ghts
if orn
Äł ver
Äł pe
Äł ir
Äł IN
Äł LO
Äł add
Ġno s
ĠM D
ĠM d
ĠM ah
ĠM ED
ĠM illion
ĠM ISS
Ġwhat ts
ĠC orrect
ĠC AR
ĠC apt
Ġk ed
Ġk art
Ġk ms
Ġk larna
Ġgo sh
ĠF RE
ĠF UM
ĠF FS
ĠF ault
Ġmo dule
ĠD ep
ĠD readful
Ġab using
Ġout ages
ĠL ou
ĠL inks
ĠL AST
um erous
ĠO d
ĠH A
ĠH IS
ĠH ours
ĠH IST
ĠH urry
ĠH TTP
Th eres
ĠE nt
ĠE gy
ĠE aster
ĠE ffective
ir a
let te
ig e
Ġdis abilities
Ġsc ree
Ġun o
Ġun cle
Ġdown right
âĤ¬ âĢŀ
Ġim peccable
Ġbet ray
pl ication
pl ating
ĠÃ¢ Ä¦
os ity
ĠR I
ĠR iders
ĠR yan
ment ioned
Ëľ Â´
Ġbu ena
ĠWhats ap
Ġinst rum
Ġ- --
li ps
Ġ3 8
Ġint ake
Ġlong time
ab i
Ġimp art
Ġbl amed
inst ead
Ġ4 1
Ġ4 6
ann ah
Ġtake aways
Ġphotos phere
ĠJ OKE
Ġsp ams
Ġsp anish
Ġcomm iss
Ġpay wall
Ġsupp orters
ĠAl ong
Ġho g
Ġho bbies
ĠK ay
Ã¢ Ä¦
ĠIn vent
Ġsm ash
Ġgl or
ĠWhat App
Ġrep osit
âĢĺ Â¨
ert y
Ġbas es
Ġent itled
Ġjo e
Â¸ Â¸
ens ical
Ġcompl icate
Ġx en
ĠAm en
Â¦ Âģ
Ġmust ache
ÂĲ âĢ°
Ġgr avy
Ġsw allow
Ġcheck list
Âģ Â¥
Ġinform s
ru cture
Ġcreat ions
âĢĿ Â¨
Ġsch em
Ġnavig ator
Ġ9 99
Ġcur vy
Â¥ âĢ¦
âĢ¦ Â¥
ĠNow adays
âĢĻ Â°
rop hones
Ġfre aks
PP O
word s
Ġdet ri
Ġdet est
ne x
ËĨ ÃŃ
Ġspace bar
ĠÃĺ Âº
ĠNOT E
Ġsk ill
Ġsk inc
ĠON LINE
cl ing
cl ass
aw a
Â´ âĢĶ
Ġprom in
Ġgener ates
ari os
Ġrel ies
Ġblock er
Ġoffer ings
Ġappreci ation
Ġnote book
Ġ12 8
Re qu
Ġinstant aneous
aa ay
ident ally
Â¶ âĢŀ
Äłc ap
ĠLo g
ĠLo gged
Ġmor al
Ġdirect s
Ġfit bit
Ġsepar ation
ĠCH O
ĠWith in
IC S
IC ALLY
ĠRec ording
Ġring er
Un usable
Ġmanage able
Ġmorning s
ĠSer ious
cri pt
ĠSe em
Ġpub l
Ġagree ing
AL ITY
UR L
su pported
Ġque en
Ġinf ring
Ġfoc uses
ĠPo co
Ġfort unately
ÃĦ Å¸
ĠIM essage
Ġdest ru
Ġprot est
Ġmis information
Is n
ĠWhere as
order ed
ÄłC om
Ġbir ds
Ġconsum ed
ĠITS ELF
pro blem
Ġport al
Ġspeaker phone
Ġstate ments
af one
Ġoptim al
Ġdumb est
Ã¥ Åł
ĠCustom ers
Ġlab eled
Ġequ ations
Ġlaugh able
Ġair br
Any thing
Ġcos m
Ġbur st
Ġspot ty
Ġul t
Ġul ar
Ġund eni
Ġrad ios
De vice
Ġunread able
ĠGen eral
Ġscam ming
Ġcat ers
Ġconver se
Ġbull sh
Ġdistur bed
Ġ= )
Ġtar iff
Ġreconnect ed
ĠÃ¡ Åł
ĠÃ¡ Å¾
Ġengine ering
Ġmi xt
Ġretrie ving
ĠDIS ABLE
ĠSC AM
Ġannoy ances
Ġq w
Ġempt ied
Ġdistr actions
Ġgoo le
Ġpres umably
AG RAM
ĠGB oard
Ġinsp ires
Ġmv s
Ġping ing
Ser vice
Äłde c
ĠMiss ed
Ġcreep s
xxxx x
Ġdeactiv ating
Me an
Ġpun ished
ĠCons ider
Ġvalid ate
yyyy yyyy
ĠSw iping
Ġdeb ates
ĠÃħ Ä´
Ġcul prit
ĠTalk back
Ġthreat en
Ġthreat ened
Ã¢Ä¢Ä º
Ġmaterial s
Ġdish onest
Ġdram atic
ĠCONT ACTS
Ġjourney s
Cle ared
ĠInt o
cre ate
Ġreject ing
ĠWord s
Ġaband oning
Ġmonet ised
Ġmonet ization
Ġmonet isation
ĠWATCH ING
ĠEN OUGH
ĠComp ared
UD E
Ġagend as
ĠArt ie
Ġreccomend ed
WH ERE
prof ile
Ġamend ed
Search ing
Ġisol ating
bot tle
Who ever
ĠEm ailed
Ġjud ging
Ġrefine ment
II II
ĠBY E
ĠCor onavirus
ĠÃĤÄ £
Ġacce pts
Ġadapt ive
Ġharass ed
Ġskin ny
Ġdisli king
Äłsu pp
ĠLi ked
ĠTex ts
ĠÃ¬Å¾ ËĨÃ¬
ĠMI UI
ĠImprove ment
Ġaplic ativo
Ġhes itant
Ġparam eter
Ġgrip es
ĠRef und
iter ate
Ġstrict ly
Ġpriorit ize
ĠTurn ed
Ġstret ched
Ġincompet ence
ĠHapp ened
Ġswift ly
Comp ared
Ġacqu ired
ĠPHOT O
................................ ................................
Picture s
oe uv
Ġcongr atulations
Ġade quate
Ġspect rum
Ġinterfer es
Ġcone ction
yg en
ĠVE IW
Ġbing e
Ġware house
Ġdru g
Ġquir ky
Ġelectron ic
Ġdiscre p
ĠCOMM ENTS
Ġbou nce
ĠDigital Home
Ġdeplo y
ĠREP LY
Ġannot ations
ĠRew ards
Ġsubstant ial
Ġsubsequ ently
Ġtremend ous
Ġarbitr ary
Ġrail way
ĠSty lo
Ġcitiz ens
ĠCP U
Ġgodd amn
Ġsporad ically
ĠKardash ian
Ġreck on
Ġstitch ing
ĠItal ian
ĠMis leading
Ġkil omet
Ġadvoc ate
Ġpregn ant
Snap seed
Ġamuse ment
ĠHT ML
ÆĴÃ°Å¸Å½ ÆĴÃ°Å¸Å½
Ġsoph ist
ĠGON NA
Ġdiagn osed
ĠSoft ware
Ġincess ant
Ġmilksh ake
Ġfurn iture
Ġshopp ers
ĠMULT IP
Ġtopp ings
Ġredd it
ĠPont is
ĠHIST ORY
ĠEgy pt
ĠInvent ory
Ġskinc are
ĠVEIW S
) ...
. '
7 1
? ).
B AGE
C OM
F ile
H ear
L C
N AP
P o
P r
R OP
S ent
T EN
T DM
U Z
c omet
c alled
c les
c urrently
f th
f ting
f ile
g ame
g ames
g iving
g ibb
i ac
i ya
j u
k t
k no
l ate
m uch
n ial
n ails
p c
p ist
p osed
p elled
r an
r ich
s ible
Ġ ound
Ġt ic
Ġt ion
Ġt ge
Ġt ongue
Ġi an
Ġi ch
Ġi red
Ġth rilled
Ġs ought
Ġs weat
in able
Ġw oo
on et
Ġm c
Ġm asks
Ġb g
Ġb am
Ġb ones
Ġb icycle
Ġf ame
Ġf aded
Ġf ishing
Ġto ast
ĠI I
ĠI ll
or go
es pecially
Ġn uff
Ġn ada
le vel
Ġp ep
Ġit ing
Ġit ed
Ġit ch
Ġd rill
ll ar
Ġo ve
Ġg or
Ġl ud
Ġl ord
it ty
ic ast
om y
Ġy g
Ġe o
Ġe ly
Ġe ager
Ġbe an
ay ing
ay an
Ġfor k
ĠT on
ĠT ip
all er
id en
id ate
Ġnot ing
Ġnot hin
Ġan e
ĠA Y
ĠA IN
ad ia
Ġcan Ã¢
ro ve
Ġne ph
al arm
ĠS i
ĠS an
ĠS ch
ĠS ales
ĠTh us
ĠTh ail
th rough
ĠG EN
ĠG overn
Ġwor n
ĠW I
ĠW oo
ĠW ON
el se
il ated
Ġj ams
am os
Ġal ity
ĠIt z
ĠY E
ĠY ALL
ĠB M
ĠB ah
ĠB locked
ĠP ie
ĠP UB
ĠP AGE
ĠP iece
ĠP eng
ĠP arents
ĠN S
Ġfi fth
if ty
Äł is
Äł it
Äł us
Äł sm
Äł par
Äł AD
un ct
ĠM el
ĠM ath
ĠM OT
ĠM ENT
ĠThe m
Ġat or
Ġpl um
ĠC at
ĠC OP
ĠC redit
Ġke bab
Ġtr aps
ĠF ac
ĠF uming
ĠD H
ĠD en
ĠD ad
cc i
Ġout box
ĠL INE
um bled
ĠO m
ĠO ffer
ĠO LED
ĠO EM
ĠH y
ĠH on
ĠH hh
ĠH allow
ĠH mmm
ĠE RR
ĠE mma
Ġeven ings
Ġdis ability
Ġun g
Ġun app
Ġun author
Ġdown grading
app le
Ġag in
Ġsend in
Ġqu izz
Ġqu otes
op tion
Ġman oeuv
ĠU BER
Ġway yy
Ġway point
eli eve
em o
ĠV ary
ĠV irt
ĠV ivo
ĠR oom
ĠR ET
ĠR aj
act ivity
Ëľ Â¶
no v
Ġsnapchat ters
Ġbu is
Ġbu ff
Ġopen ly
Ġloo ps
Ġen emy
Ġfind er
Ġle is
Ġle ak
Ġle cture
Ġle aked
ff ff
av in
av ia
Ġaw ards
ab a
bo d
... )
gr ades
Ġbr ave
Ġbr idesma
Â¤ âĢĻ
form at
Ġcomp osing
sol ved
Ġmin ing
Ġsnap shot
Ġmusic ians
Ġact ed
Ġsim ulation
Ġtry s
ave l
Ġsp ice
Ġsp az
Ġsp ilt
Ġsl ang
solut ly
Ġar ds
Ġsupp lied
Ġres erve
Ġpr ying
ĠAl phab
Ġho ver
Ġmon key
be an
Ġinc apable
Ġwo ken
Ġunder age
Ġgu ilty
ĠIn box
ook ie
Ġsm ashing
ber ries
ie ves
Ġcomplet ly
sh ould
ĠEx p
ĠEx ample
ĠEx pected
Â¸ ÂŃ
Ġfa ff
od ed
ens ity
Ġ7 8
Ġret arded
Ġfrustr ate
âĢ¡ Â¶
âĢ¡ Â·
Ġhand ic
ÂĲ Â¡
Ġgr ids
cept ive
ĠDeli ght
Ġpost card
Ġmem or
Ġfrustrating ly
âĦ¢ Ëľ
Ġdark mode
VE L
ĠAN S
Al right
Ġblo ggers
IS ING
Ġpop ulation
Ġ9 6
most ly
Ġass umes
Ġfl ows
Ġfl uff
ĠDe velopment
ĠFor cing
Ġexp ands
Ġlag ged
Ġur du
Ġsmall est
âĢĻ Â¥
ĠAb ove
ĠTO P
Ġro les
Ġart works
ĠQ A
Ġ; -
Ġ11 0
ÆĴ Ã¢
ĠUse full
ring s
aw s
Ġrepl ays
ĠWi kip
âĢł Âį
Ġprom tion
âĢĶ Â¡
ĠAn n
Ġclass ical
Ġbelie fs
Ġweb pages
Ġspec im
Ġspec ies
Ġpersonal ize
ĠUP S
Ġvis a
Ġfore ground
Re view
Re member
Ġinv ading
Ġpick up
For ced
St ep
St uck
ĠRE PE
EW ARE
Äłc an
Äłc ur
ĠLo go
ĠCould nt
Ġdirect ing
Ġresol ves
air ing
Ġmet ric
ĠSp y
Ġpain fully
IC AL
Ġug lier
ug s
Ġjoin s
ĠDE VICES
ĠFOR CE
ĠMe ga
ĠSer ver
ĠBE LIE
Ġred elivery
ĠStop s
Ġgre ys
Ġgre eted
ĠMem ories
Ġve y
ump ing
ump ed
Ġagree ment
Ġeyes ore
log ical
ĠZ OOM
ĠPerfect ly
su pport
ĠÃĥ Âº
Ġinf rast
Ġadjust er
Ġpos itions
Ġbrand ing
Ãħ Äµ
ST OP
eal thy
ĠSc rolling
ĠSc ott
ÄłC on
Ġsurpr ises
ract ive
fold ers
Ġmic rophones
Ġwear able
lly wood
Ġprogress ive
Ġcolle ges
ĠDownload s
ĠDownload ing
Im ages
Ġleg acy
ÄłD is
ÄłD IS
Sh are
Ġlaugh s
Ġair ing
Ġther apy
Ġexpress ions
ĠBrill ant
Ġcoll apse
12 3
Ġtechn ique
Äłin v
Ġsubt ract
Ġdem ise
Ġrespect s
Ġill ogical
Ġdat as
Ġmoder ate
ĠTeam Viewer
ÃĹ âĦ¢
ĠShe et
cont act
Ġrect angle
Ã¡Å¾ Å¡
Ġaler ting
Ġnons ensical
ssss s
Ġcapture s
gu ard
gu ide
ĠFA IL
ĠAct iv
ĠBlackberry s
ĠAG ES
Ġmaxim ise
ÃĥÄ ²
Ġping chat
ĠSU GGEST
Ġpred ictions
Ġstri pped
ATION S
ĠRep orted
Ġrev amp
Ġsuperv ise
ĠMon th
Ġbul ky
Ġmir r
Ġdemonet ise
ĠRob inson
Ġreward ing
Ġreward ed
ĠAuthent ication
Ġimm ers
Ġrefer red
Ġboo bs
ĠMac Book
Ġreapp ears
Ġsuck ing
Ġsom times
ĠTW ICE
Ġsynchron ise
Ġamaz in
Che ers
aud io
Cont acts
Ġshif ted
Ġsau ces
WH AT
Ġdeg rees
js js
ĠJo ke
ĠREMO VING
Ġredirect ed
Ġsli p
ĠProf essional
Äło cc
ĠDr ains
Ġspons ors
kkkk kkkk
Ġgig s
ĠSW EAR
ĠSwitch ed
dr agon
zzzz zzzz
Sp ent
ĠREMOVE D
ĠLOOK S
ĠFollow ed
ĠMal ays
INST ALLED
Ġstead ily
Ġdos en
Ġchain mail
Ġacknowled gement
Ġsurround ings
ĠBu zz
Ġiniti ative
lip board
Ġfulf il
ĠLuck y
Whats App
ssssssss ssssssss
ĠISS UES
Ġhyper link
ĠStud ents
Ġfacil it
Ġfacil itate
Ġcalibr ate
ĠMom o
ĠCHANG ED
Ġunf amiliar
ĠRemo ving
Suggest ion
imo ji
Ġbiomet rics
ĠCA UI
Ġgoog ling
tttttttttttttttttttttttttttttttttttttttttttttttttttttttttttttttt tttttttttttttttttttttttttttttttttttttttttttttttttttttttttttttttt
mat ical
rig inally
Ġsou p
Ġsam ples
Ġnig gle
ĠÃĭÄ ¾
Ġhasht ags
Ġarrang ements
Ġregre ts
ĠWAN NA
ĠCHILD REN
THANK S
ĠEP IC
table t
ĠThumb nail
ĠWal mart
Ġspir it
Prov ide
Ġvoicen ote
Ġgal ore
ĠCHR OME
Ġweal th
Ġremark able
ĠSUBSCRI BE
Ġlivest ream
Ġunint ention
Ġwaff le
Ġ0000 0000000
ĠSep ar
Ġunic orn
Incred ibly
ĠPortug uese
ĠLand scape
Ġsustain able
Ġmuff led
ĠPA ID
ĠCertain ly
Ġunreason able
ĠHONEST LY
ĠGut ted
ĠWAR NING
Ġalle ged
Ġresc ue
Ġoutr aged
Ġbrack ets
Ġenthus i
Ġdess ert
Ġfreew ay
ĠFRUST RATING
Ġvocab ulary
Ġdoppelg anger
iforn ia
ĠMED IA
ĠHTTP URL
ĠThail and
ĠHallow een
ĠWikip edia
Ġinfrast ructure
! ,
! ).
( )
. *
3 7
3 00
A J
A p
B rilliant
B tw
B OOK
C ause
E g
E l
F OOD
H OW
I X
L ess
L ife
L ICATION
N ormally
P h
P in
P art
S D
S U
S l
S ending
T ruly
W ARE
Z oom
b v
b us
b ear
b ir
b read
b ags
b aked
d le
d raw
d eos
e c
f avor
g ie
h ide
k g
k indly
l as
l ite
m ine
n k
n at
p y
s afety
t b
t v
t Ãĥ
u led
v ve
w s
w ers
w ind
y et
z i
Ġ xt
Ġ ery
Ġt read
Ġa o
Ġa ven
Ġa ving
Ġa fore
Ġa ha
Ġth nx
Ġw ack
Ġm ish
Ġthe ses
Ġb ore
Ġc ed
Ġc nt
Ġc ave
Ġto dos
ĠI Ã¢
ĠI pod
or o
Ġn ur
Ġp f
Ġp sy
Ġit ies
Ġd un
Ġg ed
Ġg aps
ic ago
ot ainment
Ġy og
ver ted
Ġe k
Ġe moj
Ġe ww
Ġre organ
Ġre bu
Ġbe ating
ut o
Ġin line
Ġin vert
Ġwh e
Ġwh ith
Ġwh oop
Ġha lt
ay lor
ĠT em
Ġst ack
id al
Ġnot ific
Ġan ny
Ġan gles
ĠA i
ĠA k
ĠA y
ĠA z
ĠA me
ĠA ap
ĠA sh
ri a
al o
ĠS K
ĠS al
ĠS aw
ĠS ongs
ess aging
th ats
ĠG H
ĠG ear
Ġch ains
Ġv lo
Ġv oid
ĠW ar
ap ed
Ġuse age
Ġsh y
ant i
ĠÃ ¨
Ġj pe
Ġj ake
Ġj pg
ce nding
Ġal go
Ġwas t
Ġde em
ĠY all
ĠB C
ĠB ank
ĠB iased
ĠB LOCK
Ġfr icking
Ġr up
ĠP le
ĠP en
ĠP oop
ĠP hill
ĠP REM
ĠP ublic
ur t
ur acy
ĠN D
Ġif ied
Ġfi bre
Ġcom ed
if orm
Ġvid e
pe at
Äł Q
Äł back
Äł down
Äł hand
Äł enc
Äł Be
Äł Pl
Äł ev
Äł UN
un ny
un ctions
Ġno on
Ġno ice
ĠM agic
Ġwhat ss
Ġpl ag
ĠC ARD
Ġgo ggles
Ġtr un
ĠF a
ĠF ashion
ĠF actory
Ġmo ld
ĠD eep
ĠD ATE
ĠD raw
cc a
ĠL OS
ĠL ags
ĠO PPO
ĠH S
ĠH ong
ĠH onest
ĠH ouse
ĠH ulu
Ġdis e
Ġdis gr
Ġsc aling
Ġun friend
Ġun fin
Ġun locks
ist ry
Ġqu oted
ĠU GH
pl ained
ĠÃ¢ ËĨ
Ġshould nt
per fect
ĠR ay
ĠR andomly
act ical
Ġcl ay
Ġbu h
Ġco in
li ant
Ġdon Ã¢
Ġint im
ÂĿ ËľÂģ
ĠApp store
Ġimp acts
... !
Â¤ Â¥
Ġhe ats
Ġhe he
ach ers
iss ap
Ġact or
Ġsim ulate
Ġdoesn ot
iz a
ĠJ OB
Ġdes cent
Ġsp icy
Ġsupp er
Ġres erved
Ġpr inter
Ġpr ints
ĠAl tern
ĠAS MR
Ġho ly
ĠK udos
be atable
Ġche ek
ĠSt an
Ġunder ground
ĠIn v
ĠIn put
ĠIn consistent
Ġsub bed
Ġgl ide
ak i
Ġwa a
Ġrep rodu
sh ots
OU GHT
ĠEx pensive
Â¸ Â¢
Ġkid n
atter ing
Ġmay o
Ġret ype
Ġcompl iance
Ġdec ency
sk ate
Â¦ Â¥
ifi ers
ifi able
âĢ¡ Â¿
Ġgr asp
âĢŀ Â·
Ġchar ity
Ġcons ists
ah olic
Ġsocial s
Ġname ly
âĢļ Â©
Ġleft y
not hing
Ġcur se
Ġfl uct
ĠBe g
Ġ8 8
Ġbuy er
Ġexp iry
Ġerr one
Ġerr atic
arm s
âĢĻ ÂĲ
âĢĻ Â«
Ġcontin ent
Âµ Ã«
ĠAs us
ĠAs ks
ĠIs lands
AR BAGE
Ġpoor er
fo cus
Â± Â°
Ġcar nt
Ġfin icky
Ġcost umers
down cast
Ġid es
ĠPlay ing
Ġ0 4
Â´ ÂĲ
IT ES
Ġins isting
Ġparent ing
ĠIS T
Ġpersonal ization
ĠUP LOAD
Re bo
Re quest
ĠQu antity
Ġcal ander
For ce
ĠRE G
ĠSuper vision
Â¶ Â¸
Ġey el
Ġmor gz
Äłs er
medi ate
ĠDis able
ĠSp oke
ĠIN D
Ġadv ising
Ġintegr ating
Ġsmo king
Ġnon stop
Äłd r
ĠDE AD
ĠPer formance
Ġcheap ly
Ġfair ness
Ġcor n
ister ed
ater ial
Ġauth ors
Ġce ase
ĠÃ¬ Åł
ÄłS u
ĠAut hor
ĠAdd ress
Ġunre movable
ĠQuick ly
Ch ristmas
AL TH
Ġstream ers
eeee eee
how ever
Ġcu is
Ġri pping
ÂĿâĢ¢ âĢ¢
ĠME AN
ĠPC s
Ġinstru cted
Ġsick ening
ĠWOR TH
Ġbed times
Ġland ing
RI P
ĠDef iantly
Se c
Ġmeaning ful
ĠÃĮ Âµ
Ġpen al
com merce
ĠAr ts
Ġdepend ed
ĠBR OKE
ĠYOUR SELF
Ġprogress ion
Ġlower ed
ÃĲÂµÃĲ ÂºÃĲ
Im agine
Im possible
Äłh or
ĠBlack pink
ĠSH AME
Ġpath s
END ING
Ġair pods
graph ical
Ġban ana
Ġvibr ations
ĠAT M
HH H
Ġpor n
ĠGu ide
Ġsuspend ing
Ġsum s
ĠCle aring
ahah a
ÂĿâĢĺ Â¢
ĠSE CTION
Ġmoder ation
Ġscam med
AA A
ÃĹ ÂĲ
ÃĹ âĢĿ
bb bb
Ġauthor isation
Ġunfair ly
ĠÃį Åĵ
activ ate
Do ing
Ġunt ouch
OUS E
IR D
Ġlaw y
ĠCR D
ĠCR AZY
Ġobs erve
Ġens uring
Ġinvol ving
ĠSTAR T
ĠReg ularly
Ġjum per
ĠTE ACH
ĠTE AMS
Ġresearch ing
ĠRep ly
Ġgirlfriend s
ĠComm unic
ĠSw ed
ĠRest art
Ã¢Ä¢Ä ¿
Ġreorder ed
Ġcapital izes
Ġmir ac
ĠEnjoy ed
ĠRob inhood
Ġcring y
Ġutil ise
Ġtag ged
Ġfb f
Ġdim s
Ġquiet ly
Cle aring
ĠEv a
ĠDID N
Ġapolog ised
Ġlen se
ĠCal ifornia
Ġsun rise
ĠPER I
Ġunpl ugged
fix ed
Ġsle pt
Ġstation ary
ĠINST AGRAM
Ġredirect ing
hg vk
ĠGoo gles
Ġmanip ulating
fa ult
Ġped os
Ġstalk er
Ġved ios
ÃĤÄ¿ Ã¢Ä¢
Ġmigr ation
Ġmigr ated
Ġoverl ays
ĠPart y
Ġcas ino
ĠBang la
Ġredeem ing
Ġiron ed
Gu ys
Ġtor ch
bf bf
Ġbund les
Fe ature
Ġmalf unctions
ĠMal ayalam
Ġreve aled
Ġearning s
Ġpriorit ise
Ġpix ilated
ĠProv ide
ĠProv ides
ĠFEAT URES
bdbd bdbd
Ġgard ening
ĠFair ly
Ġprivile ges
tain ment
ĠHapp ens
____ ____
ĠPort rait
ĠRequ ired
Read ing
ĠSk ip
xxxxxxxx xxxxxxxx
Ġtact ics
ĠGre edy
Ġtimest amps
ĠStick ers
Ġdiscrimin ation
Ġwre cked
Ġconcent r
Ġhunt ing
Ġhah aha
ĠSwift Key
Ġconflic ting
Ġinex plic
Ġcha os
Hang outs
ĠUni versity
Ġtechnolog ies
Ġbaff led
ĠWAN TS
Ġmisunder stand
ĠFACE BOOK
Ġgust a
ĠBed time
Ġbeac ause
ĠAg ree
Ġoverhe ating
Ġlect ures
Ġinfin ity
Ġvoicen otes
ĠÃĲÅ¸ ÃĲ
Ġpersu ade
Ġvow el
ĠNaz is
ĠREVER T
ĠIME I
ĠREF UND
Ġdyslex ia
ĠKEY BOARD
Ġsett led
whats app
Ġbath room
ĠBroad cast
ĠBOT TOM
Ġreserv ations
Ġplo y
bor ne
Ġdut y
ĠDU O
ĠUb ereats
Ġhaz ard
Ġnove ls
Ġveget arian
Ġreocc urring
Ġexpans ion
Ġintel lect
Ġmisbeh aving
Ġgrat itude
tele phone
ĠIMPRO VE
ĠFUM ING
Ġreposit ory
Ġpubl ishing
Ġmixt ure
Ġsophist icated
ĠMULTIP LE
gibb ous
pist ol
Ġquizz es
Ġmanoeuv re
Ġafore mentioned
Ġunfin ished
, ...
. !
3 2
5 8
6 00
? ...
@ @
B u
B attery
C reat
C AN
C oming
D ouble
F ail
F ER
J W
L G
L ot
L ow
M on
M ed
P H
R ew
S I
S end
S leep
S mart
T A
V O
X iaomi
Y ED
_ -
a ire
b j
b n
b ands
b ury
c orn
c ork
d ad
d est
d ie
f ia
g at
g en
g ow
g ener
h ad
k ill
k ish
k itchen
l ion
l ery
m ust
o cks
p se
p opping
r acts
r ical
r ison
v c
v ia
w y
x istent
Ġ ouch
Ġ Â¸
Ġt an
Ġt ings
Ġa ur
Ġa ight
Ġa ster
Ġa hold
Ġi ent
Ġi der
Ġs ap
Ġs ink
Ġs ided
in f
in h
re fresh
Ġm t
Ġm ul
Ġb hai
Ġc ried
Ġf on
Ġf iddle
Ġto es
Ġto days
ĠI LL
le ar
Ġp ane
Ġit unes
Ġd ent
Ġd ust
Ġd ime
Ġh gf
an ic
ed uc
Ġo se
Ġo ct
Ġo il
Ġo ce
Ġo ven
Ġo ok
Ġo mission
Ġg an
Ġl au
Ġl ining
Ġapp ed
ot ion
ar on
ar get
st ic
st ream
Ġbe ter
Ġyou Ã¢
Ġin es
Ġin op
Ġin und
se l
et ies
ĠT L
ĠT ick
ĠT oy
ĠT ired
ĠT AKES
ĠT icwatch
Ġst abil
Ġnot ic
ĠA H
ĠA ri
ĠA ud
ad or
ro red
me l
ĠS au
ĠS urvey
ĠTh oroughly
Ġso lo
ĠG eo
ĠG reen
ĠG DP
Ġch ip
Ġch ime
Ġv ine
ag a
ĠW a
ĠW ants
ĠW asted
ap er
ap on
Ġas ed
Ġsh outing
el lent
gh h
ĠÃ ©
ĠÃ ĭ
Ġj st
Ġj ay
Ġj azz
Ġti e
ce nd
ul us
ul ture
Ġwe ed
Ġpro hib
ĠB D
ĠB h
ĠB al
ĠB anging
ĠB ox
ĠB ANG
Ġfr uit
Ġr he
ĠP ic
ĠP ric
ĠP EW
ĠP UR
ur g
ĠN A
Ġcom fy
Ġany ones
Ġma i
Ġtime out
if a
pe e
pe lling
Äł x
Äł or
Äł ear
Äł work
Äł IM
Äł the
Äł head
Äł contin
un ks
Ġno vice
ĠM ia
ĠM uy
ĠM erry
ang ely
Ġat all
ĠC ALLED
Ġtr ains
Ġtr acing
Ġex cer
Ġam aze
ĠF li
ĠF ails
ĠF AKE
ĠF leets
Ġmo ck
ĠD ar
ĠD et
ĠD ani
Ġout ta
ĠL eah
ĠL uc
ĠL iber
ĠL AG
ĠO o
ĠO s
ĠO reo
ĠH I
ĠH h
ĠH ind
ĠH ackers
ĠH OUSE
ĠE h
ĠE MS
ast on
Ġpo ds
Ġrec reate
Ġrec omm
ig ure
Ġsc ummy
Ġun l
Ġun en
Ġun free
Ġun eth
âĤ¬ Â»
Ġqu iz
Ġman kind
ĠU h
Ġsu nd
ile y
Ġplease eee
Ġfree e
ĠV ill
Ġshould ers
ĠR ang
ĠR ich
ĠR ah
ĠR oman
ĠR oll
ink y
Ġchange able
Ġcl uster
Ġover load
Ġover loaded
Ġco at
Ġinst it
Ġen v
Ġcr am
ĠGood Ã°Å¸
Ġaw aited
Ġaw arded
gg er
Ġper f
ash board
Ġbl ast
sol icited
Ġsnap st
Ġsim s
ud ge
Ġbeing s
ĠJ O
ĠJ ord
ĠJ AN
Ġdes ert
ord ed
Ġtri als
Ġsp ied
Ġsp aced
ĠTH UMB
ĠTH REE
Ġsl id
Ġem br
Ġar s
Ġar ms
ER Y
Ġres orted
ĠK P
ĠK h
ĠK annada
Ġmon o
be it
be fore
ip ly
Ġinc ur
Ġwo eful
ĠSt e
ĠSt ream
read ing
ĠIn cluding
Ġstu cks
Ġsub men
Ġsub system
Ġmiss pelled
ĠCh ild
sc anner
Ġnumber ed
Ġrep ost
âĢĺ ÂŃ
sh op
sh irt
Ġent ities
ĠEx pand
ĠÃĤ Âµ
od y
Ġend ure
stand ard
Ġhigh ways
Ġes e
Ġ7 4
Ġret ract
Ġstuff ed
Ġreg isters
Â® ÂĲ
Ġclear s
Â¦ âĢļ
orre ction
ĠPl aces
ĠAndroid s
âĢŀ âĢº
OR ED
Ġsw ears
Âģ Â¤
Âģ âĦ¢
Ġmult itude
Â° Â¿
âĢĿ âĢ¢
ib bean
und o
ĠAN GLE
ÅĴ Ã°
Ġpur se
Not ification
wor st
Ġz en
Ġfl aming
ĠSh adow
Ġexp ose
âĢ¦ Âı
Ġkind ness
Ġ+ /-
Ġnews paper
âĢĻ âĢ¹
Ġind ef
Ġsing ers
Âµ Ãĺ
Ġatt acks
pap ers
Ġmean ings
Ġcou riers
Ġhead aches
ĠQ UI
Ġexpect s
ĠPlay Store
Ġreading s
ĠUn limited
ph ony
Ġocc ured
Ġbottom s
ĠIS N
ĠIS NT
Ġbelie ving
Ġbelie ved
Ġdist ancing
Ġfault less
Ġfore head
ÂĿâĢľ Â¶
Ġshort en
St art
tttt t
ĠOr gan
Ġguess ed
pr otect
Ġorgan iz
Äłc or
Äłc ar
Äłc ustom
ĠLo v
Ġactiv ates
Ġdefault ed
Ġeffect ing
Â» Â¥
Å¾ Ã¯
Ġfit ted
Ġmet res
Ġsty lus
ĠDis agree
ĠSim ples
ĠIN CR
ĠIN CL
ĠSome body
Ġug liest
Ġpower ing
Ġvari able
Ġincre ments
Äłd if
ĠAny time
Ġwriting s
Ġlight ly
Ġtask bar
ĠSer ies
ĠBE G
EEEE EEE
Ġcompat able
Ġpub lication
Ġpleas antly
ÄłS p
Ġblur s
ĠMo b
ĠMo der
Ġmist aken
oub tedly
sy mbol
ĠAdd icted
Ġtrust ing
Äłf in
Äłf re
Äłf ac
Ġcu ando
Love ly
Ġpos ible
len nial
ik a
oc orrect
Ġ14 0
friend s
ĠIP od
hhhh h
ĠSc rew
ĠSc anner
Ġlibr aries
Some what
Ġdev ise
ÄłC OM
Ġassign ing
ĠDELET ES
Ġbright en
........ ..
pro ved
com m
Ġpot rait
ĠAr men
Ġeffort lessly
Ġfurther more
SS S
Ġbuild s
ĠInd ividual
Ġbank rupt
Ġdig ging
Ġproject ion
LO VE
Ġlower ing
Ġleg ends
Ġarch ives
Ġarch iving
Ã¥ Åĵ
At least
Ġdoub ts
Ġsto cks
Ġemb ar
Ġlaugh ter
Ġair port
ugg et
Ġhi king
Ġprevent ed
ÄłA r
ĠCo llision
Ġessential s
ĠAT T
Ġminor ity
Ã¦ ËĨ
ĠGu cci
Ġbod ies
Ã¢Ä¢ ÅĢ
kn ife
vid ia
Ġanaly ze
Ġsqu ir
ÂĿâĢĺ âĢº
Ġ1000 00
cont rol
Ġexplan ations
Ġengine er
ĠPH ONES
ĠHang out
lar ge
Äłst r
tr usive
erv ous
Ġinvent or
uri ous
Ġexch anged
ĠSm ashing
ĠOp ening
ĠOp ened
Ġenh ances
ĠSpe aker
Ġpand ora
ĠFA CT
ĠAct ivity
Ġintr anet
Play ing
ox ox
Ġpres ume
Ġemplo yed
Ġtrain borne
ĠMar vellous
Ġlif ting
print ed
Ġadministr ation
ÃĳÅĴ Ãĳ
Me asure
ĠAP K
att i
ĠComm un
Ġminimal ist
Ġscr ub
Ġassoci ate
Ġwel comed
Ġbel ive
Ġampl ification
ĠÃĥÄ º
Ġll c
ĠOld er
send ing
ched ule
Ġmil itary
Ġdram as
Ġcounter part
Ġoutput s
Ġdom estic
Ġowners hip
ĠDec ided
Ġinvestig ated
Ġmonet ize
Ġdisturb ance
Ġsharp ness
ĠDM I
ĠHAPP ENS
Ġrepresent ed
ĠPO INT
ĠET C
Ġorient ed
jf jf
ĠINST EAD
Got ta
Ġalign ed
Ġmanip ulation
Ġstrang ely
Ġlic ens
Ġped ophiles
Ġneighb ours
ĠUninstall er
Ġborder line
Ġmu ito
Ġestablish ment
Ġaim ing
Ġconcl ude
Up graded
DD DD
urs ery
Ġtalent s
Cl icking
Ġiron ically
ĠPe ppa
Ġpanor amas
Ġqual ify
ĠYout uber
ĠTer ms
Ġsubstit ution
Ġexplo it
Ġcater ed
ĠMor rison
SSSS SSSS
ĠTHINK ING
Ġprec ision
ĠReason able
Ġoverwhel med
Ġmotor cycle
Ġfulf ill
Ġfulf illed
Ġseg ments
Ġconc urrent
Ġdiff rent
Ġstring s
Ġmotiv ation
ĠACTU AL
Ġtun ed
ĠOcc asional
urpr isingly
ĠStud y
Ġevol ved
Ad ds
eps i
ĠSon os
ĠGM AIL
ĠURL s
Find ing
Hu awei
Rep l
Ġadop t
Ġadop ted
ĠQU EST
ĠQU ALITY
ĠGe org
Ġvoc al
ĠVal ue
Ġquir ks
Ġmonst ers
Ġcrimin als
Ġcert ific
Ġcompon ents
ĠRestaurant s
Ġpronou nce
Ġuntr ustworthy
ĠDel icious
ĠIntegr ation
Ġdisap ointed
Ġfet ching
Ġrer oute
Ġdia led
Ġlegend ary
could n
ĠDan TDM
Ġsubsequ ent
Ġtremend ously
Ã¢ËĨ Å¡
ĠAng el
Ġflood ed
Ġwitness ed
Ġinevit able
Remo ving
Ġfus sy
Ġcripp led
ĠPICT URE
Ġsnoop ing
Ġdictator ship
Ġdail er
Ġrelent less
Ġenlight en
Ġfreak in
ĠEXACT LY
Ġdisheart ening
ĠExcelent e
Ġdiab olical
ĠEstim ators
ĠMuslim s
Frequ ently
Ġpester ing
ĠTRI ED
Ġvib es
Ġunatt ractive
Ġspont aneously
Ġartific ial
bank note
ĠMyS pace
Ġconst rain
Ġsib lings
Ġgent le
Ġinadvert ently
ĠMOB ILE
Ġobt ained
ĠPROPER LY
Ġconj unction
Ġplum met
Ġrebu ild
ĠPREM I
Ġuneth ical
% ,
, ..
4 1
5 2
7 9
: -)
? ,
A UT
A IT
A ccess
B oy
B arely
C ens
C alendar
C ESS
D uck
E s
E nd
F ailed
G oo
K n
L ack
M essage
N Y
N TS
P G
P e
S elf
T LE
T ex
T UB
W ait
W aze
W ARDS
Y a
^ ^
a ily
a uture
a ires
b oth
b ber
b les
c reat
c ity
c ated
c art
c annot
d b
d id
d iction
g d
h appy
i ers
i vers
k an
k it
l ive
m ight
m akes
n it
o z
o Ã¢
p i
p x
p ers
p ics
p asses
r acting
s ame
s ored
s chool
u ated
u ating
u ality
u aly
w aning
w ritten
z el
z ÃĦ
Ġt le
Ġt ts
Ġt witters
Ġa ft
Ġa use
Ġa ustralia
Ġi er
Ġi ed
Ġi ld
Ġth ri
Ġs r
Ġs ights
Ġs rsly
in er
Ġw an
Ġw ishing
Ġw ander
at ient
re nder
ou er
Ġb ass
Ġb orrow
Ġc n
Ġc er
Ġc amb
Ġc ept
Ġf iction
Ġto ggling
ĠI l
ĠI ove
es y
Ġn c
Ġp ud
Ġp ng
Ġp eek
Ġit ion
Ġd ub
Ġd ough
Ġd ip
Ġh an
Ġh ier
Ġh mm
Ġand s
Ġu ch
Ġu be
Ġu mb
ll i
ed ge
Ġo th
Ġo red
Ġo ol
Ġg ing
Ġg oof
Ġl ux
Ġapp ing
Ġis so
ic ality
ic rous
om a
ar ious
Ġy y
Ġy um
st yle
Ġre q
Ġre at
Ġre le
Ġre vol
ut al
Ġin ade
Ġwh ome
Ġha mb
Ġfor b
et hing
ĠT x
ĠT AK
ĠA f
ĠA UD
Ġdo est
ro ck
ri gu
ĠS ite
ĠS OR
ĠS pect
ĠS ize
ĠS UR
ĠS AKE
ĠS etting
ĠS ONG
th eo
ĠG G
ĠG ar
ĠG row
Ġch amp
ag ain
Ġsh oddy
Ġor ing
el ve
gh an
ant om
ore a
il o
Ġj ak
am i
Ġad m
Ġal led
Ġde grade
ul ates
Ġpro por
Ġpro long
ure n
ĠB oom
Ġfr m
Ġfr ust
Ġfr nds
Ġr ic
Ġr ite
Ġr ud
Ġr ising
Ġr ussian
ĠP an
ĠP os
ĠP rop
ĠP oints
ĠP eter
ĠP interest
ĠP urchased
ĠP epsi
lo st
ĠN Z
ĠN ON
ĠN ames
ĠN ONE
ĠN ik
ĠN umerous
Ġif y
Ġfi ft
Ġcom mend
Ġma is
Ġma iling
ear ly
Äł on
Äł av
Äł you
Äł Im
Äł adv
ĠM art
ang o
Ġpl ese
ew e
ĠC uts
ĠC ENS
ĠC ele
ep ad
Ġk l
Ġk ool
Ġk ardash
Ġtr action
Ġam s
Ġam ple
ĠF ant
ĠF our
ĠF EE
ĠF light
ĠF EW
ĠF OOD
im prove
Ġbec ouse
Ġab sent
ĠO TH
ĠH ut
ĠH IM
ĠH onda
Th ree
ĠE ve
ĠE ATS
ast rop
ir s
Ġrec ipe
Ġrec alcul
ig ig
Ġacc omp
Ġun in
Ġun not
Ġun suit
Ġun ob
Ġun check
Ġun select
Ġun natural
Ġun iform
Ġdown wards
and al
Ġ2 30
Ġman e
ĠU mm
ĠU Tube
ĠU gly
Ġway points
em pl
ĠV isual
ĠV LC
ĠÃ¢ ÆĴ
os ure
ĠR a
ĠR ock
ĠR ih
ĠR oyal
az il
Ëľ âĢº
Ġover look
Ġwho lly
Ġcr az
Ġcr icket
li z
li me
App lication
av ailable
Ġaccount ability
umb lr
Ġaw e
Ġchat ter
ab outs
Ġtim ings
bo lic
Ġinter up
Ġinter gr
Ġact ors
ud o
ud u
ud ging
ĠJ ess
ĠJ ul
Ġsp ite
tt e
pt ive
ĠTH ERES
arch y
Ġem p
Ġar ing
Ġar nt
Ġar ise
Ġar ises
ER OUS
Ġres umes
ĠRe bo
Ġho es
ĠK han
Ġlook in
Ġmon ster
ool ing
ire less
ys m
Ġlit er
ĠSt able
ĠSt ock
Ġty r
Ġsm iling
Ġsm iles
LE EP
Ġtw elve
ĠCh ips
Ġbit ter
Ġcomplet es
sh ake
joy able
Ġent re
Â¸ Â£
Â¸ âĢĿ
Â§ Ëľ
od a
Ġend e
ON Y
sm all
dd le
pon se
Ġret r
Ġret ired
Ġret rain
Ġcompl iments
ĠThank fully
iling ual
Â® Â±
eed s
âĢ¡ Â¨
âĢ¡ Â«
ee ks
ee zing
Ġgr anny
mit ive
Ġfreez ed
Ġcons ult
Âģ âĢŀ
Ġmult icast
Ġfast ly
LL Y
Â° Â¨
ah h
âĢĿ Â¬
ÂŃ âĢĶ
Ġdisc laim
ĠX P
Ġaud iences
Ġ9 00
wor ried
Ġass ured
Ġz omb
Ġfound er
Ġfl avour
ĠYOU TUB
Ġbar rier
Ġexp ressed
Ġexp enses
âĢĻ Â¶
ĠOne Drive
Ġincl usion
Ġda wn
Ġatt acked
Ġfre n
ĠAs king
ĠIs land
Ġcou pon
Ġhead ers
ËĨ Ãª
Ġfin ances
ĠCa uses
ex cept
ex port
Â¨ Â¸
EN C
Ġdevelop ments
Ġprefer able
Ġexpect ation
cl inking
te ch
ĠAPP LE
ĠAPP LICATION
ĠWH ITE
Ġmom s
ĠÃĲ Âµ
hand shake
Ã« Å¸
âĢº Â´
Ġfore st
Ġfore cast
Re f
Re ason
ĠQu it
Ġcut lery
Ġcal c
Ġshort coming
ĠHi i
par ation
Ġchrome books
Ġpar alle
ĠDO B
ĠRE CE
pr us
Ġlearn s
des ktop
MS UNG
ĠLo vin
Wor se
Ġla wn
Ġbeans Be
cul us
Ġsty ling
ĠDis like
ĠSp ort
ÃĤ Âº
Ġbeh aving
Ġbeh old
ĠSO CIAL
Äłd ep
cri be
Ġdiscount ed
ĠÃ¬ Åĵ
ns on
ns ns
Äłre spon
ĠFree zing
Ġve g
ĠMo ved
Ġeng ines
oub t
ĠÃ« Åł
ĠAt least
ĠAR core
Would n
Ġintern ally
Ġinf requ
Ġinf otainment
Ġdam ned
Äłm ot
ĠCr azy
ĠEVERY DAY
ÃĦ ÆĴ
gest uring
Ġspo on
cut s
One Plus
RI GHT
ĠSc am
ĠID K
Ġain s
Ex pand
Ġdi aller
Ġmad d
Ġdev il
Ġident ifier
Ġmar g
Ġwear os
Ġnotice ably
Ġmatch ed
Ġcollect ors
Ġtick ing
Ġuns atisfactory
Ġcatch es
ÄłM e
ĠSH IT
uss ia
Äłg re
Ġten ner
aby te
Any time
Ġic ation
graph ics
ĠDes erves
Ġach e
ĠBr avia
ĠPL ACE
Ġtravel led
Ġpor que
aaaa aa
Ġtechn iques
Ġscreens aver
ĠCle ared
Ġill iterate
ĠFun ctions
ĠSE C
Ġconver ts
ÃĹ Â¢
Äłun s
Ġdistur bs
ĠUN LOCK
Ġmer cy
Ġ1000 0000000
ÄłG r
ĠOut rage
pal ms
Ã¡Å¾ Å¸
ĠTR ANS
list ed
Ġunt idy
ĠId ent
Ġpromot es
ssss ss
ĠÃª Âµ
ĠSpe edy
Ġreload ed
unt o
ÄłE X
Ġspl its
MB ack
ĠFA IR
ĠReg ardless
Ġdistr aught
ĠSIM PLE
Ġtarget ing
Ġdiction aries
abor ate
Ġprep aid
First ly
mb ps
Ġexception s
Ġsnoo zing
Ġcompare s
ĠADD S
ĠADD ING
Ġexcl uded
gggggggg gggg
ĠConnect ed
Äłde f
Ġpred icted
Ġmal ayalam
ĠDOWNLOAD ED
ĠHE CK
ĠHE ALTH
Ġvalid ation
ament ally
ĠMon ths
TT T
ĠÃħ ÅĤ
Ġprop ri
Ġcro ch
ĠRest ore
ĠRest ricted
Ġparticip ating
Ġren amed
Ġampl ifies
ĠÃĥÄ ¦
cr ap
Ġner ve
Ġrepair s
Ġmil lennial
ĠCON S
hd hd
Ġflo at
Ġtermin ate
Ġtermin als
Äłch ar
ĠPol ar
Ġspell ings
Us ers
Ġneat ly
ĠInt rodu
ĠInt uitive
ĠPR OD
spe ak
Ġpatch es
Ġpatch ed
ĠLE AVE
View s
Ġincons ist
Ġsquare s
Ġbene ath
Ġbudget ing
VI OUS
Ġrent ing
ĠÃ¢Åĵ ÅĴÃ¯
ĠSmart watch
ĠArt icle
ĠÃ¢Ä¢Ä ¶
Ġunpl ugging
Ġtrail er
Ġscri pts
ĠCens oring
ĠBO TS
XX XX
Ġspons or
ĠÃĤÄ ¯
Ġgeo graphy
Ġdigit ally
ĠFavour ites
Tot al
Ġfaith ful
ĠLi king
Ġproceed ed
Ġrearr anging
fr ont
Ġovers ized
oooooo od
Res et
Ġdeliber ate
ĠRECOMMEND ED
ĠMor gz
ĠSA MSUNG
ĠSol ve
Ġexceed ed
Ġenfor ced
Lit tle
Ġital ics
Ġshout out
ĠRece iving
Ġvac ations
aren thes
ndnd ndnd
ĠRever se
Ġcongr ats
Ġevol ve
Ġeth ics
Fo ssil
Tim er
ĠBar gain
ĠLock down
Ġtact ic
Äłte ch
Ġvulner ability
KKKK KKKK
ĠEXP ERI
ĠASK ING
Suggest ions
ĠPhil ips
ĠPOS SIBLE
ĠÃĻÆĴ ÃĻ
Reg ards
ocol ate
Ġrum ours
beh ind
Ġgall ary
Ġcontem porary
Ġcontem plating
Ġegg s
ĠForm at
ĠVO IP
ÃĤÄ¿Ã¢Ä¢Ä ¾
Ġoc d
RubbishRubbishRubbishRubbish RubbishRubbishRubbishRubbish
Iss ues
fact or
Ġpolish ed
Typ ical
ĠCy prus
Ġtranscri be
ĠTel ugu
Ġsubstant ially
Ġcatal og
ĠTELL ING
Ġpow ers
Ġamateur ish
Ġlu ke
ĠNaz i
hhhhhhhhhhhhhhhhhhhhhhhhhhhhhhhh hhhhhhhhhhhhhhhhhhhhhhhhhhhhhhhh
Av oid
ĠNY C
QU EST
sim ple
Ġinevit ably
ĠBak was
ĠDrop box
ĠEAR TH
ÃĽÅĴÃļ Âº
Ġhyp oc
ĠDor sey
Ġhelpl ess
Ġhelpl ine
Car rier
ĠLeg it
Ġpuzz le
ĠRequire ments
Ġappli ances
Ġrab bit
ĠPak istan
Ġsuff ice
âĢľâĢł Âı
ĠROB LO
Ġglit ters
Ġbog us
Ġcomplic ating
Event ually
Ġtes ters
Ġemphas is
Ġmathemat ical
Ġsnowfl akes
Li ked
Ret urn
Ġanten na
ĠLAT EST
Ġirrespon sible
dep th
ĠEdu cation
ĠVod afone
Ġarrest ed
Ġacad emic
ĠWEGET FOOD
Ġfoo led
Ġpromin ent
Ġlud icrous
ĠGovern ment
ĠERR OR
Ġmirr oring
Ġuntouch ed
ĠPEW D
Ġindef initely
ĠPREMI UM
ĠOTH ERS
ĠRih anna
ĠbeansBe ans
) ;
+ +
3 6
3 8
7 2
7 6
C a
C ard
C urrent
C reate
C opy
D ate
D OM
E urope
F il
F IC
F old
F unction
G roup
J apanese
K ept
M G
M ar
N ight
N ESS
P arents
R a
R ACE
S P
S MS
S ony
U K
V ers
V olume
] .
a us
b ps
c g
c ateg
c ream
d ro
d irect
e gg
e bo
f k
f our
f illed
f amily
g em
g ment
g lasses
h ack
j p
k h
l an
l ag
l ab
l Ãĥ
l ÃĦ
m ic
m allow
m ultiple
n in
o i
o ing
o ss
o li
p ose
r ap
r ont
r unning
s d
s witch
s afe
t ri
t ask
u ent
u cing
w k
w l
w ar
w ant
w ish
w arm
w alks
y aw
Ġ ough
Ġ ÂĲ
Ġ rol
Ġ rop
Ġ ries
Ġt is
Ġt id
Ġt amil
Ġt ester
Ġa ter
Ġa pe
Ġa qu
Ġa aaa
Ġi ous
Ġth or
Ġth ir
Ġs pp
Ġs one
Ġs ence
Ġs ung
Ġs ik
in al
er b
er ving
Ġw ore
Ġw if
Ġw ig
Ġw ages
Ġw ary
Ġw inter
re ll
Ġm k
Ġm ss
Ġthe ories
Ġb ind
Ġb att
Ġc ot
Ġc tions
Ġc trl
Ġf c
Ġf le
Ġf ash
Ġf ried
Ġf kn
Ġf oul
Ġto ss
Ġto pping
ĠI Q
or is
es se
Ġn s
Ġn ed
Ġn aming
Ġn ude
Ġn ooo
Ġn hs
Ġn ifty
Ġn ervous
Ġn ursery
Ġp es
Ġp ts
Ġp tion
Ġp ak
Ġp ier
Ġp ings
Ġp ension
Ġit ll
Ġit tt
Ġd ice
Ġd rew
Ġd irt
Ġh q
Ġh ats
Ġh oth
an ies
an Sched
Ġu te
Ġo te
Ġg em
Ġg eek
is ons
Ġl s
Ġl t
Ġl id
Ġl ondon
Ġl apse
Ġl anes
it or
it ter
it ism
Ġis m
om as
ar u
ar am
Ġy ard
Ġy elling
ver ts
Ġon board
Ġe ld
Ġe ad
Ġe tern
Ġre ign
Ġre acts
Ġbe z
Ġbe er
Ġbe nd
Ġbe aring
ow ow
Ġin i
Ġwh ining
se x
ch es
ĠT ri
ĠT apping
ĠT aylor
Ġst h
Ġst ro
Ġst im
Ġst eep
Ġst acked
ld i
ld om
id as
Ġbut terfly
Ġan ge
Ġan ces
ĠA ye
Ġcan vas
Ġdo in
ro cket
ri x
al ibr
Ġse vent
ĠS wit
Ġme nd
ĠG ay
ĠG AVE
Ġch est
Ġlo ath
Ġv ie
Ġv acc
ct ing
ag en
Ġli ps
eo ver
eo ples
Ġsh oud
Ġsh ades
Ġsh irts
el ing
Ġall ing
gh gh
Ġcon stit
ĠÃ Ī
Ġj r
Ġph n
Ġwork in
am an
est ine
Ġad block
Ġde ceptive
ul ing
ĠY um
ĠB right
ĠB ell
ĠB itch
ĠB US
ĠB rought
Ġfr icken
Ġfr idge
Ġr ack
Ġr aha
ĠP red
ĠP AIN
ĠP eoples
ĠN T
ĠN i
ĠN av
ĠN AV
ĠN ugget
Ġcom plement
Äł ri
Äł Wh
Äł AS
Äł sign
Äł organ
ĠM od
ĠM OR
ĠM ouse
ĠM IC
ĠM iles
ĠM icrophone
ĠM agn
Ġat ch
ĠYou ng
ew is
ĠC urve
ĠC OOL
ĠC MA
Ġk r
Ġk in
Ġk en
Ġk inks
Ġgo lf
Ġtr av
Ġtr Ãĥ
Ġtr ained
Ġdoes ent
ĠF acing
ĠD est
ĠD roid
ĠD ude
im eter
Ġbec oz
Ġab normal
Ġout we
ĠL D
ĠL ED
ĠL osing
ĠL UV
ĠL arge
ĠL ewis
um ed
um eric
Ġsa us
ĠO U
ĠH R
ĠH d
ĠH al
ĠH un
ĠH ol
Th ird
ĠE ff
ĠE ase
ĠE rr
ĠE ITH
Ġpo se
Ġrec ourse
ig ate
Ġfe auture
Ġdis orient
Ġdis may
Ġun cont
Ġun solicited
app oint
ist em
Ġqu ant
op us
Ġman ny
Ġsu cc
Ġkn ife
Ġkn ocking
em en
per ing
ĠR ing
ĠR ad
ĠR ider
ĠR AC
ĠR DP
ĠR iver
Ëľ Â®
Ġcl one
Ġcl ash
Ġbest est
Ġplay ground
Ġco ord
Ġshow case
ever green
Ġen ing
Ġen se
App reciate
av ours
ci p
ci pl
art ment
Ġint act
Ġint rest
ÂĿ Â¸
ab l
ĠWhatsApp s
Ġimp atient
Ġinter pre
Ġwhere abouts
Ġspe ach
Ġvers at
Ġbr a
Ġbr aking
Â¤ âĢ°
Ġcomp osition
ach er
iss ue
Ġsim ulator
Ġtext ure
ĠJ on
IN ESS
Ġsp elt
pt o
pt on
ĠTH OUGH
Ġlat itude
ER T
Ġres ized
ĠRe lease
ĠAl t
ĠAl gorith
ton s
Ġcustom izing
Ġstop ing
Ġaut ism
ĠK mt
be c
Ġseem less
Ġwo ld
Ġav a
ĠSt even
ĠSt rongly
Ġwon ky
igh s
ĠIn cl
peri ence
ber Ãĥ
ie f
Ġright fully
Ġfav es
ak k
ĠCh al
ĠCh ris
ĠCh icago
Ġnumber ing
Ġrep aired
Ġel apsed
Ġ6 1
Ġ6 3
sh ell
Â¸ Â§
Â¸ Â¶
Â¸ Â·
lect s
Ġter rain
Ġfa q
EE P
atter n
Ġlay ed
ĠIT E
Â® Â¯
Â® Â©
Â¦ Â§
Ġer aser
Ġmed ic
Ġide ally
âĢ¡ Â»
ÂĲ Â±
Ġgr ind
Ġgr ows
âĢŀ Â±
Ġpost al
Â° Â®
Â° âĦ¢
VE NT
Å¡ ÅĴÃ°
ĠAll ah
IS ED
âĢ¢ ÂŃ
âĢ¢ Â¨
not ification
Ãĥ Âº
OO P
Ġedit able
Ġbo i
Ġfl ats
ĠBe come
Åł Ã¢
Ġbus h
Ġbar codes
Ã¡ ÅĴ
Ã¡ Åł
Ġuninstall able
ubb ing
ĠSh am
ĠSh rek
Ġur ing
Ġincl ined
ĠTO K
ĠTO DAY
Ġind ent
Ġind oor
Ġtrack suit
Ġfre nds
Ġmean while
Ġstat ues
AR R
Âª Ã¡
ne h
fo lio
ĠÃĺ ÅĴ
ĠNeed less
Ġteam viewer
Ġnight time
Ġsk ins
Ġauto fill
aw less
Ġreinstall ation
Ġ0 3
Ġ0 5
Ġver bally
ĠUn read
ĠUn ique
ĠUn wanted
No body
Ġtwe e
Ġprom os
br ain
br br
âĢ¹ âĢĿ
Ġrel ates
RE CT
ĠIS P
OM AT
OM END
Ã« ËĨ
St ay
St range
tttt ttt
Ġcolour ing
Â¶ ÂŃ
Ġbeg inner
Â· âĢĿ
Ġorgan izer
Ġmill ise
ĠFI LES
Ġbre aches
Ġeffect ed
Ġhold er
Ġmeas ly
Äłp erson
Äłp rodu
Ġstr aining
Un b
Un acceptable
Ġpin ching
Ġvari eties
Ġfuture s
co very
ĠCom plicated
Ġmut ual
EEEE EE
AM P
Ġmod ifying
Ġve l
Ġdisgusting ly
Ġ:- /
ĠBring s
sy nc
Ġnone xistent
Ġunre solved
Ġminim ized
ĠQuick er
por ting
Ġdisconnect ion
Äłf il
Äłf un
Äłf ree
UR R
Ġque ues
ĠTr acking
ÂĿâĢ¢ âĢĿ
Ġ$ .
Ġround er
Äłt a
Äłm et
Ġfort night
Ġtre asure
ST AND
Ġben g
oc s
ĠWOR D
Ġtrue ly
Ġdocument ed
val id
ĠSc an
ĠSc roll
Ġbreak out
Ġconfir ms
ÄłC ont
pro v
ĠWo ke
box es
Ġly k
Ġuni qu
Ġport folio
ĠFr ame
Ġyoung est
Ġslack ing
LO LO
Ġrese ting
Ġuns us
Ġleg s
ENT ION
Sh aring
ÄłB r
Ġequ ipped
Ġdial pad
ĠSH E
Ġrot ten
Ġwats ap
Ġsyn ching
Ġten nis
Fix ed
ĠBr and
ĠGr aph
Ġdangerous ly
Ġfu ction
ĠGu ard
ĠGu ards
ĠUser name
Äłw as
port ed
Ġjump y
ĠRecommend ations
Ġill ness
Am azon
ĠSE LECT
iiii i
Ġarr ay
ĠUN LESS
cont acts
Ġauthor ize
Ġye et
Ġ_ __
ĠHang ul
list en
Inst all
mmmm m
Ġtruth s
ĠOp inion
ĠPut s
Ġfoot wear
Ġenh ancing
Ġens ures
unt u
ĠRed dit
ĠFA C
ÄłW H
Ġintr usion
Ġdismiss ing
Play lists
ox o
ÃĥÄ ¹
jd j
Ġvisit or
Ġblind s
ĠTHANK YOU
Ġexcl us
organ ized
ĠMar sh
ËľâĢĿ .
ĠMiss ion
Ġdep osit
Ġhost ing
Ġrev isit
Ġrev oked
ĠMin or
Ġboyfriend s
ĠCar ibbean
Ġtom ato
Ġdemand ed
YY Y
ĠMon ster
???? ????
ĠÃħ Äµ
AND S
ACK ING
Ġwel coming
velop ed
ĠApplication s
cr acker
Con venient
ĠUR G
ĠRes ol
ĠRes ults
ĠSP AM
Ġpeace ful
Ġste er
Ġste el
Ġste ering
ĠDI FFER
Ġreflect ing
Ġcounter intuitive
Ġcontr ary
Ġimm igr
ĠCONT RO
Ġmach ines
Ġpray ers
ĠEd ited
Ġdefin itive
spe ed
Fr ont
ĠAccount s
ĠCOMP AT
Upd ating
ĠDisc ount
Ġble w
ĠSound s
ĠPO I
Ġscen arios
Ġannou nces
Ã£ÆĴ Å½
WW W
ÂĿâĢĿ âĢļ
ĠÃ¢Ä¢Ä µ
ĠÃ¢Ä¢Ä ¾
Ġoverr ated
Ġoverr ides
ĠCheck out
Ġgar ment
ĠACCOU NTS
ĠBO Y
Rest art
Ġdear ly
Ġped est
Ġpu pp
Ġpu ppy
sec urity
ĠChar ge
ĠÃĤÄ ±
Ġcas ually
Ġpp ing
Ġpp ed
Ġgeo graphic
Ġbear able
ĠTell ing
ĠFl awless
Ġattend ance
Ġsurv ived
ĠContin ually
Ġemploy er
bre ak
step s
ACH E
ĠHear d
Ġtil ted
Ġiz ation
Ġqual ified
ĠDISG RACE
Ġgram matical
Ġcow ards
Ġdow loaded
ĠBre xit
ĠSA ID
ĠCreat ed
Ġhom ophobic
ÃĲÂº Ãĳ
Ġbab ys
Ġdistingu ished
ĠSHOW ING
ĠMA X
Ġbypass ing
Ġmotor bike
ĠWat ts
ĠÃĽ ÅĴ
Ġaesthet ics
Sound s
Cons idering
ĠProm ot
Ġdiag on
Ġproced ures
Ġeth ical
char ged
Turn ed
every thing
Big gest
ĠAc robat
ĠLight room
BT W
Ġdynam ite
ĠGe orge
Ġwre ck
-------- --------
Ġsnapp er
Show ing
upd ating
Recommend ed
ĠIr an
Ġrum our
Ġdiscre tion
ĠCOMM UN
ĠÃ¦ ËĨ
Ġadvent ures
Ġconflic t
ĠPAR ENTS
Ġzip code
ĠSTU CK
Ġhicc up
Ġdeplo yed
ĠSubscri bers
Ġdiscus sed
ĠSOOOO O
OOOOOOOOOOOOOOOO OOOOOOOOOOOOOOOO
does n
ĠCONNECT ION
==== ====
Ġfeat uring
Ġpreser ve
ĠDEC ID
Ġarbitr arily
Ġweal thy
Ġescal ate
Ġox ygen
ĠMic key
HHHHHHHH HHHHHHHH
Ġfest ival
Ġidol s
Ġstruct ured
Ġdyslex ic
Ġfunn iest
Ġeval uate
ĠMean while
ĠPot ter
Mot o
bul b
ĠSex y
ĠSurpr ised
Ġnovel ty
Integr ation
Ġelev ation
ĠSIGN AL
Ġrhy mes
Ġcorrup tion
Autom atic
Blo atware
ĠART ISTS
ĠFavor ite
Ġreimbur se
ĠKn owing
ĠConvers ations
ĠFREEZ ING
Occ asionally
Ġalph a
ĠBon us
ĠIsra el
ĠLGBT Q
Wallpap ers
Ġnich e
ĠLEAR N
ĠEY ES
Ġameric a
short cake
Americ as
Afric a
Ġmig rain
ĠIgn ore
ĠCapt ain
Ġglor ified
Ġschem es
Ġdetri mental
Mean while
Hear t
ĠMENT AL
ĠCOP Y
Ġbuis ness
Ġleis ure
ĠBELIE VE
Ġgreys cale
Ã¡Å¾Å¡ Ã¡Å¾
ĠMalays ia
Ġtread mill
Ġinund ated
ĠToy ota
Ġunen joyable
ĠJord an
ĠJAN ET
Ġsquir rel
Ġlicens ing
Ġhier archy
Ġinade quate
ĠTAK EN
theo ld
Ġunsuit able
Ġparalle l
Ġpropri etary
ĠROBLO X
Ġthor ough
Ġfash ions
Ġhoth ead
ĠDIFFER ENT
" ).
, )
- >
5 3
A verage
B lack
E X
E r
F urther
G IVE
G PM
H app
I V
I am
I RE
I rritating
J O
L ock
L uck
M ail
N est
O ptions
P op
R eli
R OW
R outines
S ay
T N
T y
T ouch
T apping
T ested
U H
U AV
W TH
Y N
a is
a ust
a ÃĪ
b el
b etter
b aby
c il
c ookie
e b
f ailed
f actory
f inder
g gh
g ons
g ling
h j
h n
h ent
h ard
h air
i be
i ors
i uses
i Phone
j al
j ah
m aster
n ge
o oting
q q
s ure
t g
t il
t ear
t aking
u eless
w an
x ed
z u
Ġ ould
Ġ ount
Ġt at
Ġt ying
Ġt ink
Ġt wit
Ġt rill
Ġt ens
Ġt icwatch
Ġa j
Ġa ther
Ġa Ãĥ
Ġi ke
Ġi gh
Ġi zing
Ġth i
Ġth w
Ġth Ãĥ
Ġth resh
Ġs ift
Ġw ou
Ġw and
Ġw ann
Ġw isely
at ics
re ed
re cent
re cogn
Ġm f
Ġm im
Ġm ash
Ġthe ater
Ġb ay
Ġb aking
Ġb leep
ing le
Ġc d
Ġc ig
Ġc ial
Ġc andy
Ġf az
Ġf ence
Ġf aint
Ġto e
ĠI II
or ous
Ġn w
Ġn is
Ġn ar
Ġn un
Ġn oodles
Ġp end
Ġit h
Ġit ouch
Ġit ttt
Ġd oo
Ġd ab
Ġd oodle
Ġh ers
Ġh ors
Ġh Ãĥ
Ġh ired
an ÃĦ
Ġu u
ll o
ed ited
Ġo le
Ġo mit
Ġo of
Ġo ooo
Ġg room
Ġg inger
Ġg armin
Ġg enders
Ġl ap
Ġl ur
Ġl ick
as gow
it i
it able
it oring
ic ts
om ination
Ġe f
Ġe ed
Ġe uro
st orage
Ġre h
ut ube
Ġyou Ã°Å¸
oo ze
Ġin h
Ġin between
Ġin activity
Ġwh t
Ġwh is
se ver
Ġ! !!!!
et a
ion e
ĠT F
ĠT ill
ĠT witch
ĠT Ã¡
ĠT aken
ĠT iana
Ġst all
Ġst ab
Ġst air
id i
Ġnot her
Ġnot epad
Ġan a
ĠA ch
ĠA ust
ad as
Ġcan ton
Ġdo en
Ġdo ck
ro pped
Ġne m
al m
Ġse ldom
ent imes
ĠS om
ĠS AT
ĠS ens
ĠS ale
ĠS OO
ĠS ister
ĠTh in
th in
Ġme e
ĠG oes
ĠG AMES
ust ing
Ġch an
Ġch ick
Ġv om
ĠW all
ĠW ENT
ĠW riting
Ġus s
Ġas ian
Ġsh ad
Ġsh ity
Ġsh ark
.. ,
Ġcon gest
il le
Ġj esus
Ġph ew
est im
Ġare d
Ġad ing
ple x
Ġal as
Ġwas sap
Ġde x
Ġde grading
ul a
ub i
ĠY as
Ġpro x
ĠB ul
ĠB FF
ĠB ATTER
ĠB EWARE
Ġr d
Ġr r
Ġr s
Ġr t
Ġr on
Ġr aving
ĠP P
ĠP at
ĠP et
ĠP ark
ĠP df
ĠP ract
lo d
lo e
lo de
ur ant
ĠN oice
ĠN umbers
ĠN andos
Ġfi led
Ġfi anc
Ġhas s
if fs
Ġvid ios
Äł ut
Äł all
Äł el
Äł ce
Äł art
Äł opp
Äł any
Äł ty
Äł log
Äł jo
un able
un less
ĠM R
ĠM m
ĠM st
ĠM ur
ĠM mm
ĠM ahjong
ang les
Ġvideo call
Ġwhat not
Ġpl ss
ĠC ur
ĠC UT
ĠC mon
ĠC ards
ĠC odes
ĠC losed
Ġgreat ness
Ġk k
Ġk er
Ġk an
Ġtr a
Ġex hib
Ġam en
ĠF urther
ĠF AST
ĠF asc
ĠF amous
Ġmo ds
im pressed
cc c
Ġab c
Ġab und
Ġab omination
ĠL y
ĠL oo
ĠL az
ĠL ab
ĠL ib
ĠL augh
ĠL mao
Ġsa kes
ĠO D
ĠO W
ĠO UTS
ĠH ay
ĠH am
ĠH oly
ĠE CT
rou ble
ir med
Ġpo ker
Ġrec ive
Ġacc ustom
Ġdis gust
Ġsc ram
Ġun li
Ġun arch
Ġag ency
and ex
ist a
ist ically
ick ers
are s
Ġqu ota
Ġqu arters
Ġpre jud
Ġpre paration
Ġoff ense
It Ã¢
ĠV P
ĠV log
de fault
ĠÃ¢ ÅĴ
Ġ5 4
Ġ5 7
Ġ5 8
ĠR id
ĠR ated
ĠR ussia
Ëľ Â¦
Ġstill s
Ġcl oned
Ġover write
Ġcr app
Ġcr acked
Ġle an
Ġsay a
ci aly
art e
Ġint rigu
Ġaw ait
Ġlong itude
ÂĿ âĢº
gg ie
con venient
ab by
Ġimp air
up load
OS S
OS ED
OS SIBLE
Ġbr id
Â¤ Âģ
Ġ10 4
Ġbad ddd
Ġcomp il
sol esc
Ġ4 7
iss an
ud ud
ass ion
ĠJ ad
ĠJ us
ĠJ urassic
Ġlast ly
Ġtri mm
Ġsp heres
Ġsl ice
iant ic
Ġpay out
Ġsupp ression
Ġres ident
Ġres izing
ĠMy self
ĠRe volution
Ġsearch able
ĠAl oud
Åĵ ÃŃ
du c
ĠK o
ĠK ar
ĠK ia
opp a
Ġmon keys
ĠSt al
ĠSt eps
Ġmode lling
Ġwhatsapp s
ra ise
Ġstu nt
ell s
Ġsub way
ĠCh oose
âĢĺ Âģ
Ġel ses
Ġref ere
Ġ6 6
OU BLE
Ġpart ly
Ġter n
Ġkid dos
Ġsort a
Ġsystem atically
ĠNice Ã°Å¸
Ġhope ful
Ġ* ***
Ġret ro
Ġcompl iant
sk ip
Ġlisten er
Â® Â®
Â® âĢ°
Â¦ âĢ°
Ġblack berries
Ġer ases
ĠPl an
ĠPl zz
Ġlive profile
âĢ¡ Â´
Ġgr ading
Ġgr aded
âĢŀ âĢľ
âĢŀ Â´
AS ED
Ġcons iders
pect ing
Ġmem orable
ĠBrilliant ly
Ġsocial ist
âĢ¢ Â©
Ġcommunic ated
Ġcommunic ator
ĠX r
Ġ9 11
Ġcur ate
Ġhalf swipe
wor ld
Ġsur fing
Ġbo at
Ġbo oted
ĠDe x
Ġbus s
Ġbus es
Ġpa ul
ĠSh op
ĠSh ane
Ġicon ic
Ġexp ir
âĢ¦ (
âĢ¦ âĤ¬
âĢ¦ ÂĲ
âĢ¦ âĢĿ
?? !
âĢĻ Â¿
Ġcare ers
Â¡ )
Ġtrack ers
Ġro se
Ġfre ed
Ġap ril
angu age
work ed
Âª Ã¥
ne xt
Â¯ âĢł
Ġshop aholic
ex plan
Â¨ âĢ¢
VER S
Ġexcellent ly
Ġwonder full
Ġver ity
Ġver dad
ĠUn fair
Ġtap ing
Â¬ Â´
IT ING
ari ety
Ġrel ations
RE AM
Ġclass y
Ġclass ics
ĠInst alling
ĠBA M
Ġspec ifications
Ġappreci ating
Ġdr inking
Ġcomment ary
Ġca ut
Ġca fe
ÂĿâĢľ ÂŃ
Ġshort est
par ts
For cing
St eps
Ġmind ful
Ġstraight away
ĠRE CC
pr oof
Â· Âı
pend s
Ġorgan ic
Ġcharge able
Äłc lo
Ġmor on
Wor ld
Ġlow ers
Äłs nap
Äłs qu
Ġmet al
Ġmet ting
ĠMY SELF
ĠIN S
Ġpain s
Äłp ay
Äłp op
ether lands
Un reliable
Ġnon ces
Ġdiscover ies
ĠIm portant
ĠIm mediately
Ġmoment arily
ĠDE P
Ġoper a
ĠBE H
Ġred one
Ġgre asy
connect ed
ÃĻÅł ÃĻËĨ
Ġce iling
Ġgif ted
Pl anSched
Ġve t
Ġpush y
ĠALL Y
ĠSort ed
OW ER
ĠMo ham
Ġunre cogn
Ġminim ising
oooooooo oo
Äłf a
ĠAR OUND
Ġcu ri
Ġcu ent
Äłb lo
ĠSnap Map
ĠHelp ing
ÂĿâĢ¢ âĢĶ
Äłt em
Äłm ar
ĠME X
uff ed
OD ES
ĠCl icking
Ġess ence
Ġsus pic
Ġcent res
RI ATE
Ġbreak down
Ġain ing
Ġdi et
Ġdi alling
ownload ed
Ġmad ness
Ġsaf est
he ld
Ġscann ers
Ġcompet ent
Ġautomatic ly
pro ving
head s
Ġappro ving
com plete
com puter
ÄłP re
Ġmarket place
Ġport ed
ĠInd ispensable
Ġcross ing
Ġcross es
ĠBR OW
Ġproject ed
Ġcollect or
Ġsens ing
Ġrese m
Ġoptim izing
Ġdumb ass
Äłh app
ÄłB E
Ġscreenshot ting
Ġdoub les
ĠSH UT
Ġ19 70
ĠOK AY
Ġlaugh ed
Ġsyn ch
Ġten go
Ġwrit ers
Ġbur den
ĠDes cription
Ġsubject ed
Ġvibr ant
Ġ200 7
ĠBr other
ĠCo z
Ġund one
omen ess
ĠAT E
Su ite
bl m
Ġfu nt
Ġgh t
Ġdirection al
Ġodd ly
Ġrespect ed
Ġrespect ively
Ġsqu ished
room s
ĠLast ly
Ġscrew s
Ġcat astrop
ÃĹ Â§
bb d
mar king
ĠTime line
Äłst re
ĠTR U
ĠEX PL
ball s
Ġpap a
Ġunw elcome
Ġinvest ing
Ġinvent ory
uri ating
Ġretrie ved
Ġslides how
ĠSm ith
ĠOp ens
ĠÃª Âª
ÂĿâĢĶ Â¿
ÂĿâĢĶ Â¶
Ġgri ps
Ġgri ef
che cked
rrrr rr
unt led
Ġimpress ions
Ġfire fox
do or
ĠAct ual
Never theless
ĠADD ED
Ser ies
Ġhost s
Per iod
Ġplug in
ĠClear pay
Ġinno c
Ġrev ive
Ġrev ived
Ġrev amped
ĠMin im
Ġdread ed
ÃĤÄ ¯
ĠÃħ Å¸
Qu est
Ġpet itions
Ġow ing
Ġow ning
ĠÃĥÄ ²
Äłe qu
sn eezing
Ġsplit ting
ĠREC ENT
ĠList ening
ĠRes pect
Ġcapital ization
Ġcapital ism
Ġmir rored
ĠSP OT
Ġhurt ful
Ġste ak
Ġste aks
Ġste pped
Ġcounter parts
Ġrefer ences
Tr ust
Ġdissap ear
call er
Ġdemo graphics
Ġtrigg ering
Ġcontribut or
ĠFRI CK
ĠÃ°Å¸ÅĴÅ¸ Ã°Å¸ÅĴÅ¸Ã°Å¸ÅĴÅ¸
Ġrecc ommend
Ġchill i
ĠLE FT
hold ers
Ġsynchron ized
ĠMeet ing
Ġble m
ËĨÃ« Åł
AC Y
ĠEN G
ĠEN TER
Äłcom pl
Ġinflu enced
RR R
Ġrent ed
Ġflick ing
ĠSub ject
ĠSub aru
Ġsun set
place able
ĠÃ¢Ä¢Ä »
ĠÃ¢Ä¢Ä ¼
pa ired
ĠConf used
ĠÃĻÅł ÃĻ
Ġbum med
ĠHOR R
Ġprofit able
Ġgar lic
Ġdrawback s
Ġsi ÃĦ
Ġexcel lence
ĠRead er
Ġjud gement
ĠTweet er
Ġbound s
Ġslick er
Ġoverl aps
ĠBIG G
Connect ed
Ġfot o
Ġgig antic
dr ooling
Ġgiant s
ĠOption s
ĠEnd ed
Ġfaith fully
ĠContin ue
Äłsu per
ĠSing h
ĠTex as
Ġki jal
fr ame
Ġunc ertain
Inter net
Ġcategor ized
OL UM
ĠKing dom
ĠImprove ments
Spe cifically
Video s
ĠDES IGN
ĠIMP OSSIBLE
ĠYe h
Ġreve iw
ĠJoh nson
Ġconvin cing
Acc ording
Ġpul se
ĠAllow ed
ĠCreat ing
ĠCreat or
ĠCreat ors
ĠEnter tainment
ĠAlarm s
Ġhon our
Man ager
ĠNe at
ĠNe ither
Ġobsc ured
Ġtu cked
Ġlos ers
hour glass
Ġang el
ĠRequ ires
Ġacqu ire
Dif ferent
ĠDem ocr
vvvv vv
Ġhyper links
Ġcongr at
Ġevol ving
enable d
ĠMO VI
Ġdisp atched
Ġbff s
ĠLangu ages
Ġshel ter
ĠLA U
ĠAc cept
Rep ly
ĠEXP ECT
jc jc
ĠStr ava
ĠMajor ity
ĠEAS ILY
Ġunist alled
Ġtur key
Ġcert ified
Ġpit iful
Ġpronou nced
ĠPERSON AL
See ing
Ġsuppress ing
ĠQue en
Ġdevast ating
Ġcha otic
Ġsac rif
ĠBri an
Ġtechnolog ical
Ġbust ed
Ġbaff ling
Ġreactiv ate
Ġvictim s
Ġalt itude
!!!!!!!!!!!!!!!!!!!!!!!!!!!!!!!! !!!!!!!!!!!!!!!!!!!!!!!!!!!!!!!!
Col or
Out standing
Ġcab in
ĠExc use
Tell s
Ġbeac use
ĠTel stra
ĠCONNECT ED
fil ter
ÂĿâĢĻ Â¶
ĠUNDER STAND
Sol ve
Ġeconom y
Ġdisrup ts
ÃĳËĨ ÃĲ
ĠREVER SE
Transl ation
Ġcampaign s
Ġcitiz en
Ġsporad ic
ĠKardash ians
ĠUns ure
zer land
ĠIG N
Ġstruct ures
Ġexagger ating
ĠDoc uments
ĠAdvertis ement
ĠAdvertis ements
Ġdeterior ated
ĠPICT URES
ĠEnc our
Incl uding
ĠWAIT ING
ĠBb m
ĠDB MS
FFFFFFFFFFFFFFFFFFFFFFFFFFFFFFFFFFFFFFFFFFFFFFFFFFFFFFFFFFFFFFFFFFFFFFFFFFFFFFFFFFFFFFFFFFFFFFFFFFFFFFFFFFFFFFFFFFFFFFFFFFFFFFFF FFFFFFFFFFFFFFFFFFFFFFFFFFFFFFFFFFFFFFFFFFFFFFFFFFFFFFFFFFFFFFFFFFFFFFFFFFFFFFFFFFFFFFFFFFFFFFFFFFFFFFFFFFFFFFFFFFFFFFFFFFFFFFFF
Ġbik inis
Ġdil ig
acion es
Ġprotocol s
ĠCHAR GE
ĠMarx ist
ĠPERM AN
Ġwhitel ist
ĠSTR ONG
Ġanticip ated
ĠInitial ization
peated ly
ĠDynam ic
Ġsugg et
ĠMEM OR
Ġlabor atory
ĠPRIV ATE
Ġmild ly
Ġbast ards
ĠLOC ATION
Ġnumer ical
ĠCONTIN U
ĠFOLD ERS
Bed time
ĠDial er
grad ation
Ġhumid ity
ĠSEP AR
ĠBot tom
ĠBRE AK
ĠHav ent
Ġaccord ance
Ġparan oid
ĠFORC ED
ĠIdi ots
Yt Bring
oct opus
ĠFault less
Ġcommiss ion
Ġxen ophobic
ĠOffer ed
ĠAlphab et
ĠANS WER
Ġ;- ;
ĠREPE AT
Ġyog a
Ġreorgan ize
ĠPhill ip
Ġplag ued
Ġerrone ous
Ġeyel ashes
Ġmirac ulous
ĠPERI OD
gener ated
Ġoce an
ĠBD W
Ġunfree ze
Ġflaming o
ĠQUI CK
Ġembar assing
Ġsubstitution ary
Ġcertific ate
Ġpropor tion
ĠFEE L
Ġaccomp an
Ġunnot iced
Ġdisclaim er
Ġmadd ening
ĠOutrage ous
yaw ning
ĠSwit zerland
ĠNAV IG
ĠEITH ER
Ġuncont roll
Ġcoord ination
Ġversat ility
ĠCOMPAT IBLE
Ġcanton ese
ĠBATTER Y
Ġfianc Ãĥ
Ġtrimm ing
! ...
. -
3 65
7 8
8 5
: /
A uth
B AD
C ongr
D r
D irections
D aily
E m
E mail
E nter
F W
F our
F air
F lash
F ocus
G N
G AN
G CH
H Y
H indi
I ll
I OS
K I
M ark
M OUS
N ER
N EW
N exus
N avigating
O lder
P ass
R OS
S oo
S everal
T ech
U r
U tter
W th
W ORK
X x
Z E
a ic
a ÃĦ
b on
b ate
b one
b rew
c j
c ap
c op
c rop
c oin
c ooked
d el
d am
d ip
d ling
e ja
f ying
f acing
f rog
g j
g ift
g igs
h on
h alf
i ating
i ries
j l
l g
l ooking
m u
m is
m all
m me
m ute
m essages
n avigate
o ot
o gy
p an
p it
p ie
q r
r oo
r av
s g
s ound
t ab
t les
t ipping
u el
u ction
u ates
u ously
v b
x s
z one
| |
Ġ ert
Ġ âĢ¡
Ġ âĢ¢
Ġt p
Ġt ou
Ġt ent
Ġt ank
Ġt rolling
Ġi les
Ġi rr
Ġi cks
Ġi ps
Ġs iri
Ġs istem
Ġw d
Ġw s
Ġw y
Ġw ld
Ġw ts
Ġw iz
Ġw ots
Ġw aves
Ġw ww
Ġw iki
at on
at oes
re nd
re view
Ġm ike
Ġb ile
Ġb urns
Ġb ixby
ing e
Ġc z
Ġc ing
Ġc eo
Ġc ue
Ġc ada
Ġf x
Ġf ut
Ġf ist
Ġf ading
Ġto wer
ĠI O
ĠI o
ĠI ce
ĠI os
ĠI ON
ĠI rritating
Ġn ue
Ġn igh
Ġn ump
Ġn ailed
Ġn anny
Ġn oob
Ġp y
Ġp ent
Ġp ipe
Ġp inning
Ġp ony
Ġp arenthes
Ġit tttt
Ġd l
Ġd ile
Ġd ances
Ġd hd
en h
Ġh t
Ġh w
Ġh oo
Ġh one
Ġh inder
Ġh inders
an mar
Ġu ff
Ġu od
Ġu res
Ġo op
Ġo int
Ġg es
Ġg le
Ġg ong
Ġg ra
Ġg ems
Ġg pay
Ġl m
Ġl ands
Ġl amp
Ġl amb
it ated
it Ãĥ
Ġis ion
ic les
Ġy er
Ġy ep
Ġy ah
ver pool
Ġe mo
st reet
Ġre int
Ġre he
Ġre lieved
Ġre charge
Ġre format
Ġbe am
Ġbe for
ow ed
ut en
ut ch
Ġin acc
Ġin secure
Ġof t
Ġ! ?
ch i
ch air
ac ent
ac les
ĠT all
ĠT ru
ĠT AP
ĠT CL
Ġst er
Ġst if
Ġup sets
id ates
ate l
ĠA a
ĠA ldi
Ġne ater
al most
Ġse pt
ĠS I
ĠS y
ĠS light
ĠS atisfied
ĠS ITE
ĠS ooooo
ĠS ELF
ĠS OUND
ĠS QL
ĠTh er
ĠTh nx
ess s
ess or
ĠG al
ĠG ARBAGE
Ġch ew
Ġch op
Ġch ating
Ġch unky
Ġch unks
Ġch ocolate
Ġv ines
ag y
ĠW ere
ĠW ud
ĠW IN
ĠW ah
ĠW ake
ĠW ars
ĠW arning
Ġli qu
Ġli ken
Ġli ars
Ġli vid
Ġus h
Ġus ages
Ġas y
Ġas us
Ġor g
Ġor ts
Ġor ies
Ġ: |
ant dm
Ġj io
Ġj apanese
Ġph ob
Ġph antom
Ġwork able
am am
am ples
Ġget ing
Ġal beit
Ġgood will
ul se
ub y
ĠY or
Ġpro ph
ĠB are
ĠB ra
ĠB LE
ĠB illion
ĠB elieve
Ġjust ified
Ġr it
Ġr ist
Ġr cs
ĠP ig
ĠP ick
ĠP pl
ĠP ete
ĠN ie
ĠN gl
ĠN FL
ĠN vidia
ĠN iantic
ĠN etherlands
Ġif ication
Ġfi fty
Ġany how
Ġma pped
Ġma ze
Ġnew bie
Ġop s
if it
if ferent
Äł er
Äł at
Äł App
Äł form
Äł du
Äł AN
Äł med
Äł und
Äł play
Äł An
Äł kn
un fortunately
un supported
Ġno one
ĠM az
ĠM INE
Ġat a
Ġat ional
Ġback round
Ġback side
ĠC ast
ĠC ru
ĠC RE
ĠC ache
ĠC amp
ĠC arry
ĠC trl
ĠC UZ
ĠC ulture
Ġk tÃĥ
chat s
Ġex pon
Ġex clamation
Ġam ing
Ġam es
own ed
ĠF C
ĠF F
ĠF b
ĠF at
ĠF ail
ĠF uck
qu ick
qu arters
Ġ1 60
ĠD A
ĠD j
ĠD itch
ĠD ual
ĠD ron
cc cc
Ġab sor
Ġout c
ĠL ad
ĠL ord
ĠL ady
ĠO ri
ĠO hh
ĠO PT
ĠO culus
ĠH ur
ĠH um
ĠH ue
ĠH ANG
ĠE W
ĠE lect
ĠE FF
ĠE cho
ast rous
rou bles
Ġpo le
Ġrec om
Ġfix able
Ġdis k
Ġdis information
Ġdis cipl
Ġdis organized
Ġdis astrous
Ġsc ru
Ġun added
app earing
ort on
âĤ¬ Â°
Ġqu er
Ġqu ando
omet ric
Ġim essenger
ĠU mmm
Ġthem ed
Ġway yyyy
Ġplease e
Ġoff ices
Ġbet ting
Ġwatch list
Ġmake over
pl ant
em plo
em pre
ĠV v
ĠV OLUM
ĠÃ¢ Å½
Ġsomet hin
Ġ5 55
per ed
ĠR en
Ġ" "
Ġover head
Ġbest ies
vers ation
Ġco ke
Ġco ck
Ġco loss
Ġco herent
Ġstor m
Ġcr acks
Ġcr awl
red ict
Ġle x
Ġafter ward
Ġdon ate
ci ously
Ġint ensive
umb rella
ĠPlease eeee
Ġchat box
gg in
ab it
ab ulous
Ġper ception
int endo
bo l
Ġinter se
Ġdif icult
Ġbr icked
Ġbr avo
Ġbr utal
Ġ10 1
form ing
Ġmusic ian
Ġfil med
ia h
ud a
Ġthrough put
ĠJ S
ĠJ ay
ĠJ am
ĠJ ones
ĠJ ava
Ġdes ires
ord able
Ġtri angle
Ġrest ock
Ġsp it
pt y
ĠTH OUS
we eks
Ġsl apped
Ġem erge
Ġpay pal
Ġar se
Ġres uming
Ġres umed
Ġsy nd
Ġpr blm
ĠRe ality
ĠAl an
Ġcustom izations
Åĵ ÃĲ
ĠK ash
Ġdiffer ing
be er
ire ction
Ġav al
Ġadver se
Ġunder min
Ġunder lying
Ġunder rated
Ġhard working
Ġed ible
Ġrem inis
Ġgu i
ĠIn appropriate
ĠDo g
Ġgl ory
Ġfar ther
ĠWhat ts
Ġtw ins
Ġloc ator
sc ale
sc apes
Âį âĢ¡
Ġet a
Ġel aborate
Ġsent iment
Ġref ining
Ġvoice mails
sh am
sh are
OU NT
ĠEx er
Â¸ Âģ
iv ot
EE ER
EE CH
ol es
Ġlay ing
Ġdri fts
ens ed
Ġtrans formation
Ġfrustr ations
get ic
Ġreg ulated
Â® Â£
AN E
Ġer m
Âı Â¿
Ġyout ubes
Ġhear ted
med ical
ÂĲ âĢļ
ÂĲ Â¯
Ġgr ain
Ġgr atis
âĢŀ âĢĻ
âĢŀ Â¯
Ġpri mitive
Âģ Â°
any a
ĠFace books
ib ble
Ġsubscri bes
Ġthank u
Al ong
ÅĴ Ã¤
Ġselect ively
ĠAll o
IS O
âĢ¢ Â®
âĢ¢ Â¯
Ġac es
fic ient
Ġdisc reet
Ġcur t
play able
velo pe
ĠWe ather
wor th
Ġass isting
Ġfl owing
ĠBe coming
Ġprof ound
ĠSh uffle
ĠSh unting
ĠFor ward
Ġear piece
Ġexp orting
âĢ¦ âĢļ
âĢ¦ âĢ¦
âĢ¦ âĢ¹
Ġlag g
ĠWhatsapp s
20 1
Ġfollow er
Ġlock er
Ġcare less
Ġsec uring
ĠAw ay
Âµ ÃĻ
back up
Ġro d
Ġro ots
Ġap i
Ġap olo
Ġhead ings
Ġhead quarters
Â± Âģ
Â¨ )
Â¨ _
ĠWell being
Ġcame o
Ġfile name
ĠWorks pace
Ġfac ult
ĠUn necessary
ph y
ĠST UD
ĠST ICK
Â¼ Â½
Ġword ing
Ġgener ator
âĢ¹ Â¶
Ġob vs
Ġob solesc
Ġreset ed
RE W
Ġcop ing
Ġblock y
Ġclass ed
Ġdist in
ific ant
ĠÃĲ ÅĵÃĲ
Ġspec s
In stant
Ġappreci ative
ĠLO V
ĠLO TS
ath y
Ġexpl oration
Ġvis its
Ġfore most
Ġca ution
ĠTe achers
ĠBl ur
Ġinv ade
Ġinv itations
Ġshort com
Ġlack l
St ars
ID K
ID ER
ĠBACK UP
ĠRE M
ĠPre sent
pr actical
ĠFix es
Ġassistant s
Ġcancel ing
Äłc ou
ĠLo cks
Ġdirect or
Ġdeal ers
Ġstud ios
Ġsad ness
ĠPixel s
Ġplz zzz
ĠSim pl
of ield
ĠIN FORM
Ġstr ateg
use able
Ġintegr al
Ġhouse bound
oid able
Ġlight room
ĠMe ets
ĠBE GGING
All ows
ĠSe emed
ser v
ser vices
Ġsimilar ly
atisf action
Ġut ilities
Äłre al
cle an
Ġwind ed
ÄłS e
Ġblur y
Ġopp s
Ġopp ose
As king
ĠMess ed
ĠZ e
ĠZ TE
Ġtem pting
Ġblank ed
** .
Ġwar s
ĠÃĥ ÅĤ
Ġtit led
ĠTr ain
ĠTr uth
ĠHelp ed
Ġheart broken
Ġheart beat
plic ate
uff ering
ST ORE
ĠIM AGE
ĠCl unky
for ting
Ġhot a
els ius
Ġpolic ing
Ġcent ered
Ex actly
Ġposs essed
Ġmis ery
Ġmis place
ĠLI ES
ĠLI VES
Ġir res
Ġpe as
Ġpe pper
Ġpe acock
Ġident ifies
Ġvar ying
Ġvar ies
Ġvar iant
Ġboy cot
Ġeduc ating
Ġpract icality
pro cess
com plicated
ÄłP L
Ġport able
ĠInd epend
ĠCAN CEL
Ġdig est
ĠFr ustrated
Ġauthent icated
Ġyoung sters
Ġimag ing
Ġbi kes
ËľâĢļ .
Im age
ÄłM o
Ġleg ally
Ġrob bery
ÄłD o
Äłh igh
Ã¥ ËĨ
Ġfro g
Ġdead lines
Ġlab our
Ġ19 84
Ġrot ated
erg ency
ÄłF r
Äłg en
ĠGO ES
Pre mium
fl ake
Ġmid st
Ġbur rit
Ġspot ted
Ġment ality
mas k
Ġconfig ur
!!!!!!!! !
Ġ200 5
Ġunb locked
ĠPoor ly
Ġund ated
ony ms
ĠGu y
Äłw a
Äłw r
Was n
Ġbroad casting
Ġrespect ful
Ġdrag ged
band age
Add ed
ÂĿâĢĺ Âı
Ġtele fon
ĠFo x
ĠFo ld
Ġscam mer
Ġdiss appear
Ġcomb ines
Äłun re
ĠUN S
ĠUN AC
Ġmer ry
Ġ1000 0000
Ġposition ed
ĠUp loaded
Ġ_ /
ipp y
ipp er
Ġcy cles
ĠShame ful
UN CH
Ġaf ar
ĠTR UST
Ġhun ger
Ġinvest ors
hic le
tr ansfer
Ġinvent ions
Ġfli pped
ĠLe go
Äłl oo
Ġobs ession
hor se
Ġghost s
MB ER
Ġpand a
ĠAB C
Ġpositive ly
Has n
Ġhus bands
do ing
ĠAct ive
Ġunav oidable
Ġloop ing
ĠText ra
ĠADD ICT
ĠADD RESS
Help ed
rit ical
Ġpat r
Ġast ounding
Ġremot es
ĠSU E
Ġhost age
Ġbless ings
Ġrev ised
Ġrev ision
ĠAP AF
Äłv is
ĠCons erv
AND OM
Ġprop osed
Äłsh ort
ĠRest arting
Ġcritic isms
ĠÃŃ ÆĴ
ĠOff icial
Ġbul b
ĠRidiculous ly
ĠPr ice
ĠPr int
ĠANNO YED
Ġroutine ly
Ġpublish ers
Ã¢Ä¢Ä ¶
Ã¢Ä¢Ä ¼
Ġcharacter istics
ĠRes ult
Com plete
Ġsuffer ed
apt ic
Ġadmit tedly
Ġuncom mon
llll ll
Ġcontr ad
**** **
Bring Back
Ġcontain er
ĠAir play
Ġspell s
Ġutil izing
ĠVer ification
Ġele ven
Mo vies
Ġple a
je j
ĠPR OM
Ġdefin itions
spe cific
ĠSl ick
Fr ustrated
ĠEv il
ĠCOMP UT
Ġforeign er
ĠPLAY L
ĠPLAY ING
Ġamaz es
Ġrepresent atives
Ġhub s
Ġapolog ize
Ġannou ncing
Che cked
ĠTransl ation
UD ING
ĠClass ic
ĠSmart phone
ĠPh enomenal
ĠConf irmed
ĠCS V
Ġretweet ed
Ġsmartwatch es
ĠNor thern
cons uming
ĠMark et
ĠBO TH
ĠBO YS
Ġresource ful
Ġmaster piece
ĠHARD ER
Ġwild life
ĠTab s
Ġmand em
dddd d
ĠCor porate
Stop s
ĠWR ITE
ĠChar lie
ĠÃĤÄ ¿
hob ic
Inc re
Ġish ed
aaa ay
Ġapproach ing
PL S
ROU ND
Up loading
ĠSW ITCH
Ġflu ent
ĠEnd less
Ġcommit ment
CI ALLY
Ġnav bar
Ġsnapscore s
ĠLi verpool
Ġcomprom ising
ĠTech nical
Ġproceed s
Ġcategor ize
Res ol
Ġaplic aÃĪ
Ġmas king
Ġhes itation
ĠTer rific
ĠDES P
ĠPAY ING
Äłcl ass
Ġub ereats
Ġexplo ded
Ġconvin ient
Ġacknowled ging
Ġrat ting
Acc ount
Acc urate
Ġfandom s
âĦ¢Â¡ (
Ġjournal ists
Ġko i
Ġexceed ing
ĠLag ging
)) )
Ġwach ing
Ġbab e
Ġlas er
ĠDown side
YT M
ĠPost ing
Ġrejoin ing
Ġvac u
ĠBru v
Ġmerch and
Ġfasc ists
Ġchore s
ĠFUN CTION
Ġprin cess
stal g
ĠBet ween
Ġrenew ed
Ġrenew al
Ġexpert ise
Ġeth nic
ĠCL ASS
Ġtransmit ted
oooooooooooooooooooooooooooooooo oooooooooooooooooooooooooooooooo
Ġxxxxx x
Ġdemocr atic
ÄłÃĥÄ ²
ÄłÃĥÄ »
ĠArch itecture
ĠDISAPP EAR
Ġrevolution ised
ĠUnb elievably
Ġnut shell
ĠTre nding
Ġcrush es
ĠÃĳÆĴ Ãĳ
Ġcancell ations
Ġmount ains
ĠBIT MOJ
ĠClo sing
ĠLOAD ING
Ġconfer ences
AHAH AH
ĠSTREAM ING
MA O
Äłop er
Äłop tim
Ġunist alling
bringback olds
Ġreinst ated
Ġalloc ate
Fun ny
Ġfri gging
Ġtax es
ĠIns ane
Äłspe c
Ġposit ivity
Alarm s
Ġreluct antly
cas ters
ĠPRE VIOUS
ĠDel ay
EEEEEEEEEEEEEEEEEEEEEEEEEEEEEEEE EEEEEEEEEEEEEEEEEEEEEEEEEEEEEEEE
ĠPleas ed
Ġsac rific
Ġju ice
Ġjail broken
ĠFal se
Ġregre tted
Ġreactiv ated
ĠHot mail
Ġmisunder standing
ĠCHANNEL S
ĠTur key
ĠGCS Middleware
ĠCy ber
ĠThumb nails
Ġeste em
Prov ides
Custom er
ĠTG IF
Ġpreser vation
Ġassess ment
iiiiiiiiiiiiiiii iiiiiiiiiiiiiiii
ĠTool s
ĠSAVE D
Ġsore ly
Ġvow els
Ġremark ably
Ġflood ing
ĠCopy right
ĠHop kins
picture s
setting s
Pod casts
ĠAUT OMAT
Ġalien ate
Ġexagger ation
Ġexhaust ing
Ġguard ian
Ġtang o
ĠNig eria
Ġglich es
Ġattribut e
Ġattribut es
ĠSand paper
Ġcorrespond ence
Ġdiscour aging
ĠMOM O
ĠSHO CKING
Flight PlanSched
Ġreall ly
ĠSar ah
ĠMu ito
ANN ED
Â¯\ _
Ġtrau mat
ĠDC IM
ĠKM T
ĠInf uriating
Ġpaed ophiles
ĠAwes omeness
Conf using
Ġpige ons
Ġworkst ation
ĠMill ions
ĠCas io
ĠCREAT ORS
Ġ:' (
ĠTOT ALLY
Ġlazar beam
ĠSect ion
Ġconce pts
Ġbetray ed
Ġimpart ial
Ġairbr ushed
Ġcosm etic
Ġqw erty
Ġdiscrep ancy
Ġkilomet ers
kno cked
ĠTon ight
Ġneph ew
ĠHon or
Ġunapp ealing
VEL OP
Ġimmers ive
Ġunintention ally
El se
bir thday
Ġpf p
Ġvlo ggers
Ġjpe g
Ġdise ase
Ġdisgr untled
ĠCommunic ating
ĠSwed en
Ġconcentr ation
Ġintellect ual
ĠGDP R
aston ished
CESS ARY
Ġlux ury
Ġwhome ver
Ġhamb urger
Ġfift een
Ġkardash ians
Ġinfrequ ent
ĠEXPERI ENCE
Ġpension er
ĠBitch ute
ĠBUS INESS
ĠRAC IST
Ã«ËĨ ËĨ
Ġbeng ali
ĠCONTRO L
ĠDECID ED
UAV FlightPlanSched
Ġhors es
explan atory
Ġcaut ious
ĠRECC OMEND
Ġsacrif ice
ĠMEMOR IES
ĠCONTINU OUS
Ġnump ad
ĠCRE ATE
ĠDron ology
Ġcoloss al
ĠTHOUS ANDS
Ġsentiment al
Ġobsolesc ence
Ġshortcom ings
ĠUNAC CEPTABLE
% )
) "
) _
3 4
4 3
4 7
A ble
B ar
B ay
B ooks
B LY
B lock
B EST
B ox
C ur
C ast
D ON
D ev
D amn
E xt
E tc
F ive
F acing
F YI
F ingers
G b
G ud
G ames
G allery
G OOD
G ROUND
H ER
H ell
H ands
H ERE
L ame
L ER
M i
M AS
N early
O X
O o
O dd
P ECT
P IE
Q UI
R u
R UP
R ICT
S ign
S pecially
S urprisingly
S mall
T ired
T OK
T AND
U h
U nder
U CT
W OW
Y G
a Ãħ
b ou
b ies
b ud
c os
c orrection
d ot
d ist
d ismiss
e as
e fully
f ound
f ather
f unction
g ate
g ÃĦ
h ate
h aving
i D
i ing
i able
i ality
j as
l uck
l abel
m ies
m ult
m ys
n as
n ks
n av
p ing
p ence
p ost
q g
s i
s ight
s ize
s aving
t ell
t akes
t ica
u ver
u its
w ire
w alking
y z
z ip
z oom
Ġ âĤ¬
Ġ ouse
Ġ ried
Ġt am
Ġt ear
Ġt mobile
Ġa ks
Ġa ined
Ġa ils
Ġs ie
Ġs love
in ate
in ative
Ġw n
Ġw ad
Ġw ri
Ġw age
Ġw oth
Ġw ards
re ep
re ngth
Ġm ick
Ġm ics
Ġm ama
Ġm nie
Ġb ers
Ġb ake
Ġb ond
Ġc king
Ġc oop
Ġc pu
Ġf y
Ġf king
Ġf Ãĥ
Ġf gs
Ġto ck
Ġto ooo
ĠI L
ĠI RR
or al
or igin
or ida
Ġn at
Ġn ite
Ġn ous
Ġn az
Ġn ip
Ġn aff
Ġn ana
le ge
Ġp est
Ġp ir
Ġp ree
Ġp up
Ġp Ãĥ
Ġp orts
Ġp Ãħ
Ġp ivot
Ġit es
Ġd h
Ġd ats
Ġd roid
Ġd wn
Ġd udes
en Ãĥ
Ġh ike
Ġh iring
Ġand y
an king
pp ets
Ġu de
Ġo es
Ġo om
Ġo ck
Ġo oh
Ġg ues
Ġg eared
Ġg erm
Ġg arms
is al
Ġl est
Ġl ates
Ġl ined
as ures
it z
it ating
it ial
it als
Ġapp t
Ġis es
Ġis ation
Ġis hing
ot ch
ot ation
om atic
Ġy ards
Ġon ions
Ġe li
Ġe go
st able
Ġre en
Ġre am
ut t
ut ely
oo s
oo st
Ġin king
Ġwh ites
Ġha be
se ems
se cond
ch ild
Ġfor ci
et ect
et ti
ion eer
ĠT oooo
ĠT ons
ĠT ango
all ly
Ġst ans
Ġst ip
Ġst ages
id ation
id uous
ĠA st
ĠA us
ĠA bs
ĠA CE
ĠA AA
ad os
Ġcan n
Ġcan s
Ġcan ny
Ġcan ned
ro ved
Ġse w
Ġse at
ent ed
ĠS F
ĠS il
ĠS ong
ĠS av
ĠS ci
ĠS ide
ĠS US
ĠS orting
ĠS izing
ĠS ched
ĠS JW
ĠS LEEP
ĠTh omas
Ġso fa
Ġme in
Ġme lt
ĠG F
ĠG ig
ĠG irl
Ġch ing
Ġch uck
Ġch rist
Ġv est
Ġv alent
Ġv ault
ag het
out ine
ĠW en
ĠW ild
ĠW ashing
ĠW oop
ĠW eek
Ġ? !
ap hone
Ġus in
Ġus less
Ġas p
Ġsh aking
Ġor n
el ves
ant o
ant u
Ġcon ne
il ot
il ia
ĠÃ ķ
Ġj n
Ġj s
Ġj acks
est y
Ġlike wise
Ġal th
Ġwas ter
Ġde ck
Ġde gradation
ul ative
ub ed
ub lish
ĠY EET
Ġpro g
Ġpro active
ĠB F
ĠB es
ĠB ased
ĠB rown
ĠB uds
ĠB oris
Ġjust eat
Ġr ay
Ġr ere
Ġr ss
ĠP iss
ur is
ĠN an
ĠN ick
ĠN ord
ĠN avigate
us al
Ġcom a
Ġtime frame
Ġop ting
Äł es
Äł ann
Äł star
Äł ru
Äł AR
Äł my
Äł stru
Äł what
Äł Rec
Äł leg
Äł eng
Äł loc
un lock
Ġno v
ĠM F
ĠM id
ĠM ag
ĠM aterial
Ġat is
Ġat ure
Ġpl at
ĠC X
ĠC oo
ĠC nt
ĠC ACHE
ĠC oppa
Ġk b
Ġk et
Ġk uch
Ġk are
Ġk ab
Ġk ull
end ix
Ġtr ag
Ġtr aw
Ġtr apped
ĠF T
ĠF u
ĠF AN
ĠF LI
qu ately
Ġmo ji
ain e
ĠD L
ĠD n
ĠD am
ĠD ays
ĠD ave
ĠD ance
ĠD EST
im ity
im ming
Å¸ Ã¨ÆĴ
Ġab re
ĠL IM
ĠL INK
ĠL ANG
ĠL aunch
um ayan
Ġsa bot
ĠO l
ĠO x
ĠO dd
ĠO mi
ĠO riginally
ĠH acked
ĠH oll
ĠH BO
ĠH annah
Th umbs
ĠE ll
ĠE lla
Ġrec l
Ġfe as
Ġfe min
Ġacc used
Ġdis b
Ġdis ag
Ġdis ney
Ġsc aled
Ġun sent
Ġun just
Ġun played
Ġun beatable
Ġun checked
Ġdown lo
app ears
atch er
âĤ¬ âĢ¦
âĤ¬ Â·
âĤ¬ Â«
Ġqu i
Ġta xi
op l
op tim
Ġim a
Ġim essages
ĠU w
ĠU ndo
Ġsu x
Ġway yyy
Ġpre ety
Ġpre defined
Ġkn w
Ġkn ee
Ġwatch dog
Ġfree ee
pl ore
em pted
ĠV a
ĠV en
ĠV el
ĠV ir
ĠV ol
ĠV eg
oth e
os ent
ĠR N
ĠR s
ĠR on
ĠR ING
ĠR ange
ĠR UDE
act ually
Ġby tes
Ġpic t
Ġcl ap
Ġsnapchat ter
Ġover board
Ġover ex
Ġover kill
Ġfeature less
vers a
Ġloo ph
Ġinst agrams
Ġen rolled
Ġen unci
Ġle e
li ghts
Ġdon de
Ġdon key
Ġ3 50
Ġaccount ing
Ġaccount able
umb ags
ÂĿ ËľâĤ¬
ĠApp endix
ab b
ab eth
Ġlet tu
bo ld
Ġinter acts
Ġwhere in
Ġspe ek
Ġdif er
Ġrecommend able
Ġwr ks
Ġbl ud
Ġbl inking
Ġbl anks
Ġbl inks
Ġbl asted
Ġuser Ãĥ
form s
Ġhe fty
ach ine
Ġmin uet
Ġsnap ch
Ġtext box
other wise
Ġphotos hop
Ġread just
ĠJ un
ĠJ oy
ĠJ ose
ĠJ ama
Ġdes cend
Ġrest rain
Ġsp elled
tt ps
ĠTH OUGHT
Ġem power
Ġpay day
Ġpr ank
Ġpr icy
ĠMy ki
ĠRe q
ĠRe v
ĠRe be
ĠRe ady
ĠAl ert
ĠAl together
ĠAS US
Ġho b
Ġho gs
ĠK k
ĠK illing
ĠK SI
Ġseem lessly
Ġfir ing
ress es
Ġav ali
Ġche esy
Ġfo e
ĠSt atement
ĠSt adia
Ġunder wear
Ġrem ed
Ġrem ake
ra its
Ġclo gging
Ġsm th
Ġsub tle
ones e
ak ak
LE N
Ġtw in
Ġmiss us
ĠCh ev
ĠCh loe
Ġbit ch
âĢĺ âĢ¹
Ġ6 2
Ġdef end
Ġdef ining
Ġlog on
Ġlog ons
Ġjo ggers
ĠEx per
Â¸ âĢ¡
Â¸ Â¥
Ġter rit
ĠÃĤ Âª
ĠÃĤ Åĥ
Â§ âĢŀ
Ġmay or
Ġlay man
ames e
Ġdri fting
Ġfavour s
Ġ* .
Ġret ake
wh eeling
Ġreg ul
Ġreg ime
Ġreg ulate
Â® âĦ¢
Â¦ âĦ¢
eed back
Ġbig ots
[...]
